<unk>	0
<s>	0
</s>	0
<mask>	0
<cls>	0
<pad>	0
<sep>	0
ን	-3.58751
▁ኣብ	-3.98401
▁ናይ	-4.78191
ና	-5.04211
▁	-5.12618
▁ካብ	-5.13453
▁እዩ	-5.27013
▁ምስ	-5.2897
▁ከም	-5.3302
ት	-5.35443
▁ሓጎስ	-5.39664
ካ	-5.42818
▁እቲ	-5.46254
▁ድማ	-5.46271
▁ዩ	-5.48722
ስ	-5.60746
ም	-5.69105
▁ን	-5.71312
▁ግን	-5.72003
▁ዝ	-5.75356
▁ናብ	-5.80275
▁እዚ	-5.81646
ይ	-5.82332
▁ሰብ	-5.86679
ሉ	-5.91878
▁ክ	-5.99165
▁ኤርትራ	-6.00109
▁ከኣ	-6.02915
▁ይ	-6.034
ኩም	-6.07054
ኒ	-6.07555
▁ውን	-6.10459
▁የ	-6.13343
ኪ	-6.13611
▁ብ	-6.16842
▁ት	-6.18002
▁ወዲ	-6.2015
ዎ	-6.20471
▁ዘሎ	-6.21037
▁ሓደ	-6.21236
ላ	-6.26717
▁ዚ	-6.29138
▁እንታይ	-6.308
▁ዘይ	-6.33927
▁ስራሕ	-6.34441
▁እንተ	-6.34579
▁ከ	-6.35624
▁ኢዩ	-6.35681
▁ነቲ	-6.36222
▁ኣሎ	-6.38187
▁ግዜ	-6.38401
▁ኩሉ	-6.38903
▁ኣይ	-6.39383
ቲ	-6.39618
▁ዘ	-6.39626
▁ህዝቢ	-6.40834
▁ወይ	-6.41991
▁1	-6.44739
ኻ	-6.44929
▁ኣ	-6.45555
▁ተ	-6.48047
▁ስለ	-6.50297
ያ	-6.51008
ዋ	-6.51712
▁ደቂ	-6.51857
ኡ	-6.53148
▁ሕጂ	-6.57064
ታ	-6.57494
▁ኣነ	-6.57806
▁ክት	-6.58849
ኣ	-6.60063
▁ጥራይ	-6.60406
▁ቲ	-6.6574
ታት	-6.66077
▁ዓመት	-6.66335
▁ኢና	-6.69285
▁ያ	-6.71868
ብ	-6.738
▁ሃገር	-6.73824
ው	-6.73881
▁ደርፊ	-6.78454
ል	-6.79898
ዩ	-6.80802
ዮ	-6.81904
▁ቤት	-6.82003
▁እየ	-6.83197
▁ወ	-6.83239
▁እሞ	-6.8345
▁ክሳብ	-6.83465
▁እቶም	-6.84907
▁ዶ	-6.86059
▁0	-6.8763
ሲ	-6.87753
▁ኮይኑ	-6.87913
የ	-6.89059
▁እታ	-6.90666
▁ገለ	-6.91223
▁ሰባት	-6.92921
▁ሓዘን	-6.93849
▁ም	-6.94119
▁ነዚ	-6.94306
▁ሰላም	-6.95272
▁መ	-6.95521
▁እዮም	-6.95846
▁እያ	-6.96079
ቶ	-6.96328
▁ድሕሪ	-6.96455
▁ከይ	-6.96508
▁ከምዚ	-7.01004
ራ	-7.01024
ቱ	-7.03646
▁ማለት	-7.05902
▁ካልእ	-7.06417
▁ሎሚ	-7.06521
▁ፍ	-7.06521
▁ብጣዕሚ	-7.07055
▁ጽቡቅ	-7.07405
▁እዋን	-7.07734
▁ኣታ	-7.07912
▁ዞባ	-7.07993
ክ	-7.08149
▁ነገር	-7.08338
▁ዝብል	-7.08483
ዶ	-7.08648
▁እ	-7.09459
▁እዛ	-7.10602
▁እና	-7.10784
ባ	-7.11111
▁ኣብዚ	-7.11408
ነ	-7.12337
▁አ	-7.12549
▁ምዃኑ	-7.12622
▁እምበር	-7.13044
ኦም	-7.13367
▁ደኣ	-7.13479
ዕ	-7.13886
▁ደስ	-7.14305
▁ግና	-7.14494
▁ዓለም	-7.14637
ድ	-7.15116
ማ	-7.15403
▁መን	-7.15718
▁ኸኣ	-7.16483
▁ኢኻ	-7.18475
▁ከምኡ	-7.18597
▁ስነ	-7.18655
▁ዝነበረ	-7.18722
▁ኣብቲ	-7.18742
▁ልዕሊ	-7.18769
▁ሞ	-7.18995
▁ትምህርቲ	-7.19057
ተ	-7.20771
ር	-7.21362
ለ	-7.21512
▁ኢሉ	-7.22688
ሪ	-7.22704
ሕ	-7.22962
▁እት	-7.23583
▁ገጽ	-7.24093
ለይ	-7.24165
▁ጽቡቕ	-7.24495
▁ብዙሕ	-7.24781
ሳ	-7.25252
▁ሓንቲ	-7.25303
▁ከመይ	-7.25394
ፍ	-7.25766
ውን	-7.26132
ሎም	-7.26664
▁ክን	-7.27139
▁ዘለዎ	-7.27181
▁ክልተ	-7.27702
ኩ	-7.28087
▁ስለዚ	-7.2829
▁ህግደፍ	-7.29336
▁ቤ	-7.29853
ሽ	-7.29885
ሩ	-7.3008
እ	-7.30244
▁ብሓቂ	-7.30375
ሊ	-7.30398
▁ኣቶ	-7.31031
▁2	-7.32235
▁እንዳ	-7.32462
ልና	-7.32477
መ	-7.33407
ዝ	-7.33643
ኹም	-7.34027
ኺ	-7.34845
▁ንሱ	-7.35053
▁ዓይነት	-7.35127
▁ኣይት	-7.35744
▁ነይሩ	-7.35913
▁ብዛዕባ	-7.35928
ቅ	-7.36515
▁ሓወይ	-7.3681
ሎ	-7.36936
▁እውን	-7.38693
▁ታ	-7.39129
▁ዝተ	-7.39213
▁ቅድሚ	-7.39341
▁ዓዲ	-7.39575
▁በዓል	-7.40354
▁ነ	-7.40748
▁ኣይኮነን	-7.40932
▁ማይ	-7.41386
▁ቀጽሎ	-7.41427
ኑ	-7.41505
▁ስ	-7.4159
▁የለን	-7.42297
ዊ	-7.42454
▁ድምጺ	-7.4264
አ	-7.43095
ትን	-7.43475
ሞ	-7.44781
ቶም	-7.45248
▁በ	-7.45723
▁ብዘይ	-7.46054
▁ዝኾነ	-7.46324
ከ	-7.4677
▁ከምዝ	-7.46821
ረ	-7.47789
▁ኪ	-7.47822
ዲ	-7.47905
▁ሲ	-7.48224
▁ኣምላኽ	-7.48663
ኦ	-7.49612
ዳ	-7.50019
▁ሓቂ	-7.51711
ህ	-7.52363
▁ከተማ	-7.52761
ቕ	-7.52852
▁ሽኮር	-7.5295
ሰ	-7.53333
▁ኣለዎ	-7.53425
▁ኣለና	-7.54099
ዓ	-7.54229
▁ሮ	-7.54492
▁ተስፋ	-7.54535
ሙ	-7.54639
▁ቦታ	-7.55076
▁ኣስመራ	-7.55254
▁ሰሓቅ	-7.55572
▁መዓልቲ	-7.55706
▁አብ	-7.56321
ሱ	-7.56699
▁እግዚኣብሄር	-7.57244
▁በዚ	-7.5792
ዉ	-7.59327
▁ድዩ	-7.59985
ኽ	-7.60578
ቢ	-7.60636
ሮ	-7.61143
ሓ	-7.61318
▁ከተ	-7.61505
▁ባሕሪ	-7.61582
ዎም	-7.61631
▁እንተሎ	-7.61827
ነት	-7.62247
▁መንእሰይ	-7.63248
ሚ	-7.63477
▁ዋላ	-7.63641
▁ይኹን	-7.63945
▁ኣላ	-7.6416
▁እዞም	-7.64595
ቡ	-7.64845
▁ድ	-7.64862
▁ዘለዉ	-7.65691
▁ከባቢ	-7.66015
ፋ	-7.66253
ልካ	-7.66263
▁ኣጆካ	-7.66532
▁በቲ	-7.66557
▁ነቶም	-7.66799
▁ዓቢ	-7.67003
▁ጅግና	-7.67019
▁ዮም	-7.67456
ዱ	-7.67857
በ	-7.68026
ደ	-7.68084
▁ኢልካ	-7.68931
ጥ	-7.69302
▁ባ	-7.69386
▁ዝቃወም	-7.70206
ግ	-7.70681
▁ትብል	-7.70808
ተይ	-7.70815
▁ብፍላይ	-7.70858
▁ፍርዲ	-7.72546
▁ይቕረብ	-7.72772
▁ክንደይ	-7.72814
▁ውድድር	-7.7284
ጋ	-7.72979
ጽ	-7.73029
▁ገዛ	-7.7311
▁ደረጃ	-7.73536
▁ዘላ	-7.73963
▁ፊልም	-7.74415
ኸ	-7.74795
▁ሃገራት	-7.7532
▁ኳ	-7.75485
ክን	-7.75523
▁ለ	-7.76624
ዮም	-7.76974
ወ	-7.77014
▁ካኣ	-7.77286
▁4	-7.78466
▁ንሕና	-7.78602
▁መደብ	-7.78788
▁ታሪኽ	-7.79024
▁ደ	-7.79136
▁ነው	-7.79168
▁ማእከል	-7.7956
▁ኣየ	-7.79564
▁ኤርትራውያን	-7.7988
▁ጉዳይ	-7.80048
▁ንዝ	-7.80269
ዚ	-7.81468
▁እዋይ	-7.81814
▁ክኸውን	-7.81869
▁ካልኦት	-7.82281
▁10	-7.82734
▁እን	-7.83295
▁ከምቲ	-7.83311
ቀ	-7.8333
▁ዝሓለፈ	-7.83452
▁እተ	-7.83611
▁ፍቕሪ	-7.83703
▁ነታ	-7.84179
▁ላይክ	-7.84553
▁ጥበብ	-7.84763
▁ኢካ	-7.85062
▁መሬት	-7.85212
ኖ	-7.85364
▁ዓ	-7.85795
▁ኣዝዩ	-7.85799
▁መንግስቲ	-7.8593
▁ሰ	-7.86169
▁ዓወት	-7.86731
▁ሓ	-7.87058
▁ጓል	-7.87069
▁ክብል	-7.87901
▁ሓበሬታ	-7.88432
ናን	-7.88531
ሐ	-7.88762
▁ዘረባ	-7.89108
ቃ	-7.89766
▁5	-7.89886
▁ኤርትራዊ	-7.89987
▁ኣበይ	-7.903
▁ዝበለ	-7.90336
▁ኮ	-7.9057
▁መበል	-7.90573
▁ሃገርና	-7.90781
ኮ	-7.90819
▁ኣይተ	-7.91398
▁ካብቲ	-7.91468
▁ንስኻ	-7.91834
▁ዜና	-7.91903
ፉ	-7.92063
▁ጥዕናን	-7.92369
▁ኤረይ	-7.92535
▁100	-7.92646
▁ኢያ	-7.92712
▁ናይቲ	-7.92901
▁መንእሰያት	-7.93174
▁ብዝ	-7.93926
▁ኢለ	-7.94164
ኢ	-7.94688
ፊ	-7.94897
▁ዓመታት	-7.9501
▁በል	-7.95012
▁ሕቶ	-7.9509
▁ኣለዉ	-7.95124
▁ምሉእ	-7.95159
▁መወዳእታ	-7.9543
▁ነበረ	-7.9551
▁ኢሰያስ	-7.96294
▁ኣምላክ	-7.96805
ፈ	-7.97408
▁ጥዕና	-7.97551
▁ጸገም	-7.97876
▁ሓድሽ	-7.98765
▁ይኽእል	-7.9911
ዛ	-7.99911
▁እንከሎ	-7.99979
▁ዘይት	-8.00151
▁ቃል	-8.00238
▁ሃገራዊ	-8.00628
ጉ	-8.00792
▁ዘለዋ	-8.02427
▁ስርዓት	-8.02666
▁ምባል	-8.0271
ቦ	-8.02855
▁ይብል	-8.02953
▁ልቢ	-8.03341
▁ካብዚ	-8.03588
▁ትግርኛ	-8.03592
▁ኣጆኻ	-8.03796
▁ከሎ	-8.03888
ቁ	-8.03941
▁ኣንታ	-8.04072
ዑ	-8.04119
▁አዩ	-8.04366
▁ደም	-8.04525
▁ዛ	-8.04615
▁ገንዘብ	-8.04643
▁ውሽጢ	-8.04766
▁ኣቦ	-8.04774
▁ንኽ	-8.05167
▁ናጽነት	-8.05631
▁ሽዑ	-8.05736
▁ካ	-8.06035
▁ዝኽእል	-8.062
ቑ	-8.06652
▁ክለብ	-8.06805
▁ኢ	-8.0707
▁ጋንታ	-8.07085
▁ዕድመን	-8.07454
▁ዝዀነ	-8.07913
▁12	-8.08152
▁ሕ	-8.08189
▁ብዙሓት	-8.08276
ጻ	-8.08308
▁በቃ	-8.09152
▁ማ	-8.09322
▁ሓሳብ	-8.09385
▁ምኽንያቱ	-8.09746
▁6	-8.09796
▁ማራ	-8.09925
ዘ	-8.10013
▁ቀዳማይ	-8.10186
ኹ	-8.10442
▁20	-8.10835
ዐ	-8.10929
▁የብሉን	-8.10978
▁ሕጊ	-8.11049
▁እስከ	-8.11182
▁በሉ	-8.11252
▁ትግራይ	-8.11277
▁ህይወት	-8.11608
▁እኳ	-8.11681
▁ዘለና	-8.11706
▁ኢየ	-8.12014
▁ኰይኑ	-8.12015
▁ድኣ	-8.12092
ጣ	-8.12177
ዪ	-8.1232
▁ኣለካ	-8.12393
▁ሓይሊ	-8.12527
▁ካልኣይ	-8.12731
▁ሰለስተ	-8.12769
▁ኢሎም	-8.13305
▁ምን	-8.13344
▁ኮይና	-8.13729
▁ስለዝ	-8.13886
▁በለ	-8.13926
▁እንበር	-8.13964
ጎ	-8.14164
ጺ	-8.14471
▁ዳ	-8.15108
▁ኢኹም	-8.15224
▁ንዓይ	-8.1526
▁ንኡስ	-8.15533
ሻ	-8.15846
▁ግጥም	-8.16203
▁ጸወታ	-8.16205
ሃ	-8.16403
▁ሰዓት	-8.16571
▁ጀጋኑ	-8.16758
▁ስደት	-8.16866
▁ኢዮም	-8.1702
▁ቀ	-8.17064
▁ሂወት	-8.17147
▁ሰብኣይ	-8.174
▁ኣለኹ	-8.17598
ሶ	-8.17705
▁አይ	-8.17754
▁እኮ	-8.17757
▁እስራኤል	-8.17957
ሑ	-8.18098
▁እንተኾነ	-8.1813
ቂ	-8.18254
▁ዝርከብ	-8.18353
▁ነዛ	-8.18611
▁ዝያዳ	-8.18657
▁ብሰላም	-8.18769
ሒ	-8.18998
▁ምድሪ	-8.19346
ሮም	-8.19464
▁ኣደ	-8.19648
ቓ	-8.19832
▁ጽ	-8.20277
▁ኩነታት	-8.2033
▁ሕማም	-8.20395
▁ፈጣሪ	-8.20396
ሌ	-8.205
▁ኣለዋ	-8.20789
ቐ	-8.209
▁ትሕቲ	-8.2119
▁ገ	-8.21196
▁ኣገልግሎት	-8.21204
▁00	-8.21313
▁ንሳ	-8.21467
▁ተባሂሉ	-8.21667
▁ዕድመ	-8.22085
▁ወርሒ	-8.22549
▁መልሲ	-8.22594
▁ሐ	-8.22855
▁ስም	-8.22884
▁ፍቅሪ	-8.2289
▁ክኣ	-8.22905
▁ምበር	-8.23913
▁ፈ	-8.24378
▁መንጎ	-8.24582
▁ዝነበሩ	-8.25352
▁ል	-8.25411
▁ኢትዮጵያ	-8.25435
ዒ	-8.25481
▁ንላዕሊ	-8.25855
ጊ	-8.25892
▁መጽሓፍ	-8.2591
▁ዘይብሉ	-8.26151
▁ኸ	-8.26475
▁ዛንታ	-8.26484
▁ጽባሕ	-8.26653
▁ሽሕ	-8.26818
▁ስድራ	-8.26931
ለን	-8.27492
▁እወ	-8.27617
▁ግጥሚ	-8.27666
▁ጥዑም	-8.28261
▁ሃ	-8.28388
▁ብምባል	-8.28702
▁ዋው	-8.29508
▁7	-8.29733
▁ልዑል	-8.2974
ልኩም	-8.3024
▁ዘለዎም	-8.30529
ጸ	-8.31533
▁ዳኣ	-8.31819
▁ዋጋ	-8.32335
ተን	-8.32422
▁ኩሎም	-8.32473
▁ና	-8.32934
▁ወላ	-8.32935
ሸ	-8.3304
▁ብዘይካ	-8.3345
▁ኔሩ	-8.33572
▁ኣመሪካ	-8.33668
▁ቀንዲ	-8.33852
▁ተራ	-8.33972
▁ዕ	-8.33987
ገ	-8.34185
▁እንቃዕ	-8.3426
▁ጥራሕ	-8.34421
ትና	-8.34433
▁ዘይተ	-8.35288
▁ናተይ	-8.35617
▁ምእንቲ	-8.35852
▁ዕድል	-8.35915
▁ከነ	-8.36124
▁ወጻኢ	-8.36166
አን	-8.36521
▁ጋል	-8.36603
ጢ	-8.3674
▁ንመ	-8.3683
ቆ	-8.36855
▁ኣፍ	-8.37232
▁ክፋል	-8.37347
▁ገና	-8.3792
▁ይበል	-8.38
▁ንጉስ	-8.38161
▁ቀደም	-8.38196
▁እናተ	-8.38249
▁ክንዲ	-8.3829
▁ካብቶም	-8.38322
▁ኢላ	-8.3841
ካን	-8.38614
▁ዓበይቲ	-8.3881
▁ኮማዊ	-8.3888
▁ኣቱም	-8.39323
▁ሸ	-8.39358
▁መንገዲ	-8.39429
▁11	-8.39445
▁ኣባላት	-8.39464
▁ከይት	-8.39476
▁መጠን	-8.39855
▁ትማሊ	-8.39892
ኤ	-8.40522
▁ህ	-8.40608
ጹ	-8.4079
▁ምኽንያት	-8.40803
▁ኣብታ	-8.40877
ጅ	-8.40883
▁ሰራዊት	-8.40985
▁እግሪ	-8.41011
▁እዚኣ	-8.41067
▁ሞት	-8.41112
▁ብሉጽ	-8.41263
▁ወረስቲ	-8.41558
ች	-8.41605
▁ሙዚቃ	-8.41671
▁ቃላት	-8.41882
▁ፍትሒ	-8.41925
▁ደሓን	-8.41959
▁ባህሊ	-8.42122
▁ኢሳያስ	-8.42303
▁እግል	-8.42496
▁ንኣ	-8.42624
▁ንም	-8.42846
▁ው	-8.42985
▁ከምዘሎ	-8.43622
▁ቁ	-8.43686
▁ክፍሊ	-8.43812
▁ሰማይ	-8.43862
▁15	-8.43949
▁እተን	-8.43978
▁ሽ	-8.44022
▁እባ	-8.4458
▁ስልጣን	-8.44739
▁ቅ	-8.45068
▁ነገራት	-8.45116
▁ኮነ	-8.45267
▁ስፖርት	-8.45389
▁ዘለካ	-8.45478
▁መግቢ	-8.4556
▁ዜማ	-8.45613
ካዮ	-8.46425
▁ዘይኮነ	-8.46695
▁ሓዳስ	-8.46737
▁ዕለት	-8.46802
▁ኣንጻር	-8.46859
ሬ	-8.4701
▁ቀጽልዎ	-8.4708
▁ሚልዮን	-8.47422
▁ዝበሃል	-8.47474
▁ላ	-8.47504
▁ነዊሕ	-8.47558
▁ኣይኰነን	-8.47638
ፎ	-8.47923
▁ወትሩ	-8.48093
▁ኣፍሪቃ	-8.48142
ጭ	-8.48657
▁9	-8.48727
▁ብሰንኪ	-8.48941
▁ዝኸውን	-8.48954
▁ዘየ	-8.49091
▁ይኸውን	-8.49209
▁ምዃኖም	-8.49236
▁ኬፍ	-8.49292
▁ኤ	-8.49723
ልኪ	-8.49912
▁ንህዝቢ	-8.49921
▁ከማን	-8.49995
▁ዓይኒ	-8.50049
▁እብ	-8.50226
ጡ	-8.50246
▁ደው	-8.50383
▁ምዕራፍ	-8.50573
▁ኢልና	-8.50787
▁ከቢድ	-8.51716
▁ዳዊት	-8.52242
ጠ	-8.5225
▁ኽ	-8.52286
▁መደባት	-8.52708
▁ኣካል	-8.52782
▁ሊግ	-8.52803
▁ሓያል	-8.52983
▁ኣገባብ	-8.53278
▁መድረኽ	-8.5339
▁ንፉዕ	-8.53428
▁ጀሚሩ	-8.53499
▁ኦ	-8.53697
▁ክብሪ	-8.53883
▁ርእሲ	-8.53988
▁የማነ	-8.54131
▁ዘመን	-8.54168
▁ር	-8.54402
▁17	-8.54453
▁ኣቲ	-8.54457
▁ውጽኢት	-8.54703
▁መግለጺ	-8.54704
▁ደቡብ	-8.54761
▁ኢኩም	-8.54766
▁ቁሩብ	-8.54927
▁መርሓባ	-8.54956
▁ነጥቢ	-8.55017
▁ንጥፈታት	-8.5508
▁ሚኒስትሪ	-8.55302
▁ሙ	-8.55405
▁ህዝባዊ	-8.55704
▁ኢኺ	-8.56163
▁በርትዕ	-8.56372
▁ዜ	-8.56381
▁ንስካ	-8.5642
▁ሎ	-8.56479
▁ናቕፋ	-8.56544
▁ተጻዋታይ	-8.56807
ወን	-8.56859
▁ኺ	-8.5704
▁ዘለኻ	-8.57094
▁ልበይ	-8.57186
▁ኣርባዕተ	-8.57322
▁ክም	-8.57633
▁ኣለኩ	-8.57685
▁ኣጆኩም	-8.57906
▁ብም	-8.58048
▁ነዞም	-8.58136
▁ቀይሕ	-8.59229
▁ኣሕ	-8.59246
ቦም	-8.59647
ሁ	-8.59692
▁ከይተ	-8.60129
▁በጣም	-8.60321
▁ቢ	-8.60391
▁ኣብዛ	-8.60509
▁ሚ	-8.60565
▁ጽብቅቲ	-8.60804
▁መገዲ	-8.61047
▁ከየ	-8.61098
▁ኣሜን	-8.61205
ኖም	-8.61478
ራት	-8.6187
▁ምምሕዳር	-8.61933
ፅ	-8.6195
በር	-8.62095
▁ሰናይ	-8.62179
▁ይግበረልና	-8.62242
▁ሓውና	-8.62268
▁ክቡር	-8.62373
ናዮ	-8.62631
▁ፍሉይ	-8.62652
▁ፍረ	-8.62719
▁ዝተኻየደ	-8.62762
▁ቶም	-8.62774
▁እምነት	-8.62828
▁ብኣ	-8.63081
▁ማሕበር	-8.63141
▁ናብቲ	-8.63296
▁ደገ	-8.63454
ዴ	-8.64114
▁25	-8.64238
▁ሒዙ	-8.64372
▁ዝተፈላለየ	-8.64498
▁መምህር	-8.64791
▁ኢድ	-8.64868
▁ይሃብካ	-8.65133
ሀ	-8.65135
▁ዕላማ	-8.6522
▁ተጻወትቲ	-8.65417
▁ዝነበረት	-8.65425
▁ኣብርሃም	-8.65444
▁እየን	-8.65893
ሓዳስ	-8.66164
▁27	-8.66217
ሂ	-8.6622
▁ዝመጽእ	-8.66444
▁ወድ	-8.66557
መን	-8.66598
▁ሰንበት	-8.66622
▁14	-8.66705
▁ቋንቋ	-8.66915
▁ሃይለ	-8.66978
▁ናትካ	-8.66989
▁ክክክክ	-8.67151
▁ልክዕ	-8.67157
▁ሕማቕ	-8.67318
▁ሳ	-8.67351
▁ዓቕሚ	-8.67422
▁ዝብሉ	-8.67562
▁ገሊጹ	-8.67588
▁ጽሕፈት	-8.6769
ዬ	-8.67818
▁ክትብል	-8.67838
▁ጸ	-8.67889
ጀ	-8.68164
▁ዝኮነ	-8.68212
▁ቁጽሪ	-8.68281
▁ክክክክክ	-8.68322
▁ነይረ	-8.68474
▁ኮይኖም	-8.68995
▁መስርሕ	-8.69743
ዙ	-8.69891
▁ወያነ	-8.70322
▁ረ	-8.70359
▁ስለምንታይ	-8.70465
▁እንግሊዝ	-8.70569
▁ጉጅለ	-8.70961
▁ዋይ	-8.71019
▁ቤተይ	-8.7105
ሞም	-8.71105
▁ወከፍ	-8.71534
▁በሎ	-8.71797
▁ፍልጠት	-8.71798
▁ሰበይቲ	-8.71847
ፕ	-8.72007
▁በጃኩም	-8.72405
▁ዝጸንሐ	-8.72425
▁ተጋሩ	-8.72684
▁ጊዜ	-8.72982
▁ሕልና	-8.72989
▁ጻዕሪ	-8.73057
▁ማዕረ	-8.731
▁ፕረዚደንት	-8.73322
▁ዝተፈላለዩ	-8.73398
▁ክተ	-8.73705
▁ከምዘ	-8.7375
▁ብርሃን	-8.73774
▁ዲ	-8.73789
▁ይግባእ	-8.73858
▁ዘለኩም	-8.7398
ዶም	-8.73999
▁19	-8.74069
▁ሞያ	-8.74151
ታትን	-8.7419
ትካ	-8.74308
▁ሳዋ	-8.74371
▁ንብረት	-8.74567
▁ቀጻሊ	-8.74596
▁ለውጢ	-8.74618
ኛ	-8.74673
▁ናይዚ	-8.74884
▁ግ	-8.74961
ጃ	-8.74981
▁16	-8.75014
▁ፍጹም	-8.75073
▁ብኸመይ	-8.75159
▁ኣለኩም	-8.75171
▁ትም	-8.75331
▁ባዕሉ	-8.75458
▁ገይሩ	-8.75492
▁ኣገዳሲ	-8.75701
▁ብዓል	-8.75897
▁ሓዳር	-8.76361
ሜ	-8.76521
▁ትርጉም	-8.76552
▁ኣጋጣሚ	-8.76695
▁ኵሉ	-8.76779
▁ተስፋይ	-8.76828
▁ጌጋ	-8.76976
▁መጻኢ	-8.77132
▁ኣንበሳ	-8.77155
▁መሓመድ	-8.77287
▁ሀ	-8.7733
▁ንምንታይ	-8.77352
▁ጆሲ	-8.77364
▁ኣሕዋት	-8.77482
▁ስለዝበላ	-8.77507
▁ጋዜጣ	-8.77556
▁ኣንስትዮ	-8.77571
▁ጎ	-8.77621
▁ሓሶት	-8.77638
▁ሸቶ	-8.77776
▁ኲናት	-8.77812
▁ወረ	-8.77912
ብል	-8.781
▁ኣነስ	-8.78269
▁ተሓ	-8.7835
▁ዘለው	-8.78433
▁ኣብኡ	-8.78561
▁ኣደይ	-8.78642
▁ክሳዕ	-8.78811
ቒ	-8.7887
▁ትካላት	-8.78894
▁ካብኡ	-8.78955
▁ኒ	-8.79092
ማት	-8.79122
▁ርሑስ	-8.7926
▁መሰል	-8.7935
▁ታሪክ	-8.79496
▁ያቆብ	-8.7972
▁ዋ	-8.79735
▁ህዝብና	-8.79794
ረት	-8.79801
▁ቅዱስ	-8.79967
▁ኣሰይ	-8.79989
ሹ	-8.80202
▁ኣይነበረን	-8.80248
▁እንዴ	-8.80408
▁ፋ	-8.80551
ላይ	-8.80804
▁ዋና	-8.80939
▁የሕዋት	-8.81069
▁ኣይን	-8.81189
▁መሰረት	-8.81485
▁ንሳቶም	-8.81543
▁ነፍሲ	-8.81547
▁ንኣብነት	-8.8159
▁ኢልኩም	-8.81762
ውያን	-8.81782
▁መጀመርታ	-8.81896
▁ቲቪ	-8.81972
▁ግንባር	-8.81997
▁ስምዒት	-8.82228
▁ሓቢሩ	-8.82232
▁ባይታ	-8.82268
▁ወደይ	-8.8229
▁ኣለኻ	-8.82401
▁መርዓ	-8.82582
▁መኪና	-8.82745
▁ሰሙን	-8.82766
▁ሕብረተሰብ	-8.82768
▁ጥዕምቲ	-8.82815
▁ኣሕዋተይ	-8.83055
ቤ	-8.83339
▁ዝካየድ	-8.83365
▁ተመ	-8.83548
▁አዚ	-8.83579
▁ኣቦይ	-8.83686
ቖ	-8.83738
▁ኤረ	-8.84074
▁እንተዘይ	-8.84213
▁ነበር	-8.84548
ኔ	-8.84582
▁ባርያ	-8.84638
▁ቃልሲ	-8.84729
▁ኣቦና	-8.84761
▁ትካል	-8.8477
▁ብቕዓት	-8.85025
▁ዝተባህለ	-8.85043
▁ሽግር	-8.85121
▁አየ	-8.85262
▁ተሪፉ	-8.85287
▁ከምዘይ	-8.85436
▁ጉ	-8.85441
▁ርክብ	-8.85708
ሶም	-8.8607
▁ጸላኢ	-8.8618
▁መልእኽቲ	-8.86189
▁ሓሙሽተ	-8.86189
▁ዋንጫ	-8.86216
▁ኣጆኹም	-8.86415
▁22	-8.86489
▁ትብሉ	-8.86545
▁ኡ	-8.86875
ያት	-8.86949
ነይ	-8.87062
▁ኣስታት	-8.87073
▁በሓቂ	-8.87236
▁ብመ	-8.87346
ሰን	-8.87397
▁ሕማቅ	-8.8743
▁ምሕራቕ	-8.87437
▁ምልክታ	-8.87469
▁ምስቲ	-8.87564
▁ሜዳ	-8.87998
▁ማሕበራዊ	-8.88229
ጨ	-8.88263
▁ብሓፈሻ	-8.88564
▁ትሕዝቶ	-8.88634
▁ብርሃነ	-8.88695
▁አንታይ	-8.88857
▁ፈለማ	-8.89121
▁ሶ	-8.89134
▁2017	-8.89219
▁ኮፍ	-8.89341
▁ኣብያተ	-8.89358
▁ዓመተ	-8.8998
▁ብሓደ	-8.90219
▁ብናይ	-8.90536
▁ይኩን	-8.9059
▁ኩ	-8.90719
ቴ	-8.90765
▁ፖሊስ	-8.9083
▁ጽሑፍ	-8.90945
▁ዘይም	-8.90961
▁ኣል	-8.90976
▁ዳርጋ	-8.91035
▁ግዳ	-8.91404
▁ሓላፊ	-8.91444
▁ነይራ	-8.91449
▁እንካዕ	-8.91788
▁ራ	-8.9185
የን	-8.91862
ሉን	-8.91954
▁ሓው	-8.92114
ረይ	-8.9229
ጂ	-8.9231
▁ተሰ	-8.92367
▁ክክክክክክ	-8.92463
▁ጋ	-8.92472
▁ጠ	-8.92564
በት	-8.92921
▁ግድን	-8.92964
▁ኣን	-8.92994
የት	-8.93168
▁ምም	-8.9322
▁ብግቡእ	-8.93221
▁ንኹሉ	-8.93222
▁2014	-8.93227
▁ባህሪ	-8.93228
ኽን	-8.93307
▁ብመሰረት	-8.93438
▁ብዝኾነ	-8.93652
▁መስ	-8.93767
መት	-8.93786
▁መጽናዕቲ	-8.94255
▁ሕርሻ	-8.94262
▁ሓዊ	-8.94421
▁ኩዕሶ	-8.94558
▁እንቋዕ	-8.94648
▁ክትከውን	-8.94658
▁ከረን	-8.94703
▁በጃኹም	-8.94938
▁ዘብል	-8.94961
▁ሓደጋ	-8.95135
ዞ	-8.95156
▁ጀ	-8.95229
▁ኣስ	-8.95312
ሺ	-8.95376
▁ዘለኹ	-8.9538
▁ብስም	-8.95735
▁ቤተ	-8.95823
▁ምዃንና	-8.95835
▁ምሸት	-8.95924
▁ኻብ	-8.95925
▁መስመር	-8.9601
▁ቦ	-8.9605
▁ስጋ	-8.96102
▁ዎ	-8.9645
▁ወለዶ	-8.9661
▁ሊ	-8.96708
▁ሰላምን	-8.96732
ታዊ	-8.96915
▁ኣካላት	-8.96952
▁ንዘ	-8.97026
ጐ	-8.971
▁ጻዕዳ	-8.97288
▁ቀረባ	-8.973
ራይ	-8.97335
ኝ	-8.97424
▁ጎደና	-8.97452
▁ስእሊ	-8.9752
ዞም	-8.97557
▁ብዝኮነ	-8.97561
▁ኣስሊ	-8.97629
▁ባዓል	-8.97683
▁ዝደሊ	-8.97857
▁ብተወሳኺ	-8.97906
▁ዉን	-8.9793
ላት	-8.98115
▁ጸሓይ	-8.98195
▁ጥ	-8.985
▁ህዝብን	-8.98569
▁እዘን	-8.98613
▁ዓርከይ	-8.98883
▁ምግባር	-8.98972
▁ርእሰ	-8.99028
▁ዋውውው	-8.99443
▁ዲኻ	-8.99475
▁ታይ	-8.99521
▁ዓባይ	-8.99688
▁ሓፍተይ	-8.99714
▁21	-8.99733
▁ሱዳን	-8.99854
▁ብዘ	-8.99863
▁በሊ	-8.99887
▁ቀጽልዮ	-8.99958
▁ኣቢሉ	-9.00024
▁ዓድና	-9.00137
▁ግምት	-9.00153
▁ኣቢ	-9.00223
▁ለይቲ	-9.00223
ርካ	-9.0029
▁ስለዝኾነ	-9.00342
ደን	-9.00416
▁ምሕረት	-9.00493
▁ዉ	-9.00651
▁ሳልሳይ	-9.00654
▁ኩቡር	-9.00729
▁ኣለዎም	-9.00853
▁ሰነ	-9.00919
▁ግርም	-9.01523
▁ንሓደ	-9.01762
▁ነብሱ	-9.02238
▁ጌርካ	-9.02257
▁መዓስ	-9.02334
▁ብምዃኑ	-9.02405
▁ዘለኹም	-9.02508
ጦ	-9.02616
▁ትኽእል	-9.02642
▁ዜጋታት	-9.02709
በሉ	-9.02964
▁ምክልኻል	-9.03053
▁ጸኒሑ	-9.03066
▁ኣጆኪ	-9.03118
▁ኤውሮጳ	-9.03134
▁መራሒ	-9.03248
▁ነይሮም	-9.03277
▁ኣሰልጣኒ	-9.03286
▁ማድሪድ	-9.03419
▁ርእይቶ	-9.03436
▁ይብሉ	-9.03441
ጒ	-9.03481
▁ጹቡቅ	-9.03602
▁ውግእ	-9.03872
▁ጉድ	-9.03898
▁ንስኺ	-9.03982
▁ባሓቂ	-9.03997
ትኒ	-9.04067
▁ድሓን	-9.0407
▁ምናልባት	-9.04081
▁ደቀንስትዮ	-9.04081
▁ክክክ	-9.04089
ጓ	-9.04321
▁ወዘተ	-9.04325
ዓት	-9.04328
ፎም	-9.04328
▁ሓሳባት	-9.04397
▁ኣባ	-9.04468
▁በታ	-9.04496
▁መንፈስ	-9.04498
▁እምበኣር	-9.04549
▁አሎ	-9.04832
▁ንፉዓት	-9.0484
▁ዓረብ	-9.04884
▁ውዕል	-9.04929
▁ኰነ	-9.04993
▁ኬ	-9.05067
▁ዓጋመ	-9.05174
▁ምዃና	-9.05296
▁ሓንሳብ	-9.05445
▁ሪ	-9.05479
▁ምክንያቱ	-9.05513
▁እንሆ	-9.05665
▁ይርከብ	-9.05877
▁ይፍለጥ	-9.05926
▁ናብራ	-9.0601
▁ሚኒስተር	-9.06032
▁ወገን	-9.06038
▁ነበርቲ	-9.06062
▁ባህላዊ	-9.06155
ተር	-9.06182
▁አቲ	-9.06221
▁ነበሩ	-9.06276
▁መጥቃዕቲ	-9.06526
▁ኣየር	-9.06562
▁ጸጋ	-9.06631
▁ዝግበር	-9.06934
▁ዕዳጋ	-9.07151
▁ኣለው	-9.07197
ታይ	-9.0749
▁አታ	-9.07549
▁ኣለኒ	-9.07882
▁ቻይና	-9.07967
▁ሲቲ	-9.08135
▁ፍርቂ	-9.08142
▁መስዋእቲ	-9.0821
▁ኢዱ	-9.08311
▁ናትና	-9.08389
ትሉ	-9.08471
▁ጨ	-9.0848
ፀ	-9.08597
▁መራሕቲ	-9.08917
▁ሕክምና	-9.08965
ኾ	-9.09009
▁ቆልዓ	-9.0922
ባር	-9.09255
▁ኣይክእልን	-9.09287
▁ቅድም	-9.09344
▁ጉዕዞ	-9.09454
▁ጽብቅ	-9.09635
▁ዓደይ	-9.0967
▁ቱ	-9.09676
0	-9.09679
▁ማን	-9.09887
▁እካ	-9.10048
▁ድራማ	-9.10212
ፈር	-9.10445
▁ማእከላይ	-9.10524
▁ኣም	-9.10726
▁ይረጋገጸልና	-9.10727
▁ምንባር	-9.10825
▁ክብሉ	-9.10842
ያን	-9.10894
▁ተማሃሮ	-9.10957
▁ህጻናት	-9.11046
▁ዝብሃል	-9.11091
ስቲ	-9.11166
▁ይገብር	-9.11189
▁ወይስ	-9.11242
▁ዩናይትድ	-9.11245
ብር	-9.11327
ንግ	-9.11353
▁መዓልታት	-9.11359
▁ድሮ	-9.11372
▁ዓሳ	-9.1167
ክስ	-9.11748
▁ንዓ	-9.11766
▁ክብረት	-9.11816
ምን	-9.11866
በይ	-9.11926
▁ኣርሰናል	-9.12026
▁2015	-9.12035
▁ኣሰና	-9.12068
▁እንተዀነ	-9.12088
▁ዝርከቡ	-9.12432
▁ርእሱ	-9.12453
▁ምህላዉ	-9.12649
▁ዝምድና	-9.12765
▁ተግባር	-9.12895
▁ጸወታታት	-9.12908
▁ኣዋልድ	-9.12956
▁ሓቀኛ	-9.13064
▁መጸ	-9.1311
▁ምዕባለ	-9.1324
▁ዶላር	-9.13277
▁ንክ	-9.13326
ለት	-9.13372
በል	-9.13399
▁ቆ	-9.13459
▁አንተ	-9.13484
ናት	-9.13535
▁ክገብር	-9.13576
▁ሙሉእ	-9.13722
▁50	-9.13901
▁ኣር	-9.13995
▁ይኣክል	-9.14182
▁ኤሪ	-9.14278
▁ኣባል	-9.1429
▁ሓጺር	-9.14381
▁ሓሊፉ	-9.14419
▁ዕላል	-9.14479
▁ኣቤት	-9.1451
▁ተመሃሮ	-9.14553
ናይ	-9.14647
▁ገብሩ	-9.14801
▁ሜ	-9.14887
ኩሞ	-9.15009
ጕ	-9.15043
ገር	-9.15265
▁ፍጻመ	-9.15509
ዖ	-9.1552
▁በላ	-9.1554
ሰብ	-9.15567
ቚ	-9.15569
ኳ	-9.1557
▁ክፍለ	-9.15724
▁ዝዓ	-9.15866
▁እስኪ	-9.16045
▁ተመስገን	-9.16215
▁ክለባት	-9.16235
▁ከልቢ	-9.16347
ኻን	-9.16612
▁ሰይ	-9.16651
ክዎ	-9.16661
▁ተኽለ	-9.16674
▁ቆንጆ	-9.167
▁ቐ	-9.16798
▁ጀርመን	-9.1684
▁ድያ	-9.17007
▁ንዓና	-9.17008
ሓት	-9.17013
▁ዕዮ	-9.1711
▁ውድድራት	-9.17168
▁ኸም	-9.17221
▁ኣርእስቲ	-9.17295
▁መጻምዲ	-9.17328
▁ጉዳያት	-9.17407
▁ዝም	-9.17431
▁ምርጫ	-9.17568
▁ተን	-9.1772
▁ኮንካ	-9.17808
▁ረብሓ	-9.1796
▁ንኽት	-9.18031
▁ወይኒ	-9.18131
▁ናቱ	-9.18136
▁ንመን	-9.18208
▁ግብሪ	-9.18343
▁ንቡር	-9.18346
ቱን	-9.18445
▁ኣለኪ	-9.18714
▁ደይ	-9.18776
▁ኩለን	-9.18786
▁አያ	-9.1884
▁ሓላፍነት	-9.18911
▁ዝዓበየ	-9.18915
ታቱ	-9.18919
▁ሸቶታት	-9.18938
▁ዶብ	-9.19049
▁ጋንታታት	-9.19049
▁ንጽበ	-9.19188
▁ዘይኰነ	-9.19245
▁ባህልና	-9.19283
▁ክርስቶስ	-9.19399
▁ገዛእ	-9.19585
▁ንዓኻ	-9.19629
ትኩም	-9.19679
▁ቸልሲ	-9.197
▁ዝኾኑ	-9.19736
▁ሓገዝ	-9.19769
▁ሻ	-9.19841
▁ምስኡ	-9.19873
▁ገጹ	-9.19929
ኣት	-9.20048
▁ሓላል	-9.20097
▁ዮ	-9.20102
▁እንከላ	-9.20131
▁ኢኪ	-9.20272
▁ሓሳዊ	-9.20411
▁ዘርኢ	-9.20477
ባት	-9.20529
▁እናበለ	-9.20535
▁ንግሆ	-9.20625
▁በለት	-9.20662
▁ዋውውውው	-9.20893
▁ምንባሩ	-9.20985
▁የኔ	-9.21042
▁ምንቅስቓስ	-9.21157
▁ምንጪ	-9.21215
▁ስልጠና	-9.21334
▁ወረቐት	-9.21457
▁ኣእምሮ	-9.21489
▁ኣይፈልጥን	-9.2149
▁ስቅ	-9.215
▁ቀሪቡ	-9.21529
▁ኪዳነ	-9.2165
▁ዓሰርተ	-9.21697
▁ዝነበራ	-9.21732
▁ዝሰ	-9.2174
▁ሕጋዊ	-9.21916
▁ከላ	-9.22064
▁ባህ	-9.2215
▁መጻኩም	-9.22324
▁በዓልቲ	-9.22399
መር	-9.22437
▁2016	-9.22608
▁ክክክክክክክ	-9.22636
▁እንስሳ	-9.2283
▁ክብ	-9.22932
▁ዲብ	-9.22964
▁ስጉምቲ	-9.23037
▁በጃኻ	-9.23067
▁ኣበርክቶ	-9.23075
▁ውድብ	-9.23335
▁ዝበሉ	-9.23573
▁ኽት	-9.23606
▁ሻምፕዮን	-9.2371
▁ረሳሕ	-9.23861
▁26	-9.23929
▁ሞራል	-9.23963
▁ክዳን	-9.2422
▁ፍቅር	-9.24289
▁ጸባ	-9.24357
▁ደገፍቲ	-9.24393
▁ሮቢ	-9.24428
▁ኮን	-9.25036
▁ነፍ	-9.25073
▁ኣት	-9.25137
▁ይሃብኩም	-9.25153
▁መሰለይ	-9.25154
▁ይተኣረመለይ	-9.25288
▁መስከረም	-9.25326
▁ኵዕሶ	-9.25475
▁ተጋዳላይ	-9.25512
▁ውሳነ	-9.25534
▁ጥበባዊ	-9.25683
ርያ	-9.2578
▁ደራሲ	-9.25912
▁ጥሪ	-9.2594
▁ዝሓ	-9.25966
▁ዞባታት	-9.25966
ይን	-9.26071
የይ	-9.26101
▁ሕቶታት	-9.26113
ሰይ	-9.26178
▁ክሊፕ	-9.26215
ኡን	-9.26428
▁ከባቢታት	-9.26524
ክዮ	-9.26527
▁ወርቂ	-9.26603
▁ምኽሪ	-9.26607
▁ፋሕ	-9.26654
▁እንድዩ	-9.26656
▁ዝበለጸ	-9.26671
ላል	-9.26686
▁መድሃኒት	-9.26724
▁ማር	-9.26838
ታን	-9.2697
▁ብኣካል	-9.27016
▁ግቡእ	-9.2706
▁ኮመንት	-9.27138
▁ቀሊል	-9.27163
▁ትጽቢት	-9.27243
▁ዐ	-9.27257
▁ተዓ	-9.273
▁መሪር	-9.2737
▁ምሽ	-9.27481
▁ኣድ	-9.276
ርና	-9.27756
▁ሳላ	-9.27879
▁ሰዓታት	-9.27939
▁ዝመስል	-9.27962
▁ተወሳኺ	-9.28012
▁የብለይን	-9.28031
▁ብዝሒ	-9.28057
መይ	-9.28138
▁ይከኣል	-9.2816
▁ዘበለ	-9.28449
▁ንሓ	-9.28474
▁ዲዩ	-9.28523
▁እዪ	-9.28546
ኩን	-9.28776
▁ትግራዋይ	-9.28891
▁24	-9.28937
▁ጨረታ	-9.28939
▁ደቅና	-9.28946
▁ክኢላታት	-9.28998
▁40	-9.29012
▁ወደ	-9.29119
▁መዓልታዊ	-9.29126
▁ጃ	-9.29258
▁ዝገልጽ	-9.29324
▁ጸገማት	-9.29447
ሖ	-9.29453
ካያ	-9.2958
▁ቶ	-9.29593
ሴ	-9.29671
▁ዓሊ	-9.29679
▁ደጊም	-9.29778
▁ከፍ	-9.29914
▁ብተ	-9.30113
▁ነብሲ	-9.30118
▁ዝነበሮ	-9.30136
▁ምንታይ	-9.30251
ቪ	-9.3029
▁ናበይ	-9.30316
▁ፊ	-9.30517
▁ዝነብር	-9.30552
በለ	-9.3057
▁ዝመ	-9.30752
▁ምስጋና	-9.3091
▁ኪሎ	-9.31045
▁ብምሉእ	-9.31089
ክል	-9.3113
▁ሎምስ	-9.31138
▁ትመስል	-9.31236
▁ዝኽሪ	-9.31407
▁ናሆም	-9.31466
▁ቡ	-9.31624
▁ዓውዲ	-9.31648
▁ዘተ	-9.3183
ሆ	-9.31919
በረ	-9.31957
▁ምጽላእ	-9.32135
ለው	-9.32343
▁ከአ	-9.32355
▁ብልጽቲ	-9.32413
▁ናይታ	-9.32422
▁ተደ	-9.32471
▁ቃንዛ	-9.32492
▁ሃገረ	-9.32579
ኤል	-9.32672
▁በራድ	-9.32677
▁ደቒቕ	-9.327
▁ተኸሳሲ	-9.32807
ታቶም	-9.32845
▁ክርስትያን	-9.32853
ሳት	-9.32972
▁ደሃይ	-9.3302
▁ሙሴ	-9.33106
▁ፍጥረት	-9.33127
▁ሓይልታት	-9.33148
▁ሓርነት	-9.33386
▁ዳሓን	-9.33543
ጫ	-9.33663
▁ቈልዑ	-9.3374
▁ተወልደ	-9.33788
▁ምቅርቲ	-9.33796
▁ዝመጸ	-9.33807
▁ስድራቤት	-9.33834
ዖም	-9.3392
▁ዝለዓለ	-9.33952
▁ኣልቦ	-9.33996
▁ዝምልከት	-9.34029
▁ኣዋርሕ	-9.34106
▁በሎም	-9.34249
▁ዝኾነት	-9.34282
▁ንተ	-9.34369
ረን	-9.34422
▁ህጻን	-9.34459
▁ተተ	-9.3449
▁ነተን	-9.3459
▁ጎይታ	-9.34606
▁ናጻ	-9.34689
▁ከለዉ	-9.34708
▁መንግስተ	-9.34802
▁መጀመርያ	-9.34901
▁ሓምለ	-9.34934
▁ሃገራዊት	-9.34963
▁እኹል	-9.34968
ክም	-9.35173
▁አይት	-9.35228
▁ዙርያ	-9.35234
▁ሱ	-9.35364
▁ተመሳሳሊ	-9.35371
▁ይተሓለወለይ	-9.35412
ነቱ	-9.35464
▁ዛጊት	-9.35542
▁ፊልሚ	-9.35592
▁መስተ	-9.35686
▁ዕረፍቲ	-9.35727
▁እለ	-9.35799
▁ሰሜን	-9.3582
▁ብሽክለታ	-9.35826
ቭ	-9.35921
ቸ	-9.35934
▁ጌሩ	-9.35948
▁ስለዝሞተ	-9.35985
▁ኹሉ	-9.36364
ደይ	-9.36537
▁ሳሚ	-9.36598
▁ንሰብ	-9.36735
▁ግብረ	-9.36838
▁ኣጆኺ	-9.37018
▁መልክዕ	-9.37057
▁ሉ	-9.37149
ለም	-9.37189
▁ተወ	-9.37243
▁እንተደኣ	-9.37294
▁ብርግጽ	-9.3733
▁ኣፍልጦ	-9.37381
ቝ	-9.37412
▁መጺኡ	-9.37444
▁ኢልኪ	-9.37466
▁ምሕ	-9.37554
▁ጽርግያ	-9.37616
ቋ	-9.37664
▁ኮኾብ	-9.3767
▁ሰምሃር	-9.37688
▁እነ	-9.37694
ምር	-9.37709
▁ሆ	-9.37724
▁ቦታታት	-9.37773
▁ዝኸይድ	-9.37815
▁መስለኒ	-9.37896
ፍር	-9.37906
▁ዝኽእሉ	-9.3791
▁ሆስፒታል	-9.37964
▁ክሕ	-9.38016
▁ልብና	-9.3807
▁ኣኼባ	-9.38114
▁ጀመረ	-9.38178
▁ንኸ	-9.38215
▁ወለዲ	-9.38328
▁ዘይኮነስ	-9.38411
▁ኣፈወርቂ	-9.38474
▁ብደረጃ	-9.38516
ጌ	-9.38603
▁ሰፊሕ	-9.38781
▁ኔረ	-9.3882
▁ምዃን	-9.3886
1	-9.38865
▁ኣብርሃ	-9.38895
▁ጐ	-9.38926
▁ይሕ	-9.38939
▁ይኽእሉ	-9.38956
▁ፎ	-9.39169
▁ንስ	-9.39173
▁ዝሕ	-9.39176
▁ነባሪ	-9.39194
▁ልምዓት	-9.39277
▁ግዲ	-9.39288
▁ዲካ	-9.39428
ልም	-9.39519
▁ገበን	-9.39566
▁ጸጋይ	-9.39612
▁ያቆባ	-9.3963
▁እንኳዕ	-9.39643
▁ኣትዩ	-9.39787
▁ፕሪመር	-9.39933
▁ስርሓት	-9.3998
ድን	-9.39985
▁ድቃስ	-9.40027
▁እንተተ	-9.40131
▁እንኮ	-9.40137
▁ተባዕታይ	-9.4021
▁እዚኦም	-9.40454
▁ተቐ	-9.40471
▁ደሓር	-9.40561
▁ግበር	-9.40569
▁ህዝበይ	-9.40599
▁ክነ	-9.4061
▁ብልቢ	-9.4062
ዜ	-9.40629
▁ንኽእል	-9.40865
▁ማንቸስተር	-9.40974
▁ምብራቕ	-9.41027
▁ግንቦት	-9.41173
▁አነ	-9.41189
▁ጨንፈር	-9.41325
▁ተጋደልቲ	-9.41368
▁ክህሉ	-9.41523
▁ይቕጽል	-9.41534
▁ግጥማት	-9.41605
▁እንዶ	-9.41734
▁ብድሕሪ	-9.41772
▁ስብ	-9.4178
▁ኣዕ	-9.4193
▁በብ	-9.41946
▁ሩስያ	-9.42011
▁ስለዘይ	-9.42116
▁ሰለ	-9.42135
▁ዓገብ	-9.4218
▁ዶክተር	-9.42315
▁ምሳይ	-9.42542
▁ሃብቲ	-9.42555
ቹ	-9.42613
▁ከለኹ	-9.42724
▁ሂ	-9.42768
▁ንግዲ	-9.42823
▁ኮርያ	-9.4295
▁ንእሽቶ	-9.42964
ባብ	-9.43004
▁ዝኣመሰሉ	-9.43004
▁ንብዓት	-9.43052
▁ምሃብ	-9.43084
ነን	-9.43131
▁ወኪል	-9.4318
▁በር	-9.43274
▁ሓመድ	-9.43306
▁ጽብቕቲ	-9.43326
▁ኣብነት	-9.4333
▁ኣጋ	-9.43371
ስት	-9.43374
▁ዘየለ	-9.43394
ይቲ	-9.43407
▁ምዃነይ	-9.43449
▁ተኽእሎ	-9.4348
▁ዳግማይ	-9.43539
▁ጠንቂ	-9.43675
▁ኤርትራን	-9.43774
▁መለስ	-9.43831
▁ኣሎና	-9.43847
▁ምስጢር	-9.44114
አት	-9.44189
▁ፖለቲካዊ	-9.44287
▁ሃይማኖት	-9.44375
▁ውልቀ	-9.44398
▁መጋባኣያ	-9.4462
▁ኣቐዲሙ	-9.4462
▁ቅርጺ	-9.44769
ጾ	-9.44785
▁ከተማታት	-9.44787
▁ተባዕትዮ	-9.44847
▁ደርፍታት	-9.44988
▁ማርያም	-9.45088
▁ኣዝያ	-9.45215
▁ስለዝበሉ	-9.45301
▁በርሀ	-9.4531
▁ዪ	-9.45374
▁ጋሽ	-9.4538
▁ሚእታዊት	-9.45405
▁ዝሓሸ	-9.45475
▁ቅኑዕ	-9.45654
▁መሓሪ	-9.4566
ስካ	-9.45753
ርክ	-9.4577
▁ሕልሚ	-9.45772
▁ባጽዕ	-9.45826
ስተ	-9.46001
▁ይመስል	-9.46009
▁ውላድ	-9.46056
▁የሱስ	-9.46171
▁ሓያሎ	-9.46264
▁ሕብሪ	-9.46271
ደር	-9.46371
▁ሒዝካ	-9.46375
▁መላእ	-9.46517
▁ካብታ	-9.46556
▁ብሓባር	-9.46595
▁ሒዛ	-9.46603
▁ይሓይሽ	-9.46628
▁ጽንዓት	-9.46657
▁ኣለኹም	-9.46908
ረብ	-9.46974
▁ኣመና	-9.47141
▁ብቐሊሉ	-9.47142
▁ነፈርቲ	-9.47352
▁ህንጻ	-9.4741
▁ቀስ	-9.47439
▁ይረጋገጸሎም	-9.47467
▁ወፍሪ	-9.47476
በላ	-9.47486
▁ቤቱ	-9.47524
▁ሃገረይ	-9.47563
▁መንነት	-9.4757
▁ዩኤል	-9.47577
▁ባይቶ	-9.47662
▁ጸርፊ	-9.47737
▁ኣመ	-9.47746
▁ንኤርትራ	-9.47778
▁ተኸ	-9.47781
▁ክንብል	-9.4781
▁ስቕ	-9.47811
ኩማ	-9.47908
▁ኪድ	-9.47966
▁ብራቮ	-9.48076
▁ሰኒ	-9.48129
▁አት	-9.48349
▁መንደፈራ	-9.48356
▁ዝፍለጥ	-9.48411
▁ከምዘለዎ	-9.48425
▁ምልክት	-9.48501
▁ተዋሳእቲ	-9.48514
▁በጃካ	-9.48531
▁ህያብ	-9.48545
▁ሕማማት	-9.48604
ማር	-9.48757
▁ክንድዚ	-9.4876
▁ሃየ	-9.48816
▁ዱ	-9.48849
ካኒ	-9.48863
▁ውሽጣዊ	-9.4901
ዂ	-9.49119
▁ንእ	-9.49134
▁ምስራሕ	-9.49139
▁ከማኻ	-9.4914
▁ብብዝሒ	-9.49206
▁ኣርኣያ	-9.49249
▁ምር	-9.49387
▁ብምግባር	-9.49401
▁ኮይነ	-9.49488
▁ኣረዲኡ	-9.4954
▁ምስክር	-9.49545
▁ሃገሩ	-9.49603
▁ናብታ	-9.49627
▁አሞ	-9.49814
▁ግብጺ	-9.49881
▁ኣበ	-9.49912
▁ፍታሕ	-9.49942
▁ስራ	-9.50095
▁ገነት	-9.50147
ዅ	-9.50251
▁ሽልማት	-9.5035
ጆ	-9.50396
▁የቐንየልና	-9.50446
ሖም	-9.50447
▁ተሓቢሩ	-9.50522
▁መር	-9.50591
▁ጀነራል	-9.50591
▁ነሽነሽ	-9.50591
▁ጸብጻብ	-9.50735
▁ንድሕሪት	-9.50783
▁ንፍዕቲ	-9.50956
▁እውይ	-9.5098
▁ሕቡራት	-9.5098
▁ዝገበረ	-9.51047
▁እሊ	-9.51199
▁ላዕለዋይ	-9.51266
▁ንኩሉ	-9.5133
ሔ	-9.51411
▁ኖ	-9.5153
▁ለባም	-9.51547
▁ቀዳሞት	-9.51558
ዎን	-9.5166
▁ከደ	-9.51719
▁ተላ	-9.51753
▁አዛ	-9.51816
▁ዓንሰባ	-9.51849
▁ወገናት	-9.51889
▁የሕዋተይ	-9.52154
▁ፍቓድ	-9.5219
ካስ	-9.52229
▁ነሓሰ	-9.52255
ኩሉ	-9.52266
▁ፈተነ	-9.52276
▁ዝኣክል	-9.52288
▁ጂግና	-9.52289
ብሎ	-9.52433
▁ብምዃን	-9.52532
▁ጥቅምቲ	-9.52532
▁ግርማይ	-9.52674
▁ሓደራ	-9.52705
▁ገዛና	-9.52749
▁ማማ	-9.52777
▁ብሉጻት	-9.52778
▁ምሳኻ	-9.52814
▁በረኸት	-9.5287
▁ተመራመርቲ	-9.52974
▁ተማ	-9.52975
▁ምርጥ	-9.52984
በሩ	-9.53077
▁ጸሎት	-9.5308
▁ፓ	-9.53304
▁ኣንቱም	-9.53322
▁ስሙ	-9.53387
▁ነበረት	-9.53393
ኣን	-9.53408
▁ፍልልይ	-9.53419
▁ባርካ	-9.53464
▁ትእዛዝ	-9.53468
▁ሕዳር	-9.53493
▁አን	-9.53501
ማን	-9.53548
▁ታሕሳስ	-9.53566
▁ሕሰም	-9.53607
▁ዘይብሎም	-9.53625
▁ልቡ	-9.53646
▁እዝ	-9.53711
▁ከመ	-9.5372
▁ይግለጽ	-9.53803
▁ብኡ	-9.54074
▁ዝገብር	-9.5411
ረስ	-9.54146
▁ዝገርመኒ	-9.54191
▁ጸረ	-9.54286
▁ሓበን	-9.54291
ደም	-9.54325
▁ጸዓት	-9.54326
ዊት	-9.54351
▁ደቀይ	-9.54356
▁ሩሑስ	-9.54463
▁ተጸ	-9.5454
▁ንዕ	-9.54591
▁ደለይቲ	-9.54666
▁ዓለምና	-9.54681
▁ክክክክክክክክ	-9.54682
▁ከምዝኾነ	-9.54698
ኬ	-9.54701
▁ካሕሳይ	-9.54725
▁መቸም	-9.54762
▁2019	-9.54779
▁ቈልዓ	-9.54814
▁ህዬ	-9.54966
▁መድህን	-9.55002
ግር	-9.55077
ደል	-9.55125
▁ክብለካ	-9.55154
ከር	-9.55215
ይዎ	-9.55222
ገድ	-9.55323
▁ዝገብሮ	-9.55417
▁ዓቐን	-9.55489
ፋት	-9.55523
▁ዘይብላ	-9.55634
▁ሕብረተ	-9.55663
▁ኪዳን	-9.55665
ሾ	-9.55677
▁ቆርጫጭ	-9.55719
ፈን	-9.55724
▁ወተሃደራዊ	-9.5582
▁መቅሰን	-9.56132
▁ኣህጉራዊ	-9.56175
▁እንደ	-9.56213
▁ተጠ	-9.56241
▁ርእሶም	-9.56257
▁ኣቦታትና	-9.5629
▁እም	-9.5629
▁መርበብ	-9.56382
▁ኣተሓሳስባ	-9.56591
▁ክእለት	-9.56743
▁እንተኾይኑ	-9.56743
ባይ	-9.56845
▁ኢሳይያስ	-9.56991
▁ሓቢሮም	-9.5701
▁የቀንየልና	-9.57043
በን	-9.57137
▁ተቐዳደምቲ	-9.57156
▁ሮቤል	-9.57212
▁ኣድጊ	-9.57235
▁ባባ	-9.57327
ራር	-9.57544
ነው	-9.577
▁ኣሃዱ	-9.57707
ያዊ	-9.57768
▁ዞም	-9.5778
▁ፈረንሳ	-9.57836
ድር	-9.5804
▁ገይረ	-9.58042
▁ህዝብ	-9.58134
▁ሕማመይ	-9.58282
ፃ	-9.5845
▁ተኣ	-9.5846
ጥር	-9.58522
▁ንጹር	-9.58533
▁ክስ	-9.58677
▁ጽልዋ	-9.58686
▁ሳልሕ	-9.58773
▁ሽዱሽተ	-9.58906
▁ተረ	-9.58926
▁አል	-9.58931
▁የብላን	-9.58949
▁ዋውው	-9.58957
▁ኢድካ	-9.58983
▁ሃገርን	-9.59009
▁ምድ	-9.59023
▁ቁጠባዊ	-9.59051
▁ዝተረፈ	-9.591
▁ትብሎ	-9.59114
ፈት	-9.59122
ላን	-9.59126
▁ምርኣይ	-9.59174
▁ጽባቐ	-9.59191
▁ንዕኡ	-9.5934
▁የሕዋትና	-9.59351
▁ክመጽእ	-9.59492
▁ዝሃቦ	-9.59511
▁ንሶም	-9.59525
▁ሰሜናዊ	-9.59535
▁ብደሓን	-9.59553
▁ተገ	-9.59557
▁ክሰርሕ	-9.59578
▁ኣለም	-9.59813
▁ብቐጥታ	-9.5985
▁ክበሃል	-9.59974
▁ሜተር	-9.60027
▁ምዕ	-9.60027
▁ቻነል	-9.60124
▁ክብርን	-9.60144
▁ኣዝየ	-9.60152
ዘን	-9.60178
ፓ	-9.60202
▁ኣሰናዳኢ	-9.6022
▁ሓቢቢ	-9.60251
ሰት	-9.60283
▁ምጽ	-9.60296
ይት	-9.60316
ደት	-9.6035
▁ጥቓ	-9.60387
▁ፋኑስ	-9.60436
▁ኣማኑኤል	-9.60552
▁ምው	-9.60727
ርኣ	-9.60771
▁ሰልፊ	-9.6089
▁ብዓ	-9.609
▁ፍርያት	-9.60918
▁ናይቶም	-9.60985
▁ሜላ	-9.61013
▁ዓሻ	-9.61037
▁ጸሊም	-9.61044
▁ቆልዑ	-9.61052
▁ስምምዕ	-9.61082
▁ዅሉ	-9.61088
▁ዝጸ	-9.6122
▁ኣይም	-9.61554
▁ቀዳመይቲ	-9.61613
▁ተቀ	-9.61678
ኣብ	-9.61772
ጋገ	-9.61776
▁ዋውውውውው	-9.61882
▁ኢን	-9.6189
▁ጸቕጢ	-9.61982
▁ግበሩ	-9.6209
▁ገሊጾም	-9.62091
▁የብልናን	-9.62118
▁አም	-9.6223
▁ደቁ	-9.62282
▁መታን	-9.62303
▁ዘድሊ	-9.62305
▁የን	-9.62382
▁ንፋስ	-9.62395
▁ብምስ	-9.6241
▁45	-9.62471
▁መንግስትን	-9.62488
▁ጆን	-9.6251
▁ሰራሕተኛታት	-9.62546
▁ትኸውን	-9.62562
▁መዳ	-9.62653
▁ስነጥበብ	-9.62693
▁ብድሓን	-9.62763
▁ደራፋይ	-9.62794
▁ሜትሮ	-9.62799
▁ንስኩም	-9.6292
▁ፓውንድ	-9.63066
▁ምስቶም	-9.63128
▁ሊቨርፑል	-9.63174
▁ንእግዚኣብሄር	-9.63175
▁ዮውሃንስ	-9.63175
▁እንተዝ	-9.63354
ቺ	-9.63398
▁የድሊ	-9.63464
▁ሪያል	-9.63506
▁ዝነብሩ	-9.63563
▁ሰውራ	-9.63623
▁ዘይፈልጥ	-9.6363
▁ነብሰይ	-9.63668
▁ክካየድ	-9.63678
ኩምን	-9.63764
▁ዕብየት	-9.63817
▁ውሑዳት	-9.6383
▁ገረብ	-9.63843
▁ኩልና	-9.63846
▁ሓፈሻዊ	-9.6394
▁ትሕተ	-9.63998
▁ክላ	-9.64
▁ንስኹም	-9.64095
▁ከምዝተ	-9.64102
▁ንስኻትኩም	-9.64115
ሇ	-9.64217
▁ድዮም	-9.64281
▁ኣንቲ	-9.64287
▁ዝስዕብ	-9.64342
▁ባእ	-9.64424
▁እንከለዉ	-9.64436
ማይ	-9.6448
▁ዓሌት	-9.64502
▁ሕብረት	-9.64632
▁ሰይጣን	-9.64857
▁ክሲ	-9.64878
▁ብድሕሪኡ	-9.64898
▁ዜጋ	-9.64899
ላለ	-9.64985
▁እምኒ	-9.64986
▁መሳ	-9.65092
▁ንዝተ	-9.65313
▁አንዳ	-9.6533
ብራ	-9.65365
▁ሓያለ	-9.65383
▁ፍሊም	-9.65409
▁ዓመታዊ	-9.65778
▁ዝበሎ	-9.65792
▁ተለ	-9.65793
▁ብር	-9.65799
▁ሚሊ	-9.6581
▁ስራሕካ	-9.65844
▁ሺ	-9.65857
▁መራ	-9.6589
▁ስለዝበለ	-9.65901
ለና	-9.65956
▁ምዝራብ	-9.66027
▁ከይዱ	-9.66044
▁ገብረ	-9.66051
▁ይምነየልካ	-9.66146
▁ባህልን	-9.6615
▁ዑስማን	-9.66162
▁ሓዞ	-9.66202
▁ዝግባእ	-9.66238
▁እናበልና	-9.66269
▁ሂቡ	-9.66326
▁ሓለፍቲ	-9.66366
▁ደቀምሓረ	-9.66444
▁ብኻልእ	-9.66559
▁ብት	-9.66596
▁ሕሉፍ	-9.66632
▁ተዋ	-9.66677
▁ከማይ	-9.66687
▁ካብተን	-9.6678
▁ክው	-9.66869
▁ንሓፋሽ	-9.66896
ልያ	-9.67027
▁ዝብሎ	-9.67111
ነታ	-9.67241
▁ደቅ	-9.67253
ሽን	-9.67254
▁ኣለ	-9.67295
▁ከምዝኽእል	-9.67322
▁እግዚአብሔር	-9.67338
▁መጋቢት	-9.67349
▁ተፈሊጡ	-9.67352
▁ቃ	-9.67407
▁ብምሕባር	-9.6741
▁ደረፍቲ	-9.67437
▁ኣማ	-9.67476
▁ክትብሉ	-9.67618
▁ብጣዓሚ	-9.6769
▁ማይን	-9.67703
▁ሓቀይ	-9.67711
▁ብሓ	-9.68009
▁ኣተ	-9.68068
▁እንስሳታት	-9.68106
▁ዝተመዝገበ	-9.68131
▁ብምጥቃስ	-9.68147
▁ወይዘሮ	-9.68205
▁ዝግለጽ	-9.68206
▁ሰለሙን	-9.68213
▁አረ	-9.6829
▁ኤደን	-9.68326
▁በዛ	-9.68343
▁ኣሕዋትና	-9.68413
ኣቱ	-9.68428
▁ጸብጻባት	-9.68447
▁ዝርከባ	-9.68491
በራ	-9.6862
▁ክነብር	-9.6864
▁ጅ	-9.68641
ረግ	-9.68656
▁ወሰን	-9.68675
ወት	-9.68685
▁በረኻ	-9.68708
▁የውሃንስ	-9.68857
ሰር	-9.68936
▁ይስ	-9.6895
ብካ	-9.69032
ስታ	-9.69054
▁ሃንደበት	-9.69068
▁ልቦና	-9.69149
▁ኣግራብ	-9.69156
▁ክኸይድ	-9.6918
▁ዝበ	-9.69217
▁ዘይክእል	-9.69253
ታል	-9.69256
▁ገበረ	-9.69277
ልን	-9.69283
▁ኮለጅ	-9.69308
የሉ	-9.69337
▁አስ	-9.69377
ተት	-9.69432
▁ሓደስቲ	-9.69446
▁ክልቲኦም	-9.69474
ቫ	-9.69509
▁ፋጨ	-9.69516
▁ተጋ	-9.69598
▁ፈደረሽን	-9.69764
▁ዓይነይ	-9.69822
▁ብስ	-9.6987
▁ሒዞም	-9.6989
▁ኤሪትራ	-9.69893
▁እናበሉ	-9.69923
▁ክሓልፍ	-9.69926
▁ለካቲት	-9.6994
▁ወስ	-9.69979
▁ድየ	-9.70155
▁ሶርያ	-9.70187
▁መጻ	-9.70198
ምና	-9.70329
ዔ	-9.70393
▁ደልየ	-9.70433
▁ስራሓት	-9.70479
▁ዜማን	-9.70481
▁ኤረትራ	-9.70583
▁ታደሰ	-9.70595
▁ስለዝሞተት	-9.70606
▁000	-9.70627
▁ፍሉጥ	-9.70643
▁ቴክኖሎጂ	-9.70672
▁ጌርና	-9.70812
▁ትዛረብ	-9.70829
▁ዝህብ	-9.70876
▁ተሳ	-9.70931
▁ስለዘ	-9.7095
▁ኣባይቲ	-9.70953
▁መሳርሒ	-9.71019
▁ግደ	-9.71048
▁ሓፋሽ	-9.7106
▁ዘሕዝን	-9.7112
▁ቅሩብ	-9.71141
▁ንስኪ	-9.71166
▁ብወገነይ	-9.71231
▁ብፍ	-9.71237
▁ብዝብል	-9.71382
▁የብሎምን	-9.71423
▁ትሕ	-9.71427
▁ቀሺ	-9.71528
▁ወሳኒ	-9.7153
▁ሕራይ	-9.71652
▁ኪሮስ	-9.71664
ኲ	-9.71684
ባዕ	-9.71703
▁ሳዕ	-9.71729
ፌ	-9.71779
▁ዘፈን	-9.71927
▁ጊ	-9.72013
▁መግዛእቲ	-9.72061
▁ዕዉት	-9.72069
▁ከምዛ	-9.72079
▁ማእሰርቲ	-9.72101
▁ሰማእታት	-9.72137
ሄ	-9.72144
▁ጌና	-9.72267
▁ኔራ	-9.72313
▁አለ	-9.72347
ቖም	-9.72409
▁ብተመሳሳሊ	-9.72419
▁ኣዝዮም	-9.72442
▁ሓራ	-9.72472
ርር	-9.72501
▁ተበግሶ	-9.72549
▁ዝነ	-9.72591
▁ተፈ	-9.72634
▁ኣሕመድ	-9.72671
▁ክቕጽል	-9.72692
▁ስርዓተ	-9.7272
▁ሊብያ	-9.72732
▁ኩባንያ	-9.72775
▁ላይ	-9.72834
▁ስለዝበለት	-9.72836
ዳድ	-9.72851
▁መጻእኩም	-9.72898
▁ንሕ	-9.73043
▁ክትገብር	-9.73086
▁ዝተገብረ	-9.73114
▁ህዝብታት	-9.73122
▁ክኢሉ	-9.73197
▁ፅቡቅ	-9.73201
▁ለአ	-9.73273
ፒ	-9.73319
▁ንዘይ	-9.73389
▁ዘም	-9.73409
ፈተ	-9.73421
ቀት	-9.73466
ዉን	-9.73543
▁ካበይ	-9.73603
▁ሃቡኒ	-9.73745
▁ምሕደራ	-9.73776
▁ፖለቲካ	-9.73812
▁መሊሱ	-9.73827
ምጽ	-9.73887
▁ኔርካ	-9.73933
ርቲ	-9.73949
▁እትብል	-9.74027
▁መጻካ	-9.74061
ብላ	-9.74124
▁ኣው	-9.74129
▁ዘገርም	-9.74168
▁ርሑቕ	-9.74176
▁የሕ	-9.74179
▁ይፈልጥ	-9.74191
ቘ	-9.74257
ዋይ	-9.74262
▁ከምዘለዉ	-9.74299
ብሉ	-9.74327
▁ሚእቲ	-9.74364
ኣይ	-9.74439
▁ደቃ	-9.74456
▁ተገሊጹ	-9.74476
▁የብልካን	-9.74738
▁ፊሊም	-9.7477
▁ብሕ	-9.74779
ልዎ	-9.74793
▁ኣሰ	-9.7484
▁ኣይኮኑን	-9.74904
▁ዝስ	-9.74917
ወር	-9.7493
▁ጭ	-9.74963
▁እድሪስ	-9.74963
▁ደገፍ	-9.75011
▁ዝገበሮ	-9.75023
▁ዕማም	-9.75048
ውር	-9.75079
▁ናብኡ	-9.75224
▁ጎሮሮ	-9.75225
2	-9.75283
▁ህንዲ	-9.75285
▁እዮ	-9.75314
▁እንተዘይኮይኑ	-9.75337
▁መካይን	-9.75337
▁ኣይክ	-9.75359
▁ክዛረብ	-9.75381
▁ሓሰውቲ	-9.75394
እና	-9.75444
ላዊ	-9.75503
▁ንደቂ	-9.75511
ቻ	-9.75578
▁ዝፈልጦ	-9.75584
▁ህዝቡ	-9.75603
▁ቀዳም	-9.75607
▁ኣይከኣለን	-9.7564
▁ንናይ	-9.75717
▁ብሩኽ	-9.75728
▁በጺሑ	-9.75763
▁አባ	-9.7584
▁ስላም	-9.75877
▁ኮይንካ	-9.75877
▁ብወገኑ	-9.75887
▁ዝቐ	-9.75917
▁ኣሎኹ	-9.75996
▁ብርቱዕ	-9.76011
▁ምርኢት	-9.76016
▁ይበሃል	-9.76087
▁ድሌት	-9.76088
▁ሰበ	-9.76107
▁ግናኸ	-9.76235
▁ብግብሪ	-9.76276
▁ግዳይ	-9.76295
ረክብ	-9.76299
▁ዝገርም	-9.76318
▁ፈጺሙ	-9.7634
▁ከለኻ	-9.76355
ታታ	-9.76373
ግል	-9.76386
▁ዝምልከቶ	-9.76387
▁ብእ	-9.76396
▁ገጻ	-9.764
▁ጸጋታት	-9.76404
▁ካልእን	-9.76442
▁ኣይደልን	-9.76702
▁መነባብሮ	-9.76725
▁ኣበባ	-9.76734
▁ክረክብ	-9.76759
▁መትከል	-9.76771
ጠል	-9.7678
ባል	-9.7678
▁ኣረጊት	-9.76883
▁ቪድዮ	-9.76884
▁ምቕ	-9.7689
ዋን	-9.76891
ኰ	-9.7697
▁ተራእዩ	-9.77032
▁ባር	-9.77034
▁ተበ	-9.77164
ፍት	-9.77185
▁ስርሑ	-9.77289
▁ኢጣልያ	-9.77348
▁ዮሴፍ	-9.77383
▁ብምኽንያት	-9.77384
▁እዚኣቶም	-9.77389
▁እዝኒ	-9.77425
▁ናይዛ	-9.77502
▁ዝተሰ	-9.77525
ጾም	-9.77598
ዓሉ	-9.77676
▁ባህርያዊ	-9.777
▁ከማካ	-9.77718
▁ባህጊ	-9.77744
▁ኣማራጺ	-9.77785
▁ጎበዝ	-9.77827
▁ክል	-9.77842
▁ዝናብ	-9.77846
▁ክኢላ	-9.78032
▁ምስግጋር	-9.78077
▁አና	-9.781
▁ገይሮም	-9.78214
▁ወራር	-9.78293
▁ደርፍ	-9.78394
እካ	-9.78415
ብና	-9.78457
▁ላዕሊ	-9.78466
▁ሸውዓተ	-9.78648
▁ማዓልቲ	-9.78656
▁ከለና	-9.78692
▁ካባኻ	-9.78693
▁ነሩ	-9.78758
▁ልጅ	-9.78792
▁ይም	-9.78868
▁መከራ	-9.78911
▁የሚ	-9.79034
▁በደል	-9.79039
▁ግጥምን	-9.79043
▁ኣሳ	-9.79118
ከል	-9.79142
ፍለ	-9.79167
ኤን	-9.792
ክር	-9.79272
▁ህርመት	-9.79289
▁ገርካ	-9.79297
▁ሓሙስ	-9.794
▁ዝዀኑ	-9.79468
ቛ	-9.79478
▁አድ	-9.79488
▁ዝነበርኩ	-9.79553
▁ዝበዝሐ	-9.79601
ናዊ	-9.79631
▁ቀፅለሉ	-9.79684
ግን	-9.79791
▁ወዱ	-9.7982
▁ዑ	-9.79901
▁ጌርኩም	-9.79926
▁ጡዑም	-9.79929
▁ዋእ	-9.80034
ዃ	-9.80083
▁ጸላም	-9.80187
▁ኰይኖም	-9.80381
▁ትፈልጥ	-9.80469
▁ነብስኻ	-9.80478
▁ሃብተ	-9.8051
▁ድምጻዊ	-9.80511
▁ጸልማት	-9.80776
▁ዙር	-9.8079
▁ክህብ	-9.80818
▁ኰይና	-9.80903
ለካ	-9.80912
▁አምላክ	-9.80934
▁ፉ	-9.80996
ዛረብ	-9.81004
ርስ	-9.81043
▁ዒ	-9.81063
▁መሲ	-9.81144
▁መጽ	-9.81258
ርድ	-9.81303
▁እናኣ	-9.81319
▁ድራር	-9.81377
▁ቃለ	-9.81403
▁ምኽ	-9.81443
ዐት	-9.81474
▁ይብዛሕ	-9.81496
▁ኣካይዳ	-9.81503
▁ዘመናዊ	-9.81504
▁ሄለን	-9.81576
▁ምንም	-9.81584
ለሉ	-9.81586
▁ዝፈቱ	-9.81627
ማም	-9.81635
▁ገድሊ	-9.81657
ነትን	-9.81678
▁ትርከብ	-9.81693
▁መሰረታዊ	-9.81771
▁ቀዳመ	-9.81808
▁ልዳት	-9.81838
▁ንነዊሕ	-9.81882
ውድ	-9.81887
▁ክህልዎ	-9.81917
▁ጎኒ	-9.81944
ህብ	-9.81948
▁ዀይኑ	-9.81948
▁ሒደት	-9.81953
▁ዝኸ	-9.81956
▁ዝፈልጥ	-9.81972
▁ኣወዳት	-9.82077
▁ሓረስቶት	-9.82079
ሙና	-9.82116
ፍረ	-9.82132
▁ቡን	-9.82177
ድና	-9.82232
▁ዀነ	-9.82323
ክኒ	-9.82345
▁ብልክዕ	-9.82369
▁ሕድሪ	-9.82384
ልቲ	-9.82508
▁መርመራ	-9.82625
▁ምዕራብ	-9.82631
▁ያቆበይ	-9.82673
▁ቀትሪ	-9.82755
▁ልት	-9.8276
▁መሪሕነት	-9.82778
▁ምግ	-9.82779
▁ሞንጎ	-9.82798
▁ክኾኑ	-9.82841
መጸ	-9.82847
▁ኢዚ	-9.82859
▁ብተደጋጋሚ	-9.82872
▁ጎል	-9.82898
▁ዝኣ	-9.82914
▁ባህታ	-9.82963
▁ኔርና	-9.82975
ኩዎ	-9.82978
▁ቤላ	-9.82986
▁ትምህርትን	-9.83033
▁ዘለናዮ	-9.83082
ወል	-9.83097
▁ይግበር	-9.83117
ዘር	-9.83182
▁ክንጽበ	-9.83189
▁ፈታዊ	-9.83206
▁ትሓ	-9.83298
▁ደሴት	-9.83315
▁ትግረ	-9.83393
▁ዝቕጽል	-9.83408
▁ለይ	-9.83422
▁ዝባሃል	-9.83463
▁ይቅረ	-9.83504
▁ምስሊ	-9.83724
ራዊ	-9.83759
▁ወጺኡ	-9.83803
▁ገጻት	-9.83835
▁ዊ	-9.83867
▁ብምንባሩ	-9.83874
▁ዓድታት	-9.83899
▁ተባዕ	-9.83971
▁ሽም	-9.84
▁ፈስቲቫል	-9.84007
▁ዝድለ	-9.84012
ራን	-9.84066
ብያ	-9.84075
▁ንወዲ	-9.84131
▁ብመገዲ	-9.84145
ምስ	-9.84152
ሰል	-9.84156
ጦም	-9.84224
▁ዝቐረበ	-9.84248
ርከብ	-9.84276
ካል	-9.84281
▁ተሸ	-9.843
▁ደላይ	-9.84355
▁ኪኸውን	-9.84383
▁ኣካ	-9.84426
▁ዝመጹ	-9.84465
▁መዳይ	-9.84538
▁ጽሩይ	-9.84548
ዉያን	-9.84567
▁ገዲፍካ	-9.84581
▁ሐደ	-9.84629
ክዋ	-9.8479
▁ተሳተፍቲ	-9.84884
▁ብንያም	-9.84888
▁ቀጺሉ	-9.84922
▁ጽሬት	-9.84964
መና	-9.84985
▁ዝርአ	-9.85002
▁ይሁዳ	-9.85042
ሥ	-9.85129
▁ክሊብ	-9.85157
ግድ	-9.85245
ይይይ	-9.85254
▁መም	-9.85271
▁ዘማ	-9.85334
▁ትገብሮ	-9.85387
ልል	-9.85515
▁ፀ	-9.85525
▁ዕዳ	-9.85528
▁መወከሲ	-9.85563
▁ብድ	-9.85588
▁ነኝ	-9.85592
▁ኤፍሬም	-9.857
▁ብዝተፈላለየ	-9.85771
▁ብጀካ	-9.85795
▁ንስለ	-9.85799
▁ኣስተ	-9.85815
▁ነፍልጥ	-9.85875
▁በርትዑ	-9.85905
▁ውስጤ	-9.85908
▁እበር	-9.85965
▁ዓሰብ	-9.86012
▁ብደ	-9.86129
▁ዘስ	-9.86137
▁ጋንታኡ	-9.86148
▁ብምእታው	-9.8618
▁ብዓቢኡ	-9.86204
▁ክምለስ	-9.86234
ቃል	-9.86247
▁ኤርምያስ	-9.86248
ደረ	-9.8634
▁ማኩ	-9.86374
▁ሞሪኖ	-9.86466
▁ኤሬ	-9.86471
▁ኣጆና	-9.86507
▁ማዕጾ	-9.86673
▁ዴ	-9.86688
▁እዋእ	-9.86705
▁ምስማዕ	-9.86717
▁29	-9.86798
▁ሬሳ	-9.868
▁ሳሕል	-9.86835
▁ዝጀመረ	-9.86864
▁ጆ	-9.86967
▁ንሰ	-9.86971
▁ብኣንጻሩ	-9.87006
ርሕ	-9.87105
ፖ	-9.87123
▁ገሊኦም	-9.87173
ሓደ	-9.87183
▁ባርሴሎና	-9.87213
ዝን	-9.87265
▁እኔ	-9.8727
▁ኣኽ	-9.87346
▁ቅዲ	-9.87413
▁ደቓይቕ	-9.87422
ሃብ	-9.87459
▁ኑ	-9.87502
▁ናብዚ	-9.87535
▁ዝወ	-9.87571
▁ወዳ	-9.87574
▁ጠባይ	-9.8758
▁ውሽጥን	-9.87585
▁ወተሃደራት	-9.8763
▁ዝሰርሕ	-9.87648
▁ቀጽል	-9.87671
▁ስለዘሎ	-9.87671
ዕል	-9.87707
▁ዝደ	-9.8778
▁አካ	-9.87799
▁ንኸይ	-9.87824
▁ያምራል	-9.8784
▁ቈ	-9.87865
▁ሓጢኣት	-9.87909
▁መጻሕፍቲ	-9.87909
▁ሰር	-9.8796
▁ደቆም	-9.87982
ርግ	-9.87999
▁በለኒ	-9.88043
▁ንወ	-9.88165
▁ትሑት	-9.88196
ምካ	-9.88206
ድካ	-9.88209
▁ብሪጣንያ	-9.8821
▁ፊልምታት	-9.88402
▁ኣይመስለንን	-9.88549
▁ስረ	-9.88641
▁ጉያ	-9.88733
▁ቅድመ	-9.88734
▁ዝሓወይ	-9.88881
▁አደ	-9.88891
▁ሰሚዐ	-9.88922
▁ነብሰ	-9.88996
▁ኣቢላ	-9.89033
▁ትገልጽ	-9.89054
ቈ	-9.89068
▁አሜን	-9.89113
ካና	-9.89168
▁ሻሂ	-9.89208
▁ዝሓዘ	-9.89211
▁ንገዛእ	-9.89212
▁ዘፍ	-9.8927
▁ኩላትና	-9.89315
▁ዕድላት	-9.89381
▁ደንደን	-9.89389
▁ክድ	-9.89432
▁ኣቓልቦ	-9.89457
▁ኩላ	-9.89499
▁ዲኺ	-9.89523
ኩር	-9.89531
▁ተግባራት	-9.89551
▁ነሹ	-9.89567
▁ሚካኤል	-9.8957
▁ሮማ	-9.89583
▁መሲሉ	-9.89584
ውነት	-9.8965
ድያ	-9.89654
▁ህጂ	-9.8973
▁ምክትታል	-9.89754
▁ውይ	-9.89785
▁ኣምሓሩ	-9.89841
▁ብዕ	-9.89842
▁ሰሪ	-9.89906
▁ሳባ	-9.90018
▁ጸጥታ	-9.90019
▁ቅንያት	-9.90031
▁ብረት	-9.90098
ሰለ	-9.90114
ሳይ	-9.90136
▁እትርከብ	-9.90174
▁ኣንፈት	-9.90211
▁አሰይ	-9.9024
▁ወጻእን	-9.90362
▁ቡዙሕ	-9.90393
▁ምጅማር	-9.90454
ክት	-9.90483
▁ስክፍታ	-9.90492
▁ኣሰር	-9.90534
▁ሰበት	-9.9056
ራም	-9.90574
▁ጸሓፊ	-9.90579
▁ክብርቲ	-9.90585
ፈል	-9.9064
▁ዝጸንሑ	-9.90689
▁ኣዲ	-9.90695
▁ኣቦታት	-9.90763
▁ባዕልኻ	-9.90779
▁ፍርሒ	-9.90795
▁ራብዓይ	-9.90813
▁ሚያዝያ	-9.90813
▁ተርእዮ	-9.90882
▁ኢብራሂም	-9.90885
▁ዳይረክተር	-9.90885
▁ፈተና	-9.90915
▁ሻምፕዮንስ	-9.90929
▁ዑመር	-9.90969
▁ናትኩም	-9.90981
ፍን	-9.90993
▁ንበል	-9.91017
▁ኣብራሃም	-9.91046
ክክክክክክክክክክክክክክክክ	-9.91115
▁ምዝርጋሕ	-9.91122
▁አዋይ	-9.9115
▁እግዚኣብሔር	-9.91154
▁ብሞት	-9.91173
▁ኣዚ	-9.91185
▁ኣዱ	-9.91217
▁ንቕሓት	-9.91236
▁ዝኽ	-9.91283
▁ኣመሓዳሪ	-9.91389
▁ክፍሉ	-9.91432
▁ዓለማዊ	-9.91619
▁ደርጊ	-9.91635
▁እንክ	-9.91647
▁ተቓውሞ	-9.91654
▁ሮናልዶ	-9.91752
▁ሃብታም	-9.91827
▁ሽኮሪናታት	-9.9187
▁ጀሚረ	-9.9193
▁ብምግላጽ	-9.91969
▁ብቐንዱ	-9.9197
▁ይመስለኒ	-9.91998
▁ኣብዚኣ	-9.92014
▁ይመጽእ	-9.92048
▁ክገብሩ	-9.92072
▁ኣድራሻ	-9.92126
▁ኸይ	-9.92159
▁ከይደ	-9.92208
ገል	-9.92216
ዳን	-9.92228
ውል	-9.92238
▁ኲሉ	-9.92301
▁ኢለካ	-9.92311
▁ብርክት	-9.92341
▁ሓፍትና	-9.92361
ማዕ	-9.92364
▁እንድሕር	-9.92413
▁ምስኣ	-9.92414
ገብሩ	-9.92495
▁ምሳና	-9.9255
ሰሉ	-9.92554
ርን	-9.92571
▁ሓዉ	-9.92602
▁ኾይኑ	-9.92665
ጸን	-9.92672
▁ሓባር	-9.92696
▁ሜሮን	-9.9271
ቆም	-9.92745
▁ኣዛ	-9.92787
▁ኣመልኪቱ	-9.92846
▁ክኣቱ	-9.92848
▁ኣዋ	-9.92861
▁ኣቢልካ	-9.92873
▁ብል	-9.92881
ባሕ	-9.92904
ኣል	-9.92908
ረአ	-9.92997
▁መስቀል	-9.93073
▁ሪኢቶ	-9.93109
▁ሓብተይ	-9.93159
▁ጋሻ	-9.93173
ርኢ	-9.93183
ኮን	-9.93201
▁ጎቦ	-9.93211
▁ዝኣመሰለ	-9.93292
▁ቱርኪ	-9.93324
▁ምህርቲ	-9.93338
እን	-9.93395
▁ኢትዮጵያን	-9.93398
ክና	-9.9341
▁ነገሩ	-9.93429
▁የልቦን	-9.93437
▁ቶማስ	-9.93439
▁ብኸምዚ	-9.93449
▁ኣጀካ	-9.93516
▁ዝበዝሕ	-9.93525
▁አዮም	-9.93526
▁ዓምዲ	-9.93617
▁ምሉኣት	-9.93658
▁ተነ	-9.93695
ሓዝ	-9.93706
▁ምምዕባል	-9.9373
▁ምዕቃብ	-9.93782
ደሉ	-9.93818
▁ኣና	-9.93842
ኮነ	-9.93851
ፂ	-9.93852
▁ማለተይ	-9.93888
ልክ	-9.93905
▁ዝበዝሑ	-9.93916
▁ምስታ	-9.9394
▁ካብዛ	-9.93943
▁ቅድድም	-9.94028
▁ተዋስኦ	-9.94044
ህል	-9.94063
ኾነ	-9.94139
▁ፅ	-9.94248
▁ውሑድ	-9.94249
ፈረ	-9.94306
▁ዝበለት	-9.94314
▁ንብል	-9.94318
▁ስከ	-9.94344
▁ኣይትርከቡ	-9.94344
▁እንድዒ	-9.94416
ለል	-9.94481
ጽር	-9.94506
▁ጽሑፋት	-9.94547
▁ዝበላ	-9.9455
ትኻ	-9.9456
▁ወሲኹ	-9.9457
▁መርሃዊ	-9.9459
▁ትገብር	-9.94596
▁ክንድ	-9.94608
▁ዘለኺ	-9.94638
▁ቀሪባ	-9.94654
ጁ	-9.94664
▁ዕጡቓት	-9.94696
ልብ	-9.94728
▁በጃ	-9.94747
▁ኣዳም	-9.94749
▁ዝወጸ	-9.94843
▁ገረ	-9.94873
▁ዘብ	-9.94911
▁እሰያስ	-9.94933
ቸው	-9.94985
▁ምኻኑ	-9.95055
ልዩ	-9.95065
▁መዓረይ	-9.95078
ነቶም	-9.95079
▁ልብኻ	-9.95111
▁ባህርያት	-9.9515
▁ሓበሻ	-9.95236
▁ኣክ	-9.95333
ዕና	-9.95374
▁ከማ	-9.95478
▁ይትረፍ	-9.95486
▁ክረአ	-9.95504
▁ውሕስነት	-9.95529
▁ኣጀኩም	-9.95533
▁ይቕረ	-9.95538
▁ልብ	-9.95561
▁ኣይግድን	-9.95603
▁ቕ	-9.95615
▁ሞያዊ	-9.95647
ሙን	-9.9568
▁ማልያ	-9.95726
ዓል	-9.9585
▁ሰብኣዊ	-9.95867
ቶምን	-9.95945
▁ኮም	-9.95949
ችሁ	-9.9596
▁ይኸይድ	-9.95965
▁ብሓይሊ	-9.95975
▁ብቕድሚ	-9.95975
▁ብዕራይ	-9.9599
▁ጐይታ	-9.95995
▁ሩባ	-9.96002
▁ቁጠባ	-9.96002
▁ሰው	-9.96011
▁ክክክክክክክክክ	-9.96057
▁ስርሒት	-9.96098
▁ሹ	-9.96108
▁መዝገብ	-9.96139
▁ድሕር	-9.96163
▁ስፍራ	-9.96166
ፈልጥ	-9.96188
▁ስመይ	-9.96212
▁በራኺ	-9.96235
▁ኣፍሊጡ	-9.96278
ኣና	-9.96279
▁ይሓ	-9.96328
▁ኣዘኻኺሩ	-9.96354
▁ረኺቡ	-9.9643
▁ሰመረ	-9.96581
▁ንምግባር	-9.96591
▁የሩሳሌም	-9.96764
▁ኣያ	-9.96774
▁መንበር	-9.96781
ዕካ	-9.96784
▁ክወጽእ	-9.9681
▁ኣትሒዙ	-9.9681
▁ዘለወን	-9.96825
▁ክግበር	-9.96826
▁ሰል	-9.9686
▁ኣሽሓት	-9.96894
▁ሳራ	-9.96954
▁ኣደና	-9.97058
▁ኣይኮነትን	-9.97071
▁60	-9.97079
▁ሓንጎል	-9.97113
ነብር	-9.97123
▁ብድሆ	-9.97135
▁ጨው	-9.97179
▁ምት	-9.97186
▁ገምጋም	-9.9727
▁ፒ	-9.97366
▁ሓደገኛ	-9.97381
▁መርከብ	-9.97381
ለለ	-9.97396
▁ደቀ	-9.97435
▁ዮሃና	-9.97443
▁ዓዱ	-9.97451
▁ውሽጠይ	-9.97453
ሪት	-9.97489
▁ዝው	-9.97491
▁ደበሳይ	-9.975
▁መኣዲ	-9.97521
▁ኢደይ	-9.97608
▁ለምለም	-9.97657
▁ሽፍታ	-9.97669
▁ውጽኢቱ	-9.9773
▁ብዝግባእ	-9.97741
▁ሄሉ	-9.97756
▁ክብርታት	-9.97771
▁ርእስኻ	-9.97775
▁ልምዲ	-9.97826
▁ምሳካ	-9.97862
ስር	-9.97926
▁ዝብላ	-9.97966
▁ኢሉኒ	-9.98016
▁ዝተፈላለያ	-9.98067
▁ኤማ	-9.98075
▁ሸሞንተ	-9.98116
▁ልባ	-9.98118
ዀ	-9.98121
▁ህዝብኻ	-9.98133
▁ኣፋ	-9.98143
▁ምድረ	-9.98159
▁ልምምድ	-9.98194
▁ብምኻድ	-9.98271
ከይ	-9.98324
▁ክዓ	-9.98374
▁ዝወሃብ	-9.9838
▁ዘለኒ	-9.98381
▁መብራህቱ	-9.98426
▁ንምርካብ	-9.98427
▁ክንገብር	-9.98435
▁ንሕብር	-9.98458
▁ዝፈ	-9.98487
▁ሳዕቤን	-9.98504
▁ንው	-9.98514
▁ድሕሪኡ	-9.9852
▁ነፋሪት	-9.98581
▁ጻ	-9.98602
▁ብሕጊ	-9.98692
▁ባሕርን	-9.98711
▁ምጥ	-9.98741
▁ልሙድ	-9.98742
10	-9.98776
▁ጀሚራ	-9.98836
▁ገጸ	-9.98891
▁መሰ	-9.98892
▁ኣሰራርሓ	-9.98893
ዋት	-9.98914
▁ለት	-9.98919
▁ወጻኢታት	-9.98935
ጉስ	-9.98966
▁ምክ	-9.99007
▁ኣራ	-9.99045
ግባ	-9.99076
▁ዝሃ	-9.99076
▁ተዘ	-9.99092
▁ዳኒ	-9.99097
▁ዝተዋህበ	-9.99124
ኵ	-9.99208
▁ባዕለይ	-9.99255
▁ንብ	-9.99265
▁ዙ	-9.99286
▁ሑ	-9.99291
▁ውጹዕ	-9.993
▁ሴ	-9.99367
▁ይንገር	-9.99367
▁ዘለኪ	-9.99368
ላዕ	-9.99373
ራሪ	-9.99436
▁ሰኑይ	-9.99441
መጽእ	-9.99477
ናዮም	-9.99568
▁ስራህ	-9.99572
▁ስነጥበባዊ	-9.99582
▁ክሓ	-9.99615
▁ፎእ	-9.99702
▁መብርሂ	-9.99753
▁ጸኒሐ	-9.99788
▁ኪት	-9.99817
▁ድምፂ	-9.99835
▁ኣሜሪካ	-9.99927
▁መደበር	-9.99934
▁ምል	-10.001
▁ኣጽ	-10.0012
▁ከምዚኣ	-10.0019
▁ክሰ	-10.0024
▁ወሪዱ	-10.0024
▁ድሕነት	-10.0025
▁ዓራት	-10.0029
▁መጻእካ	-10.0029
▁ዝነኣድ	-10.0037
ዳም	-10.0038
▁ኣረ	-10.0038
▁ውልቃዊ	-10.0038
▁ምልክታት	-10.0044
ውት	-10.005
▁ብእኡ	-10.0058
▁ኸተማ	-10.0058
▁ክፉእ	-10.0062
▁መቓብር	-10.0062
▁እንተድኣ	-10.0066
ብሮ	-10.0074
▁ዘሕ	-10.0079
ማል	-10.008
▁ጣ	-10.0083
ሐት	-10.0092
▁ንምስ	-10.0094
▁እዋናት	-10.0095
ሕና	-10.0097
▁ብወገን	-10.0098
ዳይ	-10.0102
▁ብሃንቀውታ	-10.0102
ልዕ	-10.0105
ወደ	-10.011
▁ቀረብ	-10.0111
▁ካብዞም	-10.0117
ግበር	-10.0118
▁ከብ	-10.0119
▁ብቑዕ	-10.012
▁ግደፍ	-10.0125
▁ሳሙኤል	-10.0126
▁ይሰ	-10.0136
▁ሓውሲ	-10.0141
መስ	-10.0148
▁ካሜራ	-10.0159
▁እንቓዕ	-10.0159
▁አንድ	-10.0161
▁ጽኑዕ	-10.0166
ገብ	-10.0167
▁ማል	-10.0171
▁ብጣሚ	-10.018
▁ኣቦኡ	-10.0184
▁ክትሰርሕ	-10.019
▁አው	-10.019
▁ዲና	-10.0191
▁ቅዋም	-10.0191
▁ዲስ	-10.0197
▁ሽኮሪና	-10.02
▁ተመን	-10.02
▁ፍቅርን	-10.0201
▁ዘሎዎ	-10.0201
▁ሕጉስ	-10.0201
▁መሳጢ	-10.0207
▁መብዛሕትኡ	-10.0215
▁ሓኪም	-10.0216
▁ምምሕዳራት	-10.0222
መረ	-10.0229
▁ተስ	-10.0235
▁ይረጋገጸለይ	-10.0238
▁ሽማግለ	-10.0244
▁ማዕከናት	-10.0246
▁መቕጻዕቲ	-10.0246
▁ንባብ	-10.0248
▁ጂ	-10.0249
▁ተዘይ	-10.025
▁ግራት	-10.0257
ሓፍ	-10.0264
▁ዘለ	-10.0264
▁ራህዋ	-10.0265
▁ለመ	-10.0266
▁ዓሚ	-10.0269
▁ጥቕሚ	-10.0272
▁2012	-10.0272
▁ኢራን	-10.0276
▁ምንጭታት	-10.0278
▁ኣንስተይቲ	-10.0281
ልእ	-10.0284
▁ኣጽዋር	-10.0286
▁ኣግ	-10.0293
▁አላ	-10.0297
▁ኣይትበል	-10.0297
▁ንዘሎ	-10.0306
▁ዝዛረብ	-10.031
▁ክቡራት	-10.0314
ናስ	-10.0315
▁ሰነድ	-10.0315
▁ዲኩም	-10.0315
▁ከምእተ	-10.0317
ፍካ	-10.0317
▁ጃፓን	-10.0319
▁ዮሃንስ	-10.032
▁ለበዋ	-10.0325
▁ዝገ	-10.0326
▁ብሂወት	-10.0331
ከም	-10.0333
▁ምብ	-10.0336
▁ሚኪኤል	-10.0336
▁ኮሜዲ	-10.0337
▁ግርማ	-10.0337
ድል	-10.0339
ርህ	-10.0341
▁ኣታዊ	-10.0344
▁ሳብስክራይብ	-10.0347
▁ኤዱ	-10.0352
▁አቦ	-10.0352
ውስ	-10.0352
▁ተመሊሱ	-10.0352
▁ዓይነታት	-10.0353
▁ብዝተ	-10.0357
20	-10.0358
ሓሉ	-10.0359
▁ኣገደስቲ	-10.036
▁ንግበር	-10.0364
▁ሰም	-10.0364
ሳስ	-10.0365
▁ተቐዳዳማይ	-10.0368
▁ውድ	-10.0369
▁ክርኢ	-10.0375
▁ምቁር	-10.0376
ድም	-10.0384
▁ሒ	-10.0385
▁ሄ	-10.0386
▁ማዓረይ	-10.0389
▁ቶተንሃም	-10.0393
▁ንፍ	-10.0394
ፁ	-10.0398
▁ኣምበሳ	-10.0401
▁ጽልኢ	-10.0402
ግስ	-10.0403
▁ቅድሚኡ	-10.0407
▁ብዝያዳ	-10.0409
▁ዳንኤል	-10.041
▁ብኹሉ	-10.0411
▁ናታ	-10.0413
▁ዝቐጸለ	-10.0413
▁ዝዕ	-10.0415
ዘይ	-10.042
ግብ	-10.0421
▁ኣለኺ	-10.0422
▁እይ	-10.0423
▁ዞ	-10.0424
▁እንድየ	-10.043
▁ምዝ	-10.0432
▁ኣካላዊ	-10.0434
▁ዝሰርሑ	-10.0435
▁ፍቕርን	-10.0439
▁እቲኣ	-10.0439
▁መረዳእታ	-10.0442
▁ክትረክብ	-10.0444
▁ዘድልዮ	-10.0444
▁ኔሮም	-10.0444
▁ደርሆ	-10.0444
▁እንከለኹ	-10.045
▁ዋሒድ	-10.045
▁ደብዳበ	-10.0452
▁ዘለኩ	-10.0455
ርዩ	-10.0456
ደለ	-10.0459
▁ፍልም	-10.0464
▁ዝተሓ	-10.0468
▁ክሊ	-10.0476
▁ሃወይ	-10.0478
ሰና	-10.0482
▁ንምርግጋጽ	-10.0483
▁ብቐጻሊ	-10.0491
▁መልኣከ	-10.0493
▁ፍስሃየ	-10.0497
▁ብዝተረፈ	-10.0501
▁ሃብቶም	-10.0505
▁እንተት	-10.0507
▁ሓባራዊ	-10.0508
▁ዝበልካዮ	-10.0509
ቀል	-10.051
▁ብሰ	-10.0518
ግራ	-10.0523
▁ብመልክዕ	-10.0525
▁ደንቆሮ	-10.0533
▁መሪ	-10.0547
ትር	-10.0547
▁ኣተወ	-10.0549
▁ጀሚሮም	-10.055
ወጽእ	-10.055
▁ማይናስ	-10.0551
▁ኣከባቢ	-10.0553
ወይ	-10.0554
▁ስደተኛታት	-10.0556
▁ኣባይ	-10.0561
▁ሁ	-10.0563
▁ኣስፍሃ	-10.0566
ጎም	-10.0568
▁ነጻ	-10.0569
ደና	-10.0573
▁ሽጋራ	-10.0575
▁ስግኣት	-10.0583
ምነ	-10.0584
▁መስፍን	-10.0585
▁ይደሊ	-10.059
▁ወሲዱ	-10.0593
▁ዓርኩ	-10.0593
ረም	-10.0595
▁ብራዚል	-10.0599
▁ነብሶም	-10.06
▁ኣይኮንኩን	-10.06
▁ጥንሲ	-10.0615
▁ሚዛን	-10.0618
▁መጻኹም	-10.0618
ብረ	-10.0621
▁ኣናብስ	-10.0625
ክሞ	-10.0626
▁ስዒድ	-10.0629
ኣሉ	-10.0631
▁ሌላ	-10.0633
▁ኣገዳስነት	-10.0633
▁ደቡባዊ	-10.0633
▁ነዳዲ	-10.0645
▁ክለቡ	-10.0645
▁ክሰምዕ	-10.065
▁ምፍላጥ	-10.0652
▁ገይራ	-10.0675
▁ሳን	-10.0684
▁ሱቅ	-10.0685
▁ዩቱብ	-10.0695
▁ንዓካ	-10.0703
▁ብስራት	-10.0704
▁ኣውራጃ	-10.0705
ታትና	-10.0713
▁ዝቕ	-10.0713
ረኣ	-10.0717
▁ወገነይ	-10.0718
▁ኣብሪሁ	-10.0718
▁በልዎ	-10.0722
▁ይፈቱ	-10.0723
▁ብህይወት	-10.0726
ህሉ	-10.0731
▁ናትኪ	-10.0731
ዳት	-10.0732
▁ከምዘላ	-10.0737
▁ሩ	-10.0739
ንድ	-10.0739
▁ምህላዎም	-10.0743
▁ንስድራ	-10.0743
ስኪ	-10.0754
▁አምበር	-10.0754
ባእ	-10.0758
▁በርትዒ	-10.076
▁ትምኒት	-10.0762
▁አንታ	-10.0764
▁ዓወትን	-10.0767
▁ማንም	-10.0772
▁ዋንነት	-10.078
ገደ	-10.0781
▁የተ	-10.0783
▁ጌረ	-10.0784
ሃል	-10.0795
ኦምን	-10.0797
▁ክከውን	-10.0799
▁ከይተረፈ	-10.0802
በሪ	-10.0804
ተሉ	-10.0807
ልዋ	-10.0809
▁ከምዘየለ	-10.0809
ቶን	-10.0822
▁ሓፍ	-10.083
▁ኢቲ	-10.0836
▁ውሳኔ	-10.0836
▁ምሕረትኣብ	-10.0838
▁ንማ	-10.0839
▁ቻ	-10.0843
▁ተአ	-10.0843
▁መንበሪ	-10.0845
▁ጥልያን	-10.0846
▁ሓለቓ	-10.0846
▁ኵሎም	-10.085
▁ሰበይ	-10.086
ጠብ	-10.0863
ጋር	-10.0866
ጸብ	-10.0867
ብሩ	-10.087
▁ዓውደ	-10.087
▁ሃገሮም	-10.0871
▁ክልቲአን	-10.0871
▁ኢል	-10.0872
▁ዘበን	-10.0873
▁ቤታ	-10.0874
▁ብህ	-10.0875
▁ብዳሓን	-10.0879
ሃት	-10.0884
▁ሻዕብያ	-10.0897
▁ባዕላ	-10.09
ቅር	-10.0903
▁90	-10.0904
▁ሌ	-10.0909
▁ተዛሪቡ	-10.0914
▁ክሉ	-10.0916
ጽን	-10.0916
ርኪ	-10.0919
19	-10.0922
▁ንልዕሊ	-10.0923
▁ፋራ	-10.0923
▁ሓድነት	-10.0928
▁ንዓኺ	-10.0931
▁መል	-10.0932
▁መት	-10.0935
▁ዛራ	-10.0937
▁ንገለ	-10.0937
አል	-10.0939
▁ዲኹም	-10.0948
▁ህላወ	-10.0949
▁ኣጥ	-10.0953
▁ኢዪ	-10.0954
▁ዘር	-10.0955
▁ኩን	-10.0959
▁ዓርኪ	-10.0961
▁ዝግ	-10.0974
ርብ	-10.0977
▁ክዕ	-10.0984
ጸበ	-10.0986
▁ወቕቲ	-10.0987
ላም	-10.0989
▁ዝከ	-10.0989
ሓር	-10.099
▁ንገብር	-10.0995
▁በርታ	-10.1006
ውቲ	-10.1007
▁ክኽ	-10.1009
▁ተመኩሮ	-10.1009
▁ቢልዮን	-10.101
▁ጾታ	-10.1011
▁ተስፋማርያም	-10.1012
ሊት	-10.1013
▁በልካ	-10.1031
▁ክብላ	-10.1037
▁ዝተጠቕሰ	-10.104
▁ዝተባህለት	-10.104
▁ዓርቢ	-10.1047
ምዎ	-10.1048
▁ሓጋዚ	-10.1053
▁አለና	-10.1058
▁ተዋሂቡ	-10.1062
ስል	-10.1062
▁ዓብዪ	-10.1064
▁ጉድኣት	-10.1065
▁ንኣሽቱ	-10.1067
▁ጥዑይ	-10.1071
▁መዚ	-10.1078
ምሃር	-10.1086
▁ዮናስ	-10.109
▁ክሰርሑ	-10.1093
▁ስራሕኩም	-10.1094
▁ዓሕ	-10.1094
ኩምና	-10.1096
▁መልእክቲ	-10.1097
▁ማዕከን	-10.1097
ዓይ	-10.1103
ግረ	-10.1104
ብድ	-10.1105
ትራ	-10.1106
መሉ	-10.1107
▁መንፈሳዊ	-10.1108
▁ለዋህ	-10.1109
▁ይሕዋት	-10.111
▁ጋዜጠኛ	-10.1118
▁ብሩህ	-10.1118
ቼ	-10.1123
6	-10.1124
▁ካልኦትን	-10.1125
▁ዝለ	-10.1127
▁ኢዶም	-10.1127
▁ክፍልታት	-10.1131
▁ድምጹ	-10.1132
ክያ	-10.1133
▁ቅሳነት	-10.1139
▁ምነ	-10.1139
4	-10.1143
▁ዓው	-10.1146
▁ፖ	-10.1148
ርእዮ	-10.1151
▁ዝፈትዋ	-10.1165
▁ኵነታት	-10.1168
▁ጽን	-10.1168
ወሰ	-10.1172
▁ኮሎ	-10.1174
▁ፈቲ	-10.1174
▁ፍልይ	-10.1182
▁መአገዲ	-10.1185
▁ሰላምታ	-10.1187
▁መጓዓዝያ	-10.1193
▁መዋ	-10.1194
ድሕን	-10.1196
ፍና	-10.1199
▁ከይከውን	-10.1202
▁ጥበባውያን	-10.1203
▁ካባካ	-10.1208
▁ኣዲስ	-10.1208
▁ሕጅ	-10.1211
▁ብሕጂ	-10.1212
▁ዝፈትዎ	-10.1214
ጽብ	-10.1219
▁ምፍ	-10.1221
▁ኣንስቲ	-10.1223
▁ውጥን	-10.1224
▁በቶም	-10.123
▁ንእስነት	-10.1233
ጥም	-10.1236
▁ሰንዓፈ	-10.124
▁ዘመ	-10.1243
▁አስከ	-10.1248
▁ስፖርታዊ	-10.1256
ጸል	-10.126
▁ተረፍ	-10.1268
ረኽበ	-10.1268
ምህር	-10.127
▁ነጥብታት	-10.1274
▁ህንጸት	-10.1274
▁ይሕብር	-10.1275
▁ስብሓት	-10.1277
▁ሓዱሽ	-10.1279
ታተይ	-10.1281
▁ዘካየዶ	-10.1283
▁ከምታ	-10.1285
ጽበ	-10.1285
▁ኼ	-10.1289
▁ድምጽ	-10.1291
▁ዝከኣል	-10.1294
▁ሕዝቢ	-10.1295
▁ሚስ	-10.1297
▁ባንዴራ	-10.1301
▁ንኡሳን	-10.1301
ግም	-10.131
▁ፍስሃጽዮን	-10.131
▁ነዉ	-10.1315
▁ርሕቀት	-10.1319
ለሁ	-10.1319
▁ኢንታይ	-10.1321
▁ዝተረፉ	-10.1324
▁ስል	-10.1325
▁ኣዝማሪኖ	-10.1328
▁ርእሳ	-10.1328
▁ብሃ	-10.1329
▁1000	-10.1334
▁ኣቢለ	-10.1336
▁ይገልጽ	-10.1342
▁ንኣምላኽ	-10.1349
▁ኮንኩም	-10.1349
▁ጊን	-10.1354
▁ፈር	-10.1354
ኣካ	-10.1355
▁ወያኔ	-10.1356
▁ካባይ	-10.1365
▁ይሃብኪ	-10.1368
▁ዝነበርና	-10.137
▁ዝብለካ	-10.1372
▁ምህ	-10.1381
▁ቀዳምነት	-10.1381
▁ዝሓለፉ	-10.1382
▁ዮናታን	-10.1382
▁ቴ	-10.1384
▁ሂወተይ	-10.1387
▁ሂወትካ	-10.1394
▁ስዲ	-10.1395
ሰምዓ	-10.1396
▁ሰራሕ	-10.1396
ጋግ	-10.1404
▁መዓት	-10.1405
▁ጠሊ	-10.1406
ህን	-10.1407
ተና	-10.141
▁እስ	-10.1412
▁ተፋ	-10.1415
ወድ	-10.1424
▁መዛዘሚ	-10.1427
▁እናገለጽና	-10.1427
▁ብጥ	-10.1429
▁ብሕጋዊ	-10.1437
▁ገዲፉ	-10.1438
▁አር	-10.1439
ሰምዕ	-10.1443
▁ምትብባዕ	-10.1444
ቐት	-10.1448
▁ክፍ	-10.145
▁ሀገር	-10.1456
በሎ	-10.1458
▁ክር	-10.1459
▁ሸፋቱ	-10.1464
ሸይ	-10.1466
ቄ	-10.1468
▁ናቶም	-10.147
▁ተዛረብ	-10.1472
▁ተኽሊ	-10.1476
▁ይግበረልኩም	-10.1477
ሓልፍ	-10.1477
▁ክትዕ	-10.1478
▁ገማግም	-10.1482
▁ኢት	-10.1486
መኒ	-10.1486
▁ዂሉ	-10.1491
▁ብግ	-10.1495
ሰረ	-10.1497
▁የግዳስ	-10.1498
▁መለ	-10.1502
▁እዳ	-10.1502
▁ይነብር	-10.1502
ችን	-10.1505
▁ከከም	-10.151
▁ዝኣቱ	-10.1511
▁መኽሰብ	-10.1519
▁ፕሮጀክት	-10.1521
▁ኣሉታዊ	-10.1521
▁ታሪኻዊ	-10.1522
ሓድ	-10.1524
እቲ	-10.1531
▁አሪፍ	-10.1534
▁ዜሮ	-10.1534
▁ስዉኣት	-10.1535
▁ነብያት	-10.1538
▁ብምንታይ	-10.154
▁ገዚፍ	-10.1549
▁ተፈጥሮ	-10.155
የና	-10.1551
▁ኣህዛብ	-10.1565
▁ኣይከ	-10.1568
▁መዝሙር	-10.1569
▁ክረምቲ	-10.1574
▁ደረት	-10.158
▁ከምዘለዋ	-10.1584
▁ቪ	-10.1588
▁ገር	-10.159
▁ዓድ	-10.1601
ዝም	-10.1603
▁ናይዞም	-10.1608
▁ፎርሳ	-10.1615
▁ልዕሊኡ	-10.1615
▁ኣከዳድና	-10.162
▁መራኸቢ	-10.1623
▁ተዓዘብቲ	-10.1626
ለፍ	-10.1629
▁ባንክ	-10.1633
▁ፋርማሲ	-10.1639
▁ቓል	-10.1647
▁ኤርትራዊት	-10.165
▁ኣማን	-10.1654
▁ህድሞና	-10.1657
▁ዝብልዎ	-10.1657
▁ትንቢት	-10.1658
▁ኣደታት	-10.166
▁ሓወልቲ	-10.1667
▁ዝባን	-10.1672
▁እቶ	-10.1683
▁ራሄል	-10.1685
▁ኤርትራዊያን	-10.1688
▁ይህ	-10.1697
▁ተት	-10.17
▁ምቅ	-10.1702
▁ህያው	-10.1703
▁ንእሽተይ	-10.1704
▁ይቅረታ	-10.1706
▁ስቃይ	-10.1706
▁ግዜኡ	-10.1707
▁ባረንቱ	-10.1713
▁ጊንዳዕ	-10.1713
▁ዲስላይክ	-10.1715
▁ከብዲ	-10.1715
ረሉ	-10.1717
ገበ	-10.1719
ምለስ	-10.172
▁ትንፋስ	-10.1721
▁ብንጹር	-10.1723
▁ጀግና	-10.1723
ራሕ	-10.1728
▁ንሓንቲ	-10.1731
▁ክትዛረብ	-10.1733
▁ቅነ	-10.1735
▁ምህላው	-10.1737
▁መጽሔት	-10.1741
ልኩ	-10.1744
▁ዕንወት	-10.1751
▁ምእታው	-10.1751
▁ቅያ	-10.1753
▁ብዓይኒ	-10.176
▁ዚብል	-10.1762
▁ስድራና	-10.1763
ካዮም	-10.1768
▁ምህናጽ	-10.177
ገረ	-10.1773
▁መዓር	-10.1779
ዮን	-10.1782
▁ጓለይ	-10.1783
▁ከት	-10.1787
ገን	-10.179
▁ፍልጠትን	-10.179
▁ነዚኣ	-10.1791
ሃር	-10.1791
▁ዝተዳለወ	-10.1794
▁እምባ	-10.1795
▁የለ	-10.1797
▁ንጽ	-10.1798
ገብሮ	-10.18
▁ኣወ	-10.1802
▁ምህላዋ	-10.1807
▁ረዚን	-10.1808
▁ነይርና	-10.1808
▁ብምዕ	-10.1809
ጠቕ	-10.1815
▁ኣስተምህሮ	-10.1816
▁ሰላምኩም	-10.1817
▁ጌሮም	-10.1819
5	-10.1825
▁መቐረት	-10.1827
▁2011	-10.1828
▁ብሓጺሩ	-10.1836
▁ድምጽኻ	-10.1839
▁ወላዲ	-10.1839
ሰላ	-10.184
▁ከሳሲት	-10.1841
▁ድሙ	-10.1842
▁ኣዘ	-10.1845
ከት	-10.1845
ሳል	-10.1845
▁ብራ	-10.1852
▁ዒራቕ	-10.1855
▁ኽሳዕ	-10.1856
ጸር	-10.1857
▁ነብሳ	-10.186
ገም	-10.1862
▁ንመጻኢ	-10.1864
ገባ	-10.1865
▁ተካል	-10.1866
▁መላ	-10.1871
▁ተብል	-10.1874
▁ጨካን	-10.1875
▁ንኹሎም	-10.1875
▁ከለኩ	-10.1879
▁ንግዳዊ	-10.1883
▁ጸቢብ	-10.1884
ገበር	-10.1887
ጋጊ	-10.1898
▁ክፈልጥ	-10.1899
▁ክትሕ	-10.19
ርዕ	-10.1905
ቢል	-10.1907
ሰስ	-10.1908
▁ንጉሰ	-10.1909
ዓብ	-10.1911
▁ሓን	-10.1911
▁ተሐ	-10.1911
▁ሃገራውያን	-10.1912
▁ሄሪ	-10.1913
▁ገይርካ	-10.1917
▁ሰማያት	-10.1922
▁ዑደት	-10.1922
ሐን	-10.1924
▁ሰራሕተኛ	-10.1926
▁ቀልጢፉ	-10.1931
▁ዘጋጠመ	-10.1932
▁ወለድና	-10.1933
▁ኰ	-10.1936
▁247	-10.1939
ሱን	-10.194
ሰማ	-10.1941
ጽል	-10.1945
▁ሕጅስ	-10.196
▁ዓይኑ	-10.1965
▁ሒዘ	-10.1965
▁ክርከብ	-10.1966
▁ዝኾና	-10.1969
▁ንዓኹም	-10.197
▁ጅግንነት	-10.1971
▁በልኩ	-10.1972
▁ተኻ	-10.1973
▁ፍትሕ	-10.1985
▁ኣየናይ	-10.1996
ደመ	-10.2
▁ንህግደፍ	-10.2002
▁ምእ	-10.2003
ሓስ	-10.2007
ጽዕ	-10.2012
▁ሓሪ	-10.2016
▁ይዝከር	-10.2021
መጻ	-10.2021
▁እከይ	-10.2023
ቕን	-10.2025
ስከ	-10.2025
▁ንቕ	-10.2036
መድ	-10.2037
▁ስለዝዀነ	-10.2038
▁ዘይንቀሳቐስ	-10.2045
▁ክሳራ	-10.205
▁ተሰነይ	-10.2051
▁ሰረ	-10.2061
▁ጫማ	-10.2063
ፐ	-10.2064
▁ኣሳልጦ	-10.207
▁ሓጐስ	-10.2071
▁ፍትሕን	-10.2073
▁ዳኒኤል	-10.2076
▁ትሰርሕ	-10.208
▁ሚእትን	-10.2085
ይይ	-10.209
▁ማዕበል	-10.209
▁ምውጻእ	-10.2091
▁ሕነ	-10.2092
▁ላዕለዎት	-10.2094
▁ኮይነን	-10.2095
▁ሳሮን	-10.2097
▁መንግስታት	-10.21
ቅል	-10.2101
▁ሕሱም	-10.2104
▁ብፍቕሪ	-10.2114
▁መዓ	-10.2118
▁ካል	-10.2119
ቨ	-10.212
▁ሰሪሕካ	-10.212
▁ንዓኣ	-10.2124
▁ውድቀት	-10.2124
▁ፍሽ	-10.2125
ኢት	-10.2126
▁የም	-10.2129
▁ጋር	-10.2131
▁ስማዕ	-10.2131
▁መባእታ	-10.2132
▁ንገ	-10.2134
ተው	-10.2134
▁ምፍልላይ	-10.2143
ዘለ	-10.2144
▁ድንግል	-10.215
የካ	-10.2151
▁ጠቒሱ	-10.2153
▁ረቛሒታት	-10.2154
▁ብቻ	-10.2155
ደሊ	-10.2158
▁ከስ	-10.2158
▁ዝገብሩ	-10.2159
▁ሰምበል	-10.2162
▁ሸርሙጣ	-10.2163
▁ገብረሂወት	-10.2163
▁ብሩክ	-10.2164
▁ጌ	-10.2166
▁ደአ	-10.2171
▁ይምነየልኩም	-10.2176
ርባ	-10.2177
▁ክርስትና	-10.2178
ደስ	-10.218
ፋይ	-10.2184
▁127	-10.2184
▁ነዘን	-10.2185
▁የቕርብ	-10.2186
▁ክብሎ	-10.2186
▁ንደ	-10.2186
ናያ	-10.2188
▁ጀሚርካ	-10.2189
▁ኣቀራርባ	-10.2192
▁ገብረመድህን	-10.2192
ዛዝ	-10.2196
ብሃል	-10.2196
▁ምሳኩም	-10.2196
▁ቀሪብና	-10.22
▁ማሕበረ	-10.2201
▁ተጫረትቲ	-10.2202
▁ይቕሬታ	-10.2202
▁ከምእት	-10.2209
ኮም	-10.221
ዒት	-10.2213
▁ገጾም	-10.2216
ሳን	-10.2223
▁ትደሊ	-10.2226
▁ተው	-10.2234
▁ዝኮነት	-10.2236
▁ዝኣተወ	-10.2237
▁ንድ	-10.2242
▁ገን	-10.2245
▁እናበለት	-10.2249
▁ናባይ	-10.2251
▁ዋዕላ	-10.2255
▁ቅር	-10.2255
ዳል	-10.2256
ርጋ	-10.2257
▁ማዓስ	-10.2261
ብህ	-10.2263
▁ደጋፊ	-10.2264
▁ቃና	-10.227
▁ምፍጣር	-10.2271
ርእ	-10.2273
▁ኣይነ	-10.2276
▁ንዓለም	-10.2278
ቊ	-10.2279
▁ነመስግን	-10.2283
▁ንባ	-10.229
▁ጀብሃ	-10.2291
▁ብሓንሳብ	-10.2294
▁ወር	-10.2294
ነፍ	-10.2294
ጠን	-10.2295
▁ሃል	-10.2295
መጽ	-10.2295
▁ኔ	-10.2298
ጥን	-10.2299
ፈለ	-10.2305
▁ስጋብ	-10.2307
▁ስማ	-10.2308
▁ንኻልኦት	-10.231
▁ኣሮን	-10.2313
▁ሳምራዊት	-10.2314
▁ድኻ	-10.2316
ፈሉ	-10.2325
ፋን	-10.2328
▁ፊት	-10.233
▁ንምባል	-10.2334
▁ኣዴታት	-10.2339
▁ሄርሞን	-10.2341
ዎች	-10.2344
▁ደር	-10.2345
▁ብደም	-10.2346
▁ዝሓትት	-10.2347
▁ብዝምልከት	-10.2352
▁ትብሊ	-10.2354
▁ግዚኡ	-10.2356
▁ንግስቲ	-10.236
▁ምርግጋጽ	-10.236
▁ተባሂሎም	-10.236
▁ገሊጻ	-10.2362
▁ገጽካ	-10.2363
▁መኸተ	-10.2369
▁ይው	-10.238
▁ኣዚና	-10.2381
▁ከሙኡ	-10.2384
▁ምሳኹም	-10.2384
ፍቲ	-10.2384
▁ዝድ	-10.2385
▁መጽሓፍቲ	-10.2391
▁ኣሎዎ	-10.2392
▁ወልደ	-10.2396
▁ዝሕግዝ	-10.2396
▁ዝበጽሕ	-10.2397
▁ሃብ	-10.2397
▁ሓማሴን	-10.24
▁ውሽጡ	-10.2401
▁ረኺበ	-10.2403
▁ንባዕሉ	-10.2406
▁ድሓር	-10.2406
▁ዝወጸሉ	-10.2407
▁ዝተረኽበ	-10.241
▁ድሒሩ	-10.241
▁ዘዝ	-10.2413
▁ኣወል	-10.2415
▁ዋውውውውውው	-10.2415
ርት	-10.2419
▁ብመንገዲ	-10.242
▁ድምጽካ	-10.242
▁ኩነት	-10.2422
▁ወጸ	-10.2423
▁እትኽእል	-10.2427
ስተር	-10.243
▁ቅትለት	-10.243
ሮን	-10.2431
▁በሊሕ	-10.2432
▁ኢትዮ	-10.2436
▁ዘይነበረ	-10.2437
▁ስለዝተ	-10.2438
▁ካልኣይቲ	-10.2438
ሰምዖ	-10.2442
▁ክመ	-10.2444
▁200	-10.2444
▁70	-10.2445
▁ይገልጹ	-10.2446
▁ጠፊኡ	-10.2448
▁ምተ	-10.2449
▁አወ	-10.2449
▁ብዘየገድስ	-10.245
▁ሕጽረት	-10.2451
ስራሕ	-10.2457
▁ሞይተ	-10.2461
▁ዘመነ	-10.2463
▁ኦም	-10.2467
ሰርሕ	-10.2468
▁ኤህ	-10.2471
▁ኢለን	-10.2473
▁ኣቢሎም	-10.2478
▁ክልቲኡ	-10.2481
▁ወለ	-10.2482
▁ሰሪሑ	-10.2485
▁ተሜ	-10.249
▁ዓወታት	-10.249
▁ደርግ	-10.2498
▁ሰፈር	-10.2505
▁ይሕብሩ	-10.2508
▁ገብረሚካኤል	-10.2511
ዋር	-10.2511
ፈልጦ	-10.2518
▁በስ	-10.2522
▁ፋክስ	-10.2526
▁ክራማት	-10.2526
▁ማዕ	-10.2526
▁ብድሆታት	-10.2527
▁ምሕዝነት	-10.2531
▁ድልየት	-10.2531
▁መጻኻ	-10.2535
ዌ	-10.2541
▁ብወግዒ	-10.2541
▁ብልዑል	-10.2546
▁ማሕ	-10.2549
▁ዝፈጥር	-10.255
▁መጻወቲ	-10.2553
▁ህግ	-10.2554
▁ጸኒሓ	-10.2556
▁ዝጅምር	-10.2561
▁ተሳትፎ	-10.2563
ብኩም	-10.2568
▁ክወጾ	-10.2569
▁ጕዕዞ	-10.2572
▁ስንኩላን	-10.2572
▁ጥበበኛ	-10.2573
▁ዝረአ	-10.2573
▁ተዝ	-10.2575
ከፍ	-10.2576
▁ክብር	-10.2579
▁ትግሬ	-10.2579
ዓር	-10.2581
▁ምግላጽ	-10.2582
▁ክበጽሕ	-10.2583
▁ኣትዮም	-10.2584
▁ወዮ	-10.2586
▁ምንባብ	-10.2589
▁ህግድፍ	-10.2593
ግበ	-10.2597
▁ኩናት	-10.2598
▁ካር	-10.2602
▁ብኽ	-10.2607
▁ዝመጻ	-10.2607
ልፍ	-10.2609
▁ኣፉ	-10.2613
▁ተሪፋ	-10.2615
ምበር	-10.2622
▁ብምምልካት	-10.2623
▁ኣይነበሮን	-10.2633
▁ኣምባሳደር	-10.2633
▁ብዝለዓለ	-10.2634
▁ኸሎ	-10.2637
▁ኢስያስ	-10.2637
ርእያ	-10.2639
▁ንፈልጥ	-10.2639
ፍል	-10.2643
▁ቅልጡፍ	-10.2643
ኮኑ	-10.2645
▁ተረኺቡ	-10.2654
ርም	-10.2654
▁ቁምነገር	-10.2655
ለየ	-10.2657
▁እግሩ	-10.2657
▁መርገም	-10.266
▁ኣቡ	-10.2661
▁ርኢቶ	-10.2662
ő	-10.2666
▁እሰይ	-10.2666
ጪ	-10.2666
ርአ	-10.2672
ረር	-10.2673
▁ሓካይም	-10.2674
▁ፈጢሩ	-10.2674
▁ያረድ	-10.2675
ዯ	-10.2679
▁ንኤርትራውያን	-10.2683
ኛታት	-10.2684
▁ንዘልኣለም	-10.2685
▁ናይብሓቂ	-10.2685
▁ኩቡራት	-10.2685
▁ኩሉኹም	-10.2691
▁ብምም	-10.2691
ዋል	-10.2693
ግዛ	-10.2709
▁ዝተዓ	-10.2709
▁ሆቴል	-10.2716
▁ቢራ	-10.2716
▁ትፈልጦ	-10.2716
▁ይሰርሕ	-10.272
▁ቍ	-10.2723
ደብ	-10.2724
ጩ	-10.2725
▁ተማሃራይ	-10.2726
▁ሃብተኣብ	-10.2727
▁ይካየድ	-10.2728
▁ዲያ	-10.2732
ሰርሑ	-10.2733
▁ባዶ	-10.2734
▁መርትዖ	-10.2735
▁ኮለል	-10.2736
ሐይ	-10.2739
▁ዝግብኦ	-10.274
▁ዘይኰነስ	-10.274
▁ትገብሩ	-10.2745
▁ናይጀርያ	-10.2747
▁ስሩዕ	-10.2749
ያይ	-10.275
ሓይ	-10.2753
▁ልዕል	-10.2763
▁ፍልስፍና	-10.2766
▁ኽን	-10.2769
▁ይዕ	-10.277
▁መጺኦም	-10.2774
▁ጎይትኦም	-10.2778
▁ስዉእ	-10.2778
ላሊ	-10.2779
▁ብምው	-10.278
▁ትሰ	-10.2784
▁ንምሕ	-10.2787
▁ተቐባልነት	-10.2788
ጥፍእ	-10.2788
749	-10.2793
▁ተከ	-10.2798
▁ግዝየ	-10.2799
▁ንሓዋሩ	-10.2804
▁ክፉት	-10.2806
▁ዘጋጥም	-10.2808
ድሕ	-10.2808
ሓዘ	-10.2811
▁ኣሳልጦን	-10.2814
ኩስ	-10.2821
▁ነፍስ	-10.2821
ልስ	-10.2822
▁ስምዒታት	-10.2822
▁ተር	-10.2823
▁ብመን	-10.2828
▁ህይወቱ	-10.283
▁ኣይነት	-10.2832
▁ምርምር	-10.2837
▁ጁ	-10.2839
▁እንደገና	-10.2841
▁ተጻ	-10.2841
▁መዋጽኦ	-10.2842
▁ርዱእ	-10.2861
▁ተሪር	-10.2862
▁ስለዝተሰውአ	-10.2862
▁እናበልኩ	-10.2864
ልዮ	-10.287
ድራ	-10.2872
▁ዓንቀጽ	-10.2872
ውም	-10.2873
▁ተስፋኣለም	-10.2874
▁ጾር	-10.2875
▁ስጳኛ	-10.2881
▁01	-10.2881
▁እንከለና	-10.2883
▁በጊዕ	-10.2884
ኩዋ	-10.2886
▁ደሊኻ	-10.2891
ፈልጡ	-10.2892
የኒ	-10.2895
▁ድር	-10.2901
▁ኣፈ	-10.2902
ቐን	-10.2903
▁ሰሎሞን	-10.2903
▁ምኻድ	-10.2904
ሃን	-10.2908
▁መሸጣ	-10.2909
▁ግዳያት	-10.2909
▁ቀጽሪ	-10.2916
▁ኣቕ	-10.2917
▁ኣገልግሎታት	-10.292
▁ሳም	-10.2927
ፈራ	-10.2929
▁ወላዲተይ	-10.293
ስና	-10.2932
ርኩ	-10.2932
ለብ	-10.2934
▁ርክባት	-10.2935
▁ዋዕሮ	-10.2936
▁ለተ	-10.2938
▁ዳኛ	-10.294
ሕስ	-10.294
▁ኣጋጣሚታት	-10.2941
▁ወል	-10.2942
▁ብምድ	-10.2942
▁እንጌራ	-10.2946
▁ከዳዕ	-10.2948
ወረ	-10.2948
ግዘ	-10.2948
ግደ	-10.2954
ያስ	-10.2958
ምም	-10.2959
▁ብሮ	-10.296
▁ምስተ	-10.296
ትኪ	-10.2964
▁መነ	-10.2975
▁ኣብኣ	-10.2975
ውዕል	-10.2975
▁ከሳሲ	-10.2975
▁ወራሲ	-10.2977
▁ዝነበሮም	-10.2979
▁ዝበሃሉ	-10.2981
▁በይነይ	-10.2981
▁ህዝባ	-10.2982
ግለ	-10.2986
▁አፍ	-10.2988
▁ግፍዒ	-10.2989
▁እኽሊ	-10.2989
ተኛ	-10.299
ኽእል	-10.2991
▁ፈተ	-10.2995
▁ተም	-10.2996
▁ገሊኡ	-10.2996
▁ኤል	-10.2997
ቢሩ	-10.3002
▁ምሕሳብ	-10.3013
▁ብዘሎ	-10.3018
ቀይ	-10.3019
▁ኣረኣእያ	-10.302
ርኤ	-10.3022
ለሰ	-10.3028
▁ሾብዓተ	-10.3031
▁ጥንቃቐ	-10.3031
▁የረድኡ	-10.3031
▁ንፈለማ	-10.3031
ምቲ	-10.3035
ሓል	-10.3037
▁ክክክክክክክክክክ	-10.3041
▁እንድ	-10.3043
ረና	-10.3044
▁ልደት	-10.3048
▁ጫፍ	-10.3048
▁ክትፈልጥ	-10.3049
▁ጾታዊ	-10.3049
▁ኣስቴር	-10.3052
ራኣ	-10.3052
▁ንፍዕ	-10.3053
▁ዓሰርተው	-10.3056
▁ጥረ	-10.3058
▁ዓዶም	-10.306
ሳዕ	-10.3062
▁ምቁጽጻር	-10.3064
▁ትኽ	-10.3073
▁ኣረጋይ	-10.3074
▁ሞይቱ	-10.3076
ከስ	-10.3076
▁ኲ	-10.3079
▁የብል	-10.3081
▁ይከውን	-10.3082
ብለካ	-10.3083
▁ተሃ	-10.3085
▁ናባና	-10.3085
▁ደርፍታትካ	-10.3085
▁ዝሞተ	-10.3089
▁ምጥፋእ	-10.309
▁ክርአ	-10.3091
▁ክትም	-10.3092
ኻዮ	-10.3092
ኾም	-10.3093
▁ስውኣት	-10.3093
▁እወታዊ	-10.3094
▁ግዴታ	-10.3097
ሰነ	-10.3098
▁ብታሚ	-10.3099
▁ወለድ	-10.3101
ርእየ	-10.3104
▁ርግጸኛ	-10.3105
▁ስዕረት	-10.3106
▁መልስ	-10.3111
▁ግጭት	-10.3116
ሓለ	-10.3116
▁2010	-10.312
▁መበገሲ	-10.312
ሳተፍ	-10.3121
▁ስለዝነበረ	-10.3121
በስ	-10.3122
▁ጀምዓ	-10.3127
▁እገዳ	-10.3127
ረኸበ	-10.3128
▁ትራይ	-10.3132
▁ዝገልጹ	-10.3134
ርፍ	-10.3135
▁ነሽ	-10.3137
▁ኣዒንቱ	-10.3138
▁ምጽናሕ	-10.314
ደገ	-10.3141
▁መርኣያ	-10.3155
ቤት	-10.3155
ባሪ	-10.3156
ቐል	-10.3159
▁ኣበሳ	-10.316
▁ቡሉጽ	-10.3161
▁ዘይቲ	-10.3166
ከውን	-10.3166
▁ባዕልና	-10.3167
▁ዘልኣለማዊ	-10.317
▁ፍጡር	-10.317
▁ሞባይል	-10.317
▁ተባ	-10.3172
▁ይመ	-10.3172
▁500	-10.3176
ሞት	-10.318
▁ምድላዋት	-10.3181
▁ባይ	-10.3186
▁መላኺ	-10.3189
▁ክቕ	-10.319
▁ብሓድሽ	-10.3192
▁ዝስዕቡ	-10.3192
▁ሄዋን	-10.3193
ቅን	-10.3194
▁ሓዘንና	-10.3194
▁ጎድኒ	-10.3195
▁ፈንቅል	-10.3203
▁መብዛሕትኦም	-10.3203
▁ኮኮብ	-10.3204
▁ብዕለት	-10.3204
ሕካ	-10.3206
▁ኣውት	-10.3206
▁ኣጀ	-10.3206
22	-10.3209
▁ሓምድ	-10.3211
▁ሳምሶን	-10.3214
▁ስራሓ	-10.3216
▁ኢየን	-10.3218
▁ብፍሉይ	-10.3225
ፍሪ	-10.3231
▁መና	-10.3231
ቅስ	-10.3231
ጽረ	-10.3233
ትሮ	-10.3236
▁ክርክር	-10.3236
ሞን	-10.3237
▁ኣፍደገ	-10.3238
▁ኤልሳ	-10.3239
▁ንዚ	-10.3239
▁ሸር	-10.324
▁ነጋሲ	-10.3241
ውሕ	-10.3244
▁ጽንብል	-10.3244
▁ተገይሩ	-10.3247
▁ካራ	-10.3248
▁በየነ	-10.325
▁ምጽሓፍ	-10.3251
▁ከብቲ	-10.3253
በሃል	-10.3253
▁ሊጋ	-10.3253
▁ሰነት	-10.3254
መቱ	-10.3254
▁ፈሪ	-10.3256
▁መምርሒ	-10.3257
▁ኣረጋጊጾም	-10.3257
▁ይቅሬታ	-10.3257
▁ይርከቡ	-10.3258
▁ድኻም	-10.3262
▁ዝኸኣለ	-10.3267
▁ንቕድሚት	-10.3268
▁ምካኑ	-10.3269
ንጎ	-10.3273
ማዊ	-10.3275
▁ኣይኮናን	-10.3279
▁ሰነዳት	-10.3281
▁አንበር	-10.3281
▁ጾም	-10.3282
▁ጌራ	-10.3283
▁ሬ	-10.3285
ፍታ	-10.3286
▁ንኽልተ	-10.329
▁ብቐዳምነት	-10.3291
▁ክትሓ	-10.3294
▁ግዘ	-10.3297
▁ትነብር	-10.3299
▁2220	-10.3303
▁ብረ	-10.3309
▁ሃደ	-10.331
▁መፍትሒ	-10.3312
▁ውሕጅ	-10.3313
ክሩ	-10.3314
▁ኢዳ	-10.3315
▁ዋላስ	-10.3317
▁እቶት	-10.3321
▁መዋእል	-10.3323
▁ረቢ	-10.3328
▁ዓንዲ	-10.3334
ልየ	-10.3337
ሓስብ	-10.3338
▁ካባና	-10.3339
ፈቱ	-10.334
▁ክብረተይ	-10.3343
▁አለዎ	-10.3344
ረገ	-10.3347
▁ምድብ	-10.3347
ላስ	-10.3356
▁ሃማመተኤ	-10.3356
▁ፈት	-10.3358
ጠም	-10.3363
▁ዝርዝር	-10.3365
ታውያን	-10.3365
▁ዘድ	-10.3366
▁እንተዀይኑ	-10.3367
▁የማ	-10.3367
እኩም	-10.3371
▁ዝተፈጸመ	-10.3372
▁እንታ	-10.3372
▁ሓለዋ	-10.3378
▁ኤልያስ	-10.3378
▁ማዓ	-10.3379
▁ቊጽሪ	-10.3389
▁ከምዝነበረ	-10.3389
▁ነይ	-10.3392
ክረ	-10.3399
▁ስፍሓት	-10.34
▁ካርመል	-10.3401
▁ቐጽሎ	-10.3401
ኮር	-10.3402
▁ደምበ	-10.3407
▁ክትነብር	-10.3409
▁ዛይድ	-10.3411
▁ክጽ	-10.3415
ታተን	-10.3419
ራስ	-10.3421
▁ምምላስ	-10.3424
▁ብማ	-10.3425
▁ተና	-10.3431
▁መረ	-10.3432
የር	-10.3432
▁ሞተ	-10.3433
ቕር	-10.3433
▁ርብዒ	-10.3434
ለኒ	-10.3438
▁ጠለብ	-10.344
▁ዝወጻ	-10.344
▁ልምዓታዊ	-10.3444
▁ኣይትኽእልን	-10.3444
▁ደሞ	-10.3447
▁ቀፅልሉ	-10.3449
▁ውርሻ	-10.3453
▁ፈውሲ	-10.3455
▁ኣዘራርባ	-10.3456
▁ኣድያም	-10.3457
▁ከብደይ	-10.3457
▁ድኽነት	-10.3458
▁ኣፍካ	-10.3459
▁ኣዲኡ	-10.3465
▁ምምጻእ	-10.3466
▁ኴንካ	-10.3467
▁ጉድለት	-10.3471
▁ባየር	-10.3471
ያም	-10.3474
▁ስታድዩም	-10.3478
▁ኣዛዚ	-10.3479
▁እታይ	-10.348
▁ቅብኣ	-10.3483
ለመ	-10.3485
▁ዓመጽ	-10.3491
▁ድም	-10.3493
▁ደስታ	-10.3495
▁ተጎ	-10.3495
ጠቐ	-10.3496
ብብ	-10.3503
ራብ	-10.3514
▁ዓብደላ	-10.3515
▁ሽደን	-10.3521
▁ዓን	-10.3521
ለኩም	-10.3524
▁ኣጆ	-10.3533
▁ናብራና	-10.3535
▁ቀጺለ	-10.3538
▁ካም	-10.3541
▁ነይርዎ	-10.3548
ዓረ	-10.3551
ጸሉ	-10.3553
▁ቃንቃ	-10.3558
▁መሰሉ	-10.3565
▁ፍሽኽታ	-10.3567
▁ህይወተይ	-10.3567
▁ጸኒሖም	-10.3568
▁ባዕሎም	-10.357
▁ኣእ	-10.3573
▁ኣርቲስት	-10.3575
▁ጡ	-10.3578
▁ዝተወ	-10.3583
▁ጭንቀት	-10.3584
▁ትኸይድ	-10.3597
▁ዘዕ	-10.3598
ኣዊ	-10.3601
▁ዝሃብዎ	-10.3603
▁ድምፅ	-10.3604
▁ጋሕባ	-10.3606
▁መርዓት	-10.3606
▁ኣሎኒ	-10.3606
▁ኣቅ	-10.3611
▁ኣከፋፋሊ	-10.3612
▁ጴጥሮስ	-10.3612
▁ወከልቲ	-10.3612
▁የሎን	-10.3615
▁ህሞት	-10.3615
▁ንበር	-10.3615
ሙኒ	-10.3615
ጣን	-10.3616
ይይይይ	-10.3626
▁ንህ	-10.3629
▁መምህራን	-10.3633
▁ውሉድ	-10.3635
ሃይ	-10.3638
▁ዝሐ	-10.364
▁መንግስቱ	-10.3643
ድሮ	-10.3645
▁ጥፍኣት	-10.3647
ብሊ	-10.3649
▁ራኢ	-10.3656
▁ርእየ	-10.3656
▁ክታበት	-10.367
▁ሓቢራ	-10.3671
▁ኣበሃህላ	-10.3673
▁ኩል	-10.3675
▁ይኽ	-10.3679
ቨር	-10.368
15	-10.3683
▁ኣንበብቲ	-10.3684
▁ስልጠናታት	-10.3684
▁ፋብሪካ	-10.369
▁ንብዙሓት	-10.3692
▁ምቕራብ	-10.3693
▁ዓቕሊ	-10.3695
▁ሰናይት	-10.3698
ለዉ	-10.37
▁ዝፍጠር	-10.3705
▁ምላሽ	-10.3706
ሳዊ	-10.3706
▁መጺኣ	-10.3711
ክራ	-10.3711
▁ሰማእታትና	-10.3712
▁ቤተልሄም	-10.3726
▁ሂወቱ	-10.3726
▁ይላል	-10.373
▁ጺ	-10.3732
▁ቆጽሎ	-10.3738
▁ኩር	-10.3741
ድስ	-10.3741
▁ደሞዝ	-10.3746
▁ምስላ	-10.3749
▁ዝርርብ	-10.3749
ርበ	-10.375
▁መሳርሒታት	-10.3751
▁ሳዕሪ	-10.3752
▁ሃልዩ	-10.3753
▁በይኑ	-10.3755
▁ውሑስ	-10.3761
▁እንጀራ	-10.3762
▁ኣዳ	-10.3766
▁ዝወጽእ	-10.377
ሄር	-10.377
ሕረ	-10.3773
እት	-10.3776
▁ካን	-10.3779
▁ዝደልዩ	-10.3779
▁መሓዛ	-10.3781
▁ዩኒቨርሲቲ	-10.3783
ብሪ	-10.3786
▁ሐወይ	-10.3787
▁ኢንተ	-10.3788
ድረ	-10.3791
ቕል	-10.3793
▁ቢንያም	-10.3795
▁ተውህቦ	-10.3795
▁ሺኮር	-10.3796
ነስ	-10.3798
▁እቱ	-10.38
ይዋ	-10.38
▁ይብሃል	-10.3801
▁መደ	-10.3803
▁ደድሕሪ	-10.3804
ኩላ	-10.3806
▁አይኮነን	-10.3807
▁ኣዱሊስ	-10.3807
▁ክላእ	-10.3808
▁ዝተኸ	-10.3808
▁ምውሳድ	-10.3811
▁ጉጅለታት	-10.3813
▁ወግዓዊ	-10.3818
▁ውህደት	-10.3819
▁ተስፋሚካኤል	-10.382
ታቱን	-10.3822
▁ዕግበት	-10.383
▁አሎኹ	-10.383
ዝጊ	-10.3832
ባን	-10.3833
ተርፍ	-10.3837
ርኩም	-10.3837
ፋር	-10.3838
▁ዝና	-10.3842
▁በዚሑ	-10.3844
▁ዝተመ	-10.3847
▁እንተዘይቀሪቡ	-10.3853
▁ምሁራት	-10.3853
▁ክሳድ	-10.3855
▁ውዳበ	-10.3856
▁ጓ	-10.3863
▁ንኺድ	-10.3865
▁ኰይነ	-10.3867
▁ምሕላፍ	-10.3868
▁ገብረመስቀል	-10.3876
▁ዝዓለመ	-10.3877
▁ድምጻ	-10.3877
ብርሃን	-10.3882
▁ዝገበሩ	-10.3887
▁ክወ	-10.3891
▁ሓዋ	-10.3892
ድህ	-10.3893
▁መሊኡ	-10.3899
ዘዝ	-10.3899
▁እንትርፎ	-10.39
▁ብጽቡቕ	-10.3902
ረባ	-10.3905
▁ኣነጺሩ	-10.3905
▁ወልዱ	-10.3905
ህር	-10.3907
▁ኣትለቲኮ	-10.3911
▁ብመንጽር	-10.3911
▁ንኢ	-10.3912
▁ብላዕ	-10.3916
▁ብስነ	-10.3919
▁ኣትያ	-10.3922
▁ካናሪ	-10.3923
ክሉ	-10.3925
▁መረብ	-10.3926
▁ኣገላልጻ	-10.3934
▁ኣፎም	-10.3937
▁ኮታ	-10.3942
▁ንዑ	-10.3943
▁ጻውዒት	-10.3946
ነበረ	-10.3946
▁ንበይኑ	-10.3946
▁ሓላላት	-10.3946
ደድ	-10.3948
ረበ	-10.395
▁ይርአ	-10.3954
መላለስ	-10.3955
▁ኣዕሩኽ	-10.3958
ወዲ	-10.3958
▁ትግሪኛ	-10.3958
▁እንኳን	-10.3959
▁ፖሊሲ	-10.3962
▁ደሎ	-10.3962
▁የላን	-10.3963
▁በት	-10.3963
▁መደረ	-10.3964
▁ምስል	-10.3965
▁ደቒ	-10.3966
ረድ	-10.3966
▁ደርቢ	-10.3967
▁ዕን	-10.3968
▁ዘሎና	-10.3969
▁ተቃ	-10.3974
ረፍ	-10.3975
ፈና	-10.3981
ባራ	-10.3981
ንዳ	-10.3983
▁ሳይ	-10.3983
▁ስኢነ	-10.3985
▁ይሕበር	-10.3986
▁ዐለ	-10.3989
▁ሓመድን	-10.3991
▁2009	-10.3993
▁ብው	-10.3994
▁ጻማ	-10.3997
▁ትዝ	-10.3998
▁ህዝብካ	-10.3998
ፈላለ	-10.4001
እቱ	-10.4006
▁ሃናጺ	-10.4007
▁ኻ	-10.4007
▁ቅሳነትን	-10.4007
ሕር	-10.4008
▁ሓዲሽ	-10.4009
ደላ	-10.4011
▁ክጻወት	-10.4016
▁ንኣስታት	-10.4017
▁ክወስድ	-10.4024
▁ድቂ	-10.4025
▁መተካእታ	-10.4028
ፋሕ	-10.4029
▁ጽምብል	-10.4035
▁ዝቐርብ	-10.4039
▁ኣመንቲ	-10.4039
▁ክለ	-10.4039
▁ዝሞቱ	-10.4047
▁ትመጽእ	-10.4049
▁ብምሕ	-10.4049
▁አኮ	-10.4049
▁ብክ	-10.405
▁ዝውዕል	-10.4052
▁እንድያ	-10.4053
▁ኣዝ	-10.4062
▁መደምደምታ	-10.4063
ላው	-10.4066
▁ይእ	-10.4066
▁ዝሕብር	-10.4068
▁ሓቢ	-10.4071
▁ፍሊ	-10.4072
▁ለባማት	-10.4076
▁ከርተት	-10.4076
▁ኤለክትሪክ	-10.4077
▁ሰባ	-10.408
ኸውን	-10.4081
▁ምርዳእ	-10.4082
▁ኢንተርነት	-10.4082
▁ዓሳታት	-10.4083
ረረ	-10.4087
▁ሸዊት	-10.4093
ስማዕ	-10.4094
ካዊ	-10.4094
▁ድሕረ	-10.4096
▁ስደትና	-10.4098
▁ኣይከኣልኩን	-10.4099
ኣስ	-10.4103
ራዕ	-10.4104
▁ይገርም	-10.4105
ጎድ	-10.4105
በብ	-10.4108
▁ኢንተር	-10.4109
▁ቅድሚት	-10.411
▁ሃይ	-10.4113
▁ኮር	-10.4113
ኮስ	-10.4114
▁ቊ	-10.4114
ፈልጠ	-10.4117
▁ዝክሪ	-10.4117
▁ዝረኣየ	-10.4121
▁ኣገ	-10.4125
▁ቤተክርስትያን	-10.4126
ጠር	-10.4127
▁ኣሽ	-10.4131
▁ለካ	-10.4131
ጥዕ	-10.4132
ዕን	-10.4133
▁ልቦም	-10.4139
▁ድኹም	-10.4145
▁አበይ	-10.4146
ዛረበ	-10.4146
▁ኣልማዝ	-10.4147
▁ምስዚ	-10.4155
▁ዲጋ	-10.4159
▁ጫ	-10.4162
▁ኩኑ	-10.4163
▁ሱቕ	-10.4167
▁ክራይ	-10.417
▁መብጽዓ	-10.4171
ኣምን	-10.4175
▁ዘሰ	-10.4176
ራል	-10.4179
▁ዝጸንሓ	-10.4184
▁ብጫ	-10.4185
▁ንስራሕ	-10.4189
▁ኢረይ	-10.4189
ህቦ	-10.4191
▁ጠጠው	-10.4195
▁ድርሰት	-10.4195
▁ሬድዮ	-10.4198
▁ምሳኺ	-10.4199
▁ብጽ	-10.42
ዛይ	-10.4201
ሃበ	-10.4203
▁ምሰ	-10.4204
▁ተኽለማርያም	-10.4207
▁ክክ	-10.4215
መነ	-10.4217
▁ኣስማት	-10.4217
▁ብማዕረ	-10.4219
ፍትን	-10.4219
▁ዘስመዖ	-10.4234
▁በየን	-10.4238
▁ሰሚዕካ	-10.4238
▁መንደፍ	-10.4239
▁ዝህሉ	-10.4239
▁ዝዓቢ	-10.4241
▁ዓቅሚ	-10.4245
▁55	-10.4246
▁ይጽ	-10.4246
በጽሕ	-10.4248
ሕል	-10.425
▁ትርኢት	-10.425
ጥረ	-10.4252
▁እድ	-10.4253
ንተ	-10.4253
▁ብዓወት	-10.4256
ሎምን	-10.4258
▁ለሚ	-10.4263
▁ወንጌል	-10.4267
▁ጢ	-10.4269
▁ሃሪ	-10.4271
▁ተቓ	-10.4272
▁ውዲ	-10.4274
▁ጠመተ	-10.4274
ፍልጥ	-10.4275
▁ግድ	-10.4275
▁ንዓኩም	-10.4278
▁ብተስፋ	-10.4279
▁በዞም	-10.4279
▁ኣዕዋፍ	-10.428
▁ቢቢሲ	-10.4281
▁ዋዛ	-10.4282
▁ብትግርኛ	-10.4283
ሰምዑ	-10.4286
ሰማማዕ	-10.4293
▁ትዝታ	-10.4298
▁ነበራ	-10.4301
ኑን	-10.4301
ፍሩ	-10.4302
▁ቅልውላው	-10.4303
▁አርትራ	-10.4307
ረኸብ	-10.4309
ራጽ	-10.4314
▁ባርሳ	-10.4318
25	-10.432
▁ንግ	-10.4322
▁በለቶ	-10.4323
▁ፕሮ	-10.4324
ድዮ	-10.4326
▁ኣምጺ	-10.4326
▁ብወገኖም	-10.4327
▁ቫይረስ	-10.4327
ተመ	-10.4328
▁ህሉው	-10.4328
ርእዩ	-10.4328
▁አይተ	-10.4329
▁ክብደት	-10.433
▁ኣቃ	-10.4334
ደግ	-10.4335
▁ዝወሰደ	-10.4335
▁ኢድኩም	-10.4336
▁ከል	-10.4337
▁ዓም	-10.4345
▁ደርፍካ	-10.4348
▁ጀመሩ	-10.4349
▁ቨንገር	-10.4351
ስብ	-10.4351
▁ባርነት	-10.4354
ጥፍኣ	-10.4355
ፍራ	-10.4356
▁ስዋ	-10.4358
▁ሰን	-10.4361
▁አለው	-10.4362
▁ገብረስላሴ	-10.4364
▁ምድላው	-10.4364
መካ	-10.4365
▁ታሕቲ	-10.4369
▁ኣብራር	-10.4371
ኽዎ	-10.4371
ብቲ	-10.4375
▁ዘተኰረ	-10.4376
▁ቆርበት	-10.4377
▁ዝጠ	-10.4379
▁ከድ	-10.438
▁ወጋሕታ	-10.4388
▁ናፍቆት	-10.4388
▁ዞባዊ	-10.4388
▁ሕክምናዊ	-10.4389
ድኣ	-10.439
ጉር	-10.4391
▁ኣስላም	-10.4392
ጻጽ	-10.4394
▁ርእስና	-10.4398
▁በላይ	-10.4399
▁ምርካብ	-10.4401
▁ናውቲ	-10.4404
▁ንሃ	-10.4405
ሃም	-10.4406
ወታ	-10.4409
▁ኣውቶቡስ	-10.4412
▁ከይን	-10.4414
▁ሲኦል	-10.4414
በልካ	-10.4416
▁ሸለል	-10.4416
▁እዋኑ	-10.4417
▁ህይወትና	-10.442
ታውን	-10.4422
▁ነብስና	-10.4429
ምሩ	-10.4429
▁ዓደ	-10.4431
▁ክትከ	-10.4436
መተ	-10.4439
▁ደለ	-10.4441
▁ኣመሪካን	-10.4443
▁ኬንያ	-10.4443
▁መሪሕ	-10.4448
▁ብምትሕብባር	-10.4449
ልቅ	-10.4457
ጋይ	-10.4457
▁ሰበይቱ	-10.4458
▁ሄር	-10.4458
ድድ	-10.446
▁ሙቐት	-10.4464
▁ዝዀነት	-10.4465
ሳሕ	-10.4472
ሓዙ	-10.4473
▁ኣይግባእን	-10.4474
▁ቴማ	-10.4477
▁ገሩ	-10.4477
▁ኢትዮጵያውያን	-10.4478
▁ዘመድ	-10.4481
▁ክገብሮ	-10.4485
ዛን	-10.4485
▁ብቴሌፎን	-10.4486
▁ምቹእ	-10.4486
▁አስክ	-10.4488
▁ኣቡነ	-10.4488
ብዕ	-10.4489
▁ተኾ	-10.4495
▁ሃኒ	-10.4496
ከላ	-10.4503
ርጉ	-10.4505
ነብ	-10.4506
▁ተካ	-10.4508
▁ትሽዓተ	-10.4511
▁ጸዊዑ	-10.4512
▁ብወ	-10.4514
▁ኣብዘይ	-10.4515
▁ካናዳ	-10.4516
ምጽእ	-10.4517
▁ክገልጽ	-10.4518
ባላ	-10.4518
▁ዝሓበረ	-10.4519
▁ካልኢት	-10.452
▁ንምም	-10.4522
▁ሽወደን	-10.4523
▁ኣስተዋጽኦ	-10.4523
12	-10.4525
▁ጎሓፍ	-10.4526
▁ዝተሰርሐ	-10.4526
▁ብከመይ	-10.4528
▁ዩሮ	-10.4535
▁ድባርዋ	-10.4536
▁ቅዱሳን	-10.4536
▁ምቁራት	-10.4536
▁ክጸንሕ	-10.4539
▁ስተ	-10.4543
▁ከቶ	-10.4545
▁ሲቪላዊ	-10.4548
▁ተዛዚሙ	-10.4548
▁ገዛይ	-10.4554
ድዩ	-10.4557
▁ኣይትሕመቅ	-10.4562
ጸረ	-10.4562
መስል	-10.4563
▁ደሴታት	-10.4563
▁ነቢ	-10.4566
▁ክብረ	-10.4566
▁ዘይብል	-10.4566
ጎስ	-10.4569
▁ሓርበኛታት	-10.4572
▁ገብረማርያም	-10.4573
▁መልካም	-10.4574
ታትካ	-10.4574
▁ኪኖ	-10.4576
▁ኸምዚ	-10.4577
▁በለስ	-10.4581
▁ማይተመናይ	-10.4585
▁ሓያላት	-10.4585
▁እዚኣስ	-10.4594
በሎም	-10.4602
▁ወግዒ	-10.4605
▁አንቃዕ	-10.4605
▁ዌል	-10.4607
▁ዳማ	-10.461
▁ኣተሓሕዛ	-10.461
▁ኣዳራሽ	-10.461
▁ባጀት	-10.461
▁ስዩም	-10.4616
▁ጽቡክ	-10.4617
▁ዓብዱ	-10.4617
▁ተበጊሱ	-10.4623
▁ዝዘ	-10.4626
▁ኣትለቲክስ	-10.4627
ፍቅ	-10.4632
ርዎ	-10.4634
▁ክጥዕም	-10.4635
▁ትርጉሙ	-10.4635
▁ዮርዳኖስ	-10.4635
11	-10.4641
▁መራሕ	-10.4645
▁ጳውሎስ	-10.4648
▁ዕስራ	-10.465
▁ዲኪ	-10.4651
▁ዝፋን	-10.4653
ደፍ	-10.4655
▁ዛኪ	-10.4655
በልና	-10.4655
ሰራ	-10.4657
▁ዝስተ	-10.4659
▁ሓጥያት	-10.466
▁ንደሓር	-10.4661
ቡሉ	-10.4663
▁አዝ	-10.4667
በና	-10.4668
ስምዕ	-10.4672
▁ጉባኤ	-10.4673
▁ከምዘይኮነ	-10.4676
▁ኦን	-10.4677
▁ተቖ	-10.4678
ገስ	-10.4678
ልኣ	-10.4678
▁እንተነበረ	-10.4682
▁ማያት	-10.4683
▁ካይ	-10.4684
▁ዕለተ	-10.4686
▁ሕርሻዊ	-10.4688
▁ጥይት	-10.469
▁ቺ	-10.4695
▁ኤረትርየ	-10.4698
ጠፍእ	-10.4702
ነሉ	-10.4703
▁ደርፉ	-10.4703
14	-10.4704
▁ደልዩ	-10.4704
▁ትበሃል	-10.471
▁ብኽልተ	-10.4711
▁ሸነኽ	-10.4713
▁ሀለ	-10.4717
ኣላ	-10.4717
ሃለ	-10.4718
ልክን	-10.472
ሆን	-10.4723
▁ምዕባይ	-10.4724
▁እብል	-10.4726
▁እንዳተ	-10.4726
▁በረድ	-10.4727
▁ቶሚ	-10.4728
▁መስርዕ	-10.4728
▁ረኣየ	-10.4728
▁ሓሲ	-10.473
ኩል	-10.4732
▁ጥዕናዊ	-10.4733
▁ዝረ	-10.4736
▁ትኹን	-10.4738
ባዊ	-10.474
▁ሓራጅ	-10.4741
▁እንዲ	-10.475
ርእይዎ	-10.4756
ታም	-10.4757
▁ክኸ	-10.4758
▁ኣስገዶም	-10.4761
▁ብስራሕ	-10.4764
▁ይብለካ	-10.4766
▁ኣቦኻ	-10.4772
▁ብቁጽሪ	-10.4774
ኣለ	-10.4776
▁ንምዕ	-10.4781
▁ደጊመ	-10.4781
ጠቅ	-10.4783
▁ከይዳ	-10.4785
ዋሕ	-10.4785
ረኒ	-10.4786
▁ቴሌፎን	-10.4787
▁ልኡኽ	-10.4787
መውት	-10.479
▁ድርብ	-10.4796
▁ዝረኸበ	-10.4796
ኹን	-10.4798
ስምዓ	-10.4798
▁ይህብ	-10.4802
▁ቅላዕ	-10.4803
▁መርሃዊት	-10.4806
▁ሕግታት	-10.4809
ሓይሽ	-10.481
▁ይቀ	-10.4812
م	-10.4816
▁ኸአ	-10.482
▁ዳስ	-10.4821
▁በጃኺ	-10.4823
▁ጋዝ	-10.4826
▁መጺ	-10.4826
▁እሱ	-10.4832
▁ኣኺሉ	-10.4839
ብሕ	-10.4844
ብስ	-10.4846
ጉድ	-10.4849
▁ዓይነ	-10.485
▁ንምፍላጥ	-10.4851
▁ኣትለታት	-10.4851
▁እጃም	-10.4851
▁ተስፋልደት	-10.4851
▁ቅቡል	-10.4852
▁ስን	-10.4854
ራኸብ	-10.4856
▁በጺሕና	-10.4856
ጻወት	-10.4857
▁ብዙ	-10.4859
▁ዝብኢ	-10.4862
▁ወኪሉ	-10.4866
▁ምኽንያታት	-10.4866
▁ብገንዘብ	-10.4867
▁ደረጃታት	-10.4868
▁እስካ	-10.4872
▁እስጳኛ	-10.4878
▁ላም	-10.4882
ነገር	-10.4884
▁ብቕ	-10.4887
▁ማህሰይቲ	-10.4889
▁ትራፊክ	-10.4889
▁እንከለኻ	-10.4889
▁ተላብዩ	-10.4889
▁ኣኽላባት	-10.489
▁ኣደኡ	-10.4893
▁ራእይ	-10.4893
▁መግብን	-10.4894
▁ሚላን	-10.4897
▁ሓሳዊት	-10.4897
▁ወናኒ	-10.4898
▁ክንከውን	-10.49
▁ኣብተን	-10.4904
ብዎ	-10.4906
▁ቸ	-10.4908
▁ተኸስተ	-10.4911
▁ከጽሎ	-10.4911
▁ተወዳደርቲ	-10.4915
▁ፐ	-10.4916
▁ሓር	-10.4921
▁ትኹል	-10.4922
▁ዝብለኒ	-10.4926
▁ዝገብርዎ	-10.4927
▁ፊሊ	-10.4927
▁ምምሕያሽ	-10.4928
▁ተቐማጦ	-10.4928
▁ኤምባሲ	-10.4928
▁ቫን	-10.4929
ረኽቦ	-10.4931
ኾን	-10.4932
▁ሰሓቕ	-10.4938
▁ግራ	-10.4939
▁ያሆ	-10.4939
▁እናበልካ	-10.494
▁ሃይማኖታዊ	-10.494
▁ኣፍሊጣ	-10.4941
▁ብልጫ	-10.4949
▁ሪፓብሊክ	-10.4953
▁ይብለኒ	-10.4954
▁ንህዝብና	-10.4957
▁ለይትን	-10.4958
ሆም	-10.496
ረክበ	-10.4962
▁ዝት	-10.4963
▁ወልፊ	-10.4964
▁ሓዉና	-10.4966
ዓም	-10.4966
ርየ	-10.4967
▁ንሃገር	-10.4969
▁ስምኦን	-10.497
▁ጥር	-10.4972
መራ	-10.4974
ቢት	-10.4974
ጸላ	-10.4974
▁የአ	-10.4977
▁ንጽባሒቱ	-10.4979
▁ብዕቱብ	-10.498
▁ጠላም	-10.498
▁ጥሪት	-10.4989
▁ኵ	-10.499
▁ብጸ	-10.4991
▁ደያኑ	-10.4992
ኸይድ	-10.4993
▁ሙቁራት	-10.4993
▁ክምሰል	-10.4994
▁ኣትለት	-10.4996
ካሉ	-10.4998
▁ልሳን	-10.4999
በጥ	-10.5001
▁አተ	-10.5005
▁ዝሓስብ	-10.5005
▁መንደቕ	-10.5008
▁ዝበል	-10.5014
▁ድስ	-10.5015
ገሩ	-10.5017
▁ምትእስሳር	-10.5018
▁ነገስታት	-10.5018
▁ጓይላ	-10.5018
▁ሁሉ	-10.5021
▁ረአ	-10.5023
▁ዝነበርካ	-10.5026
▁ኣስዒቡ	-10.5031
ፈይ	-10.5032
▁ፈቃር	-10.5033
▁ንመላእ	-10.5041
▁ዘጽ	-10.5041
▁ንዅሉ	-10.5045
▁ሞያውያን	-10.5048
▁ምብጻሕ	-10.5049
ሪክ	-10.505
▁02	-10.5052
▁ቻው	-10.5054
▁ኢስ	-10.5055
▁ካብኣቶም	-10.5055
ድዎ	-10.506
ሪኢ	-10.506
▁ሃለቃ	-10.5061
ዕቲ	-10.5065
17	-10.5065
▁ናዓይ	-10.5066
▁ተኻይዱ	-10.507
▁ብምቅጻል	-10.5071
▁ብታዕሚ	-10.5071
▁ምሓሸ	-10.5071
▁ደቂቅ	-10.5077
▁ስር	-10.508
▁መኣስ	-10.5082
ዛረቡ	-10.5083
▁ብእምነት	-10.5084
2217	-10.5086
ዐን	-10.5087
▁ዝወረደ	-10.509
መላ	-10.509
▁ትር	-10.509
ብየ	-10.5091
ንበር	-10.5095
▁ሓልዮት	-10.5097
▁ሃብተማርያም	-10.5097
▁መቀረት	-10.5097
▁ይብ	-10.5099
ፋፍ	-10.5102
▁ዝንቀሳቐስ	-10.5104
▁ወላዲት	-10.5104
ርሳ	-10.5106
▁ክዝ	-10.5108
ረፈ	-10.5108
▁ሓቅኻ	-10.5109
▁ቴድሮስ	-10.511
▁ወነንቲ	-10.511
▁ፍር	-10.5115
▁ነውሪ	-10.5116
▁ይኾኑ	-10.5116
▁ጀመረት	-10.5117
መልስ	-10.512
▁መንሽሮ	-10.5123
▁ኩርናዕ	-10.5123
▁ቀጻልነት	-10.5125
▁ኢልዎ	-10.5127
▁ይገብሩ	-10.5127
▁ዘንጊ	-10.5133
▁ፓብሊክ	-10.5136
▁ህይወቶም	-10.5136
▁ረድኤት	-10.5136
ل	-10.5138
ፈላ	-10.5139
ወልድ	-10.5139
ጥፍኡ	-10.514
▁ብሃቂ	-10.514
ሓብ	-10.5146
▁ዚኣ	-10.5151
ልው	-10.5152
▁ኢየሱስ	-10.5153
ዓን	-10.5158
▁ክፋላት	-10.5159
ርኽ	-10.516
▁መሓ	-10.5161
▁ንሰላም	-10.5162
▁ዝወስድ	-10.5165
በበ	-10.5168
▁ዝኸዱ	-10.5175
▁ክፍለጥ	-10.5175
▁እንተኣ	-10.5177
▁ሄኖክ	-10.5178
▁ጎደናታት	-10.5179
▁እበ	-10.5181
ርሃ	-10.5181
ገብረ	-10.5188
▁ንመጀመርታ	-10.5189
▁ሰሚናር	-10.5189
▁እምብዛ	-10.5189
▁ኣውስትራልያ	-10.5193
▁ገርኩም	-10.5193
አይ	-10.5198
▁ንክት	-10.5199
ነጽ	-10.5203
▁ምፍታን	-10.5204
▁ይዓ	-10.5206
በልዕ	-10.5207
▁ኣሚነ	-10.5209
▁ኢሱ	-10.521
▁ጨና	-10.521
ርሑ	-10.5211
▁ነን	-10.5212
ናውያን	-10.5213
ንብብ	-10.5215
▁ያእቆብ	-10.5215
▁ጕ	-10.5217
▁ሓቢርና	-10.5218
▁ዝሃበ	-10.5225
▁ዘውዲ	-10.5226
ድቅስ	-10.5227
▁ኣይመ	-10.5233
ሕሪ	-10.5235
▁ዕረ	-10.5243
▁ትስ	-10.5244
ሕዝ	-10.5244
▁ሓጺን	-10.5246
ሎን	-10.5247
ዕድ	-10.5249
ልይ	-10.525
▁ዝተራእየ	-10.525
▁ብሰሪ	-10.525
ልዑ	-10.5253
▁ክቐርብ	-10.5258
16	-10.5259
እለ	-10.5261
▁ዛዕባ	-10.5263
▁ከምዚኦም	-10.5265
ي	-10.5267
▁ሻንጋባይ	-10.5269
▁ብሕልፊ	-10.5269
▁ሕሳብ	-10.5272
▁አለካ	-10.5278
ኣቶም	-10.528
▁ተመክሮ	-10.5283
▁ምጽንሑ	-10.5283
▁እሙን	-10.5288
ቕካ	-10.5293
▁ዲክታቶር	-10.5298
▁እሱራት	-10.5298
▁ኖህ	-10.5301
መል	-10.5305
▁ኣቐዲሞም	-10.5309
▁ኣዒንታ	-10.5309
▁ያሬድ	-10.5309
▁ወልደሚካኤል	-10.5309
▁በትሪ	-10.531
ትኡ	-10.5312
▁ንስኻስ	-10.5312
▁05	-10.5313
▁ሽታ	-10.5313
ገለ	-10.5315
▁ሃላይ	-10.5319
▁ጽላል	-10.5321
▁ዋሕዲ	-10.5322
▁ሃበ	-10.5323
▁ናትናኤል	-10.5326
▁ተሳታፍነት	-10.5336
ሰም	-10.5338
▁ዘል	-10.5341
▁ይብላ	-10.5342
و	-10.5343
▁ኣድኒቀካ	-10.5344
የም	-10.5346
ርማ	-10.5348
▁ተፈጢሩ	-10.5349
▁ዝዓርከይ	-10.5349
▁ደበና	-10.5349
▁ተዓወት	-10.5351
▁ሰራቂ	-10.5352
ጋን	-10.5354
▁ሓረስታይ	-10.5362
▁ምጥቃም	-10.5363
▁መኮነን	-10.5363
▁ፈረስ	-10.5366
ወጸ	-10.5367
ምዕ	-10.5367
▁መተ	-10.537
ሪያ	-10.5372
▁ወላስ	-10.5375
▁ሄክታር	-10.5376
▁ክርስቲያን	-10.5376
▁ንምዕባይ	-10.5377
ዓቢ	-10.5377
▁ይነ	-10.5383
▁ሃሊ	-10.5389
▁ክሽ	-10.539
▁ፈተውትን	-10.5392
ነተይ	-10.5395
▁መልኣኽ	-10.5397
▁ንህቢ	-10.5403
ሀር	-10.5405
▁ኣህ	-10.5406
▁ፍናን	-10.541
▁ካሕሳ	-10.5413
▁ትብለኒ	-10.5413
▁ዝጸንሐት	-10.5416
▁መብራህቲ	-10.5416
▁ኮሎኔል	-10.5417
▁መቕደስ	-10.5417
ልከ	-10.5418
▁ጸጋም	-10.542
ትለይ	-10.5424
▁ብጻይ	-10.5428
▁ስኒ	-10.5429
▁ኣይኰንኩን	-10.543
▁ከይዶም	-10.5434
▁ቁም	-10.5436
▁መድ	-10.5437
▁ፈትን	-10.544
▁ፕ	-10.544
▁ክውንነት	-10.5441
ዕብ	-10.5441
▁ግደፎ	-10.5442
ባህ	-10.5442
▁ትካቦ	-10.5445
▁ዲግሪ	-10.5445
ረው	-10.5447
ጤ	-10.5448
ዕሉ	-10.5451
▁መልሓስ	-10.5453
▁መማህራን	-10.5453
▁ጽብቕ	-10.5457
▁ንኻልእ	-10.5457
▁ሱር	-10.5459
▁ስርሓ	-10.5464
▁ኣሪ	-10.5466
▁ንሽ	-10.5469
▁እያሱ	-10.5469
▁ኣጥቃዓይ	-10.5471
▁ኪሎሜተር	-10.5471
▁ገመድ	-10.5474
▁ኢርትራ	-10.5475
▁እናሰ	-10.5477
▁ዘኽእል	-10.5479
ቮ	-10.5479
ግሮ	-10.5483
▁ቱሪዝም	-10.5484
▁መርገጺ	-10.5485
▁ዕዙዝ	-10.5485
▁ልቓሕ	-10.5486
ላችሁ	-10.5494
▁ደረ	-10.5497
▁ገስጋስ	-10.5498
▁ኣድላዪ	-10.5498
▁ኢትዮጵያዊ	-10.5504
▁ኣይኪ	-10.5508
▁ንከ	-10.551
▁ክፍሊት	-10.551
▁ተመዝጊቡ	-10.5512
▁ጓለንስተይቲ	-10.5512
▁ተቓወምቲ	-10.5515
ዕቢ	-10.5519
▁ምድር	-10.5527
▁ነገረ	-10.5527
▁ኮይንኩም	-10.553
▁ሃሎ	-10.553
ማሃር	-10.5534
▁ዘይከውን	-10.5535
▁ከባቢኦም	-10.5536
▁ግደፉ	-10.5537
ወሉ	-10.5541
ኽል	-10.5545
▁ሓተተ	-10.5546
▁እንት	-10.5561
▁እንተላይ	-10.5561
▁ዘው	-10.5564
ጻሕ	-10.5564
▁ኣገባባት	-10.5567
▁ቐይሕ	-10.5567
▁ጸኒ	-10.5575
▁ጽዑቕ	-10.558
▁ኣጋይሽ	-10.558
ዕበ	-10.5581
▁ሳልሰይቲ	-10.5584
▁እናተባህለ	-10.5587
▁ዝሓጸረ	-10.559
▁ዝጽበ	-10.5592
▁ደኪ	-10.5595
▁ኦሮሞ	-10.5596
ሃድ	-10.5596
ሕለፍ	-10.5605
▁ተልእኾ	-10.5608
▁ተኣማንነት	-10.5608
▁ማሕሙድ	-10.5608
▁ባሕርና	-10.5608
▁ሕዝ	-10.5613
▁ግር	-10.5613
▁ኣመት	-10.5613
ሰሰ	-10.5618
▁ገዲፋ	-10.5619
▁ተምቤናይ	-10.5622
▁ሂወቶም	-10.5622
▁ባል	-10.5623
▁ተኣምር	-10.5624
ስመዓ	-10.5624
ራህ	-10.5632
▁ጥሩ	-10.5633
▁መሰውኢ	-10.5636
▁ንጽባሕ	-10.5636
▁ጥልመት	-10.5636
▁ስታ	-10.5638
▁ኣዒንቲ	-10.5638
ፍቱ	-10.5644
9	-10.5646
▁ነዓይ	-10.5647
▁ጥበበኛታት	-10.5648
▁ሳዕስዒት	-10.5649
▁ብመጀመርታ	-10.5649
▁ብቕዓትን	-10.5656
▁እልካ	-10.5659
▁ካሊእ	-10.566
▁ኣስመሮም	-10.5664
▁መጹ	-10.5664
▁ንጹህ	-10.5666
▁ኣእዳው	-10.5666
▁ዓብ	-10.5667
ሪም	-10.5667
▁ንዝነበረ	-10.5668
▁ንኣይ	-10.5669
▁ሰሌ	-10.5669
▁ንፈልጦ	-10.5669
▁ብፍጹም	-10.5669
▁ዝኸፍአ	-10.567
▁ተኻዪዱ	-10.5677
▁ይገብሮ	-10.5678
ደራ	-10.5679
▁ተመልሰ	-10.568
መም	-10.5683
ሓላ	-10.5685
▁ሽንቲ	-10.5691
ምረ	-10.5692
▁ሕሰብ	-10.5693
▁ዝተሓተ	-10.5693
▁ክሓትት	-10.5695
▁ይዛረብ	-10.57
▁ዑቕባ	-10.5701
▁ልብያ	-10.5701
ለኽ	-10.5703
▁ዝኣምን	-10.5705
▁ንመንእሰያት	-10.5705
ሰኒ	-10.5705
▁ሻሚር	-10.5705
▁አምላኽ	-10.5706
▁ድርባይ	-10.5706
▁ቀደሙ	-10.5707
▁ብኻ	-10.5709
ልኝ	-10.5709
▁ይህሉ	-10.5716
▁ኣፍንጫ	-10.5719
▁ዓቐብ	-10.572
▁ይምነ	-10.5725
▁ይተ	-10.5725
ቆር	-10.5726
▁ነህ	-10.5727
▁ተስፉ	-10.5728
ንቆ	-10.5729
▁2006	-10.5733
▁ሙኒክ	-10.5733
ሩን	-10.5736
▁ይከ	-10.5736
▁ባቡር	-10.5737
▁ዘቢብ	-10.5742
▁መለሰ	-10.5743
ርሐ	-10.5746
▁ኢዛ	-10.5751
ጀመር	-10.5753
▁ኪዲ	-10.5755
▁ንናጽነት	-10.5761
▁ቆጸራ	-10.5762
▁ተዓገስ	-10.5762
▁ንቤት	-10.5765
▁ኣጋጢሙ	-10.5766
▁ገደ	-10.5768
ርእይ	-10.5768
▁ለማ	-10.5771
▁ጁባ	-10.5773
እል	-10.5774
▁ገብረእግዚኣብሄር	-10.5775
▁ተጨ	-10.5777
▁ሕብረተሰብና	-10.5778
▁ገብእ	-10.5781
ርሓ	-10.5784
▁አጆካ	-10.5784
▁ክሕዝ	-10.5786
▁ከምቶም	-10.5788
▁ደል	-10.5789
ረካ	-10.5794
▁መሓዛይ	-10.5799
▁ንሃቦ	-10.5799
▁ኣላትኒ	-10.58
▁ቖ	-10.58
▁ክፍሎም	-10.5801
ለላ	-10.5801
ሕዙ	-10.5803
▁ሕፍረት	-10.5803
▁እንከለዋ	-10.5803
▁ውድባት	-10.5805
▁ልዋም	-10.5806
▁ወኒ	-10.5807
▁ብሓንቲ	-10.581
▁ኣራዊት	-10.5811
▁ምኽኣል	-10.5815
▁ገዲም	-10.5816
ቀር	-10.5816
ቕና	-10.582
ዝክሮ	-10.582
▁ርኢና	-10.5823
▁ኮሚሽን	-10.5831
▁ክትሰ	-10.5833
▁እዋናዊ	-10.5834
▁ኣትየ	-10.5835
▁ተኪኤ	-10.5837
▁ስልጣኑ	-10.5837
በልዑ	-10.5837
ሞተ	-10.584
▁ብዕድመ	-10.5842
▁ክበር	-10.5843
▁ፍለጥ	-10.5845
ሚን	-10.5845
▁ደጋጊመ	-10.5845
▁ቈርበት	-10.5846
▁ሓጋዝ	-10.5847
ርቂ	-10.5848
▁ኦር	-10.585
ረከብ	-10.5852
ልዓ	-10.5857
▁ከካይድ	-10.5858
ዛር	-10.5858
ሽም	-10.5858
▁ትርሓስ	-10.586
▁ሰዓ	-10.5861
▁ሓሊፎም	-10.5862
ኮና	-10.5865
▁ምፍራይ	-10.5866
▁ክብሃል	-10.587
▁ርእሰይ	-10.587
▁ሓቁ	-10.5872
▁ተንተንቲ	-10.5874
▁ለእ	-10.5876
መደ	-10.5877
▁ክዀኑ	-10.5878
▁ትፈልጡ	-10.5879
▁ትጽበ	-10.5884
ፋእ	-10.5885
ሳብ	-10.5886
ልዉ	-10.5888
▁ጎንካ	-10.5888
▁ብዙሃን	-10.5888
ስዕብ	-10.5888
ናሉ	-10.5891
ዳዊ	-10.5894
▁ዋዉ	-10.59
ሪኣ	-10.5901
▁ትራምፕ	-10.5902
▁ዋርሳይ	-10.5902
▁መሓዙት	-10.5902
▁ሕግን	-10.5902
▁ምዕቡል	-10.5903
ነር	-10.5904
ላእ	-10.5907
▁ድካ	-10.5909
▁ስምዑ	-10.591
▁ዕጫ	-10.591
▁ፈሊጠ	-10.5914
▁መድረኻት	-10.5916
▁ክንክን	-10.5917
▁ደርፍኻ	-10.5918
▁ኮሚተ	-10.592
በኒ	-10.5922
▁ኣደን	-10.5922
ወካ	-10.5923
▁ዶል	-10.5924
▁ትንሳኤ	-10.5924
▁ዳይ	-10.5924
▁ጣዕ	-10.5924
▁ምስኦም	-10.5929
▁ማና	-10.593
▁ፌ	-10.593
▁ኣጠቓቕማ	-10.593
▁ኣይትበሉ	-10.5933
▁ዝተፈጥረ	-10.5938
▁ማራቶን	-10.5939
▁እረ	-10.5944
▁ተዋሳኢት	-10.5945
▁ኻልእ	-10.5945
ሕጎስ	-10.5946
▁ብታ	-10.5946
ا	-10.5946
ሕን	-10.5946
▁ትምህርቶም	-10.5947
ገበረ	-10.5948
▁አብዚ	-10.5948
ዓለም	-10.595
ፎን	-10.596
▁ቋንቋታት	-10.5963
▁ሰገን	-10.5969
ጥዓ	-10.5973
▁በጃኪ	-10.5973
▁ክፈ	-10.5973
▁ኮንኪ	-10.5975
ኽብር	-10.5976
▁ምሒር	-10.5979
▁መርሃባ	-10.598
▁ደማ	-10.5984
▁ክጽበ	-10.5984
▁ህዋ	-10.5985
▁ኤስያ	-10.5986
▁ተጀሚሩ	-10.5988
▁ብሽ	-10.599
▁ስድራይ	-10.5992
ክዎም	-10.5993
▁ንኤ	-10.5994
▁መሰላት	-10.6001
▁ዘይክ	-10.6002
▁ሎም	-10.6002
ጠረ	-10.6004
▁መሳኪን	-10.6004
▁ገበሩ	-10.6009
ረኽባ	-10.601
መጹ	-10.6013
▁ኣለወን	-10.6015
▁ጥን	-10.6016
▁ተዛ	-10.6016
▁ታዕሊም	-10.6016
▁ይደፈን	-10.6017
▁ሰሚዕና	-10.6018
ቁር	-10.602
▁ከሊ	-10.6023
▁ዘበ	-10.6023
▁ተስፍ	-10.6026
▁ዊንታ	-10.6027
ተል	-10.6031
▁ኹ	-10.6032
ግዕ	-10.6032
▁ሒዝኩም	-10.6034
▁09	-10.6034
▁ኣእምሮኣዊ	-10.6034
▁ንደሊ	-10.6035
▁በጽሐ	-10.6037
▁ንኢሰያስ	-10.6037
▁ኣበር	-10.6037
▁ዘገልግል	-10.6042
▁ነይርካ	-10.6044
▁ንበዓል	-10.6045
▁ምዃነን	-10.6045
▁እስቲፋኖስ	-10.6045
ረኽቡ	-10.6046
▁ንበ	-10.6046
▁ዘይከም	-10.6047
▁ዝህ	-10.6048
ህቡ	-10.605
▁ወአ	-10.6052
ሓን	-10.6053
▁በሪ	-10.6054
▁መሳጢት	-10.6056
▁ክእ	-10.6056
▁ክቱር	-10.6057
▁ስቓይ	-10.6058
▁ተዓዊታ	-10.6058
▁ጐይታይ	-10.6059
▁ኣረጋጊጹ	-10.606
▁ረዘነ	-10.606
▁ቁዱስ	-10.6061
▁ነይማር	-10.6061
▁ሓድሕድ	-10.6061
▁አሪትራ	-10.6065
▁ክብሮም	-10.6067
▁ዝሓልፍ	-10.6072
ለዎ	-10.6076
▁ዝይ	-10.6076
▁የእ	-10.6083
▁ብሰብ	-10.6085
▁ከለካ	-10.6086
▁ጽፉፍ	-10.6088
▁ዝተቐ	-10.6088
▁ሰሊ	-10.6091
▁ብምን	-10.6095
▁ግዳም	-10.6097
▁ተመለስ	-10.61
▁ክትከይድ	-10.6101
▁ንስነ	-10.6101
▁ጎዳይፍ	-10.6102
▁ክትመጽእ	-10.6102
▁በረ	-10.6105
ገድፍ	-10.6107
▁ዝጽ	-10.6108
▁ብምቕራብ	-10.6118
▁ቍጽሪ	-10.6119
▁ስርናይ	-10.6119
▁ዒድ	-10.6121
ዓድ	-10.6123
▁ተራእየ	-10.6127
ፋዕ	-10.6129
▁2000	-10.6132
▁ሰኣን	-10.6132
▁ንጎ	-10.6132
ጋል	-10.6137
ፈሪ	-10.6139
▁የረድእ	-10.6143
▁ኣካላትና	-10.6143
▁መንግስት	-10.6145
ባረ	-10.6147
ታተ	-10.6148
▁ሐቆ	-10.6152
ገሪ	-10.6153
▁ሞትን	-10.6155
ማርያም	-10.6159
▁ኣባሻውል	-10.6161
▁ረቡዕ	-10.6162
▁ክበ	-10.6162
▁ገዲፍና	-10.6163
▁ሕቖ	-10.6165
▁ተጸበ	-10.6167
ኦን	-10.6168
▁ቀን	-10.6168
ሕቲ	-10.6172
ወላ	-10.6172
▁ተደጋጋሚ	-10.6176
▁ምክያድ	-10.6176
▁ጣውላ	-10.6176
▁ዓሶ	-10.6176
▁ኣርብዓ	-10.6177
▁ንገዛ	-10.6177
▁ዘይትፈልጥ	-10.6177
▁ጸጉሪ	-10.6179
▁በለና	-10.6179
ለያ	-10.6183
▁ዓሌታት	-10.6185
ዳኣ	-10.6188
▁ሃገርካ	-10.6193
▁ፈረ	-10.6194
▁ተገዳስነት	-10.6195
ድማ	-10.6196
▁ኣቡኡ	-10.6199
ኩሙ	-10.62
▁ሲኢነ	-10.62
▁ዝውንን	-10.6202
▁መመ	-10.6202
▁ስንክልና	-10.6205
▁ጽገ	-10.6208
ናዕ	-10.6211
በሊ	-10.6216
▁መጋ	-10.6216
▁ቀይር	-10.6216
▁ኣይትፈልጥን	-10.622
▁ብገ	-10.6223
ስቶ	-10.6224
ለኻ	-10.6225
▁ትከውን	-10.6225
▁ነጋሽ	-10.6225
ፍጠር	-10.6228
ደርፍ	-10.6229
▁ኣበራ	-10.6235
▁ንዒ	-10.6235
▁ቀይዲ	-10.6236
▁ጥንቲ	-10.6239
▁ዕርቂ	-10.6239
▁ከለው	-10.6244
▁ብህዝቢ	-10.6245
ጳ	-10.6248
▁ዝትንክፍ	-10.6249
▁ዕዉታት	-10.6249
▁ፍዮሪ	-10.6249
▁ማእ	-10.625
▁ምስልምና	-10.625
▁ጽምዋ	-10.6253
ሊሉ	-10.6253
▁ህዝቦም	-10.6253
ውጽእ	-10.6255
▁ካሳ	-10.6256
ወስድ	-10.626
▁መዝ	-10.626
▁ንዝብል	-10.6261
ኹምን	-10.6262
▁ሰብኡት	-10.6262
▁ሽኮራት	-10.6264
▁ኤር	-10.6264
▁ነይረን	-10.627
▁ምዕባለን	-10.627
ስኩም	-10.6271
▁ኢዮ	-10.6271
▁ክረኽቡ	-10.6274
▁ተሌፎን	-10.6279
▁ኩላትኩም	-10.6281
▁ጡብ	-10.6282
▁ፈተነታት	-10.6283
▁በላዕቲ	-10.6289
▁ይቕ	-10.6291
ኣድ	-10.6293
▁ንእኡ	-10.6293
▁ሕሙማት	-10.6293
▁ክውን	-10.6294
▁መዲ	-10.6294
ጠራ	-10.6295
ዘራ	-10.6302
ሕግዞ	-10.6302
▁ይጽበ	-10.6303
▁ሒዝና	-10.6304
▁ህበይ	-10.6304
▁ጀጋኑና	-10.6304
▁ሓባ	-10.6306
▁ካብኦም	-10.6307
▁ዘካየደቶ	-10.6308
▁ማህጸን	-10.6309
ነብሩ	-10.6309
▁ንጥፈት	-10.6309
▁ብሕማም	-10.631
▁ራህዋን	-10.631
▁ዝተበገሰ	-10.6318
ንበብ	-10.6323
▁መንእሰያትን	-10.6323
▁ሕሙም	-10.6323
ገድፎ	-10.6324
ዊያን	-10.6325
▁ቀርኒ	-10.6325
▁ብምውጻእ	-10.6325
▁ብምሓዝ	-10.6327
ደልዩ	-10.6328
▁ሙሳ	-10.6329
▁ወራሲት	-10.6333
▁99	-10.6333
▁እግለ	-10.6335
ጻር	-10.6337
ውይ	-10.6337
▁ንሓድሕዶም	-10.6338
▁መደቀሲ	-10.6338
▁ተኽላይ	-10.6339
▁ንምብጻሕ	-10.6339
▁ዝፍ	-10.6343
24	-10.6344
▁ዝፍጸም	-10.6344
▁ተርታ	-10.6348
▁ዝዝ	-10.6348
ሕልፎ	-10.6349
▁ዝደለየ	-10.6352
▁ንምዕዋት	-10.6353
▁ማኪና	-10.6355
▁ጸግዒ	-10.6355
ነታዊ	-10.6356
▁ንኽን	-10.6357
▁ምጽዋዕ	-10.6357
▁ክኽእል	-10.6358
▁ሃን	-10.6362
ኩኻ	-10.6363
▁ነረ	-10.6363
ስክ	-10.6363
▁እዉን	-10.6363
ርቅ	-10.637
▁ነዚኦም	-10.6374
▁ሓድ	-10.6377
▁መግ	-10.6377
▁ክትወጽእ	-10.6377
▁ሽግራት	-10.638
▁ሰራ	-10.6381
▁ከዋኽብቲ	-10.6382
ለሊ	-10.6383
▁ዝገለጸ	-10.6383
▁ዞሎ	-10.6384
ሪኡ	-10.6392
▁ኤርትራዉያን	-10.6393
▁ተዐ	-10.6396
▁ንምክልኻል	-10.6397
▁ኣስላማይ	-10.6398
▁ንምውሓስ	-10.6398
▁ሃለውለው	-10.6398
▁መንጽር	-10.6399
ያቱ	-10.64
▁ናፊቀ	-10.6401
በጠ	-10.6402
▁ታሓ	-10.6407
በሳ	-10.641
▁ዘርእስታ	-10.6413
▁ተመራጺ	-10.6414
▁መጣ	-10.6415
▁አሁን	-10.6421
▁በተ	-10.6422
▁ተደሪ	-10.6422
▁ዝምድናታት	-10.6423
▁ሜሪ	-10.6424
ክእል	-10.6425
ቡር	-10.6429
▁ዝገለጽ	-10.643
▁ተጠቀምቲ	-10.6432
▁ትው	-10.6433
▁ሂበካ	-10.6434
▁ገይርና	-10.6438
▁ነጻነት	-10.6441
▁ሳኦል	-10.6443
▁ሰላሳ	-10.6444
▁ኣድማዒ	-10.6444
ይስ	-10.6445
ጉም	-10.6445
▁ኣፍቃሪ	-10.645
▁ህድእ	-10.6456
ደደ	-10.6458
▁ጽላት	-10.6458
▁ድአ	-10.6458
▁መራኽብ	-10.6461
▁መፃኩም	-10.6462
ወርድ	-10.6466
ልዮም	-10.647
▁ብካ	-10.647
▁ብምቕጻል	-10.6472
ጣዕሚ	-10.6473
▁ምሕያል	-10.6473
▁ግእዝ	-10.6474
▁ጽገና	-10.6474
▁ገም	-10.6476
▁ዓመቱ	-10.6478
▁ብኩሉ	-10.6479
ለክ	-10.6484
▁ዝሑል	-10.6488
▁ንደገ	-10.6491
ልማ	-10.6495
▁ኣዚዩ	-10.6496
▁ብገዛእ	-10.6499
ርኣዩ	-10.65
ጓዓዝ	-10.6502
ጣጥ	-10.6502
▁ትግባረ	-10.6503
▁ኣፍወርቂ	-10.6503
▁ልምዓትን	-10.6507
▁ንነብር	-10.6511
▁ስለዘለዎ	-10.6513
▁ምትሕግጋዝ	-10.6513
▁ቤተሰብን	-10.6517
▁ምንባሮም	-10.6518
▁ንዝያዳ	-10.6518
▁ሓሳበይ	-10.6518
▁የስ	-10.6519
ስምዑ	-10.6521
▁ገመል	-10.6523
▁እደ	-10.6523
▁ንሃገርና	-10.6524
▁ንአ	-10.6527
▁እኽእል	-10.6529
▁ዝፈጠረ	-10.653
▁መድሃኔ	-10.6533
▁የውርደልና	-10.6534
ትሪ	-10.6535
ቅና	-10.6539
▁ዛንታታት	-10.6539
▁ህዝብናን	-10.654
▁ወለደ	-10.654
▁ገዛውቲ	-10.6541
▁ይወ	-10.6541
▁ብሩ	-10.6542
▁ክርእዮ	-10.6543
▁መዓንጣ	-10.6548
▁ድፋዕ	-10.6553
▁ክእለ	-10.6554
▁ትት	-10.6555
▁ሽሕን	-10.6559
▁ዲቪዥን	-10.6563
▁ምጭውቲ	-10.6567
ፊት	-10.6568
ረከበ	-10.657
▁ዘላቶ	-10.6571
▁ብሽም	-10.6571
▁ኻኣ	-10.6572
▁በራ	-10.6575
▁ስሑል	-10.6578
ርዳ	-10.658
ግሪ	-10.658
ረሰ	-10.6581
21	-10.6585
▁ይድ	-10.6588
ላላ	-10.6589
ንቃ	-10.6591
▁ተታሒዙ	-10.6593
▁ሳንዱቕ	-10.6593
▁መእተዊ	-10.6593
▁ስለቲ	-10.6594
ገፍ	-10.6596
▁ትህብ	-10.6597
▁ቦታኡ	-10.6598
ቕርቦ	-10.6609
▁ዕርክነት	-10.6609
▁ስዑዲ	-10.6609
▁መዓስከር	-10.6612
▁ትሕትና	-10.6613
ገላ	-10.6618
▁ዝጽዋዕ	-10.6622
▁አመት	-10.6624
▁ብወገና	-10.6624
▁ጉልበት	-10.6626
ጽዋ	-10.6627
▁አስመራ	-10.6633
▁ንጸ	-10.6637
▁ትራ	-10.6638
ወድቕ	-10.6638
▁የቐንየለይ	-10.6639
▁ኣሰልጠንቲ	-10.6639
▁ማእለያ	-10.664
▁ክመስል	-10.664
ክላ	-10.6643
▁ሳክት	-10.6643
▁የዕ	-10.6645
▁ልብካ	-10.6646
ብሮም	-10.6649
▁ስርሖም	-10.6652
▁ንሙሴ	-10.6655
29	-10.6657
ክሪ	-10.6663
▁ክንፊ	-10.6663
▁ፍጻሜ	-10.6664
▁ዘራ	-10.6667
▁ወሎዶ	-10.6673
▁መሕ	-10.6674
▁ጻዕርን	-10.6677
▁ኣይቲ	-10.6679
▁ኪዱ	-10.668
▁ውሽጣ	-10.6681
▁ኣመዝጊቡ	-10.6685
▁እዮብ	-10.6686
▁ጓና	-10.6689
▁ኣምር	-10.669
ራረ	-10.6693
▁ግራም	-10.6695
▁ይሓል	-10.6696
▁መፍረ	-10.6696
▁እህ	-10.6697
▁ሓማ	-10.6697
▁ረቛሒ	-10.6699
ለኪ	-10.6703
▁ምእላይ	-10.6703
ቅጥ	-10.6703
▁ገጠር	-10.6704
ሽካ	-10.6705
▁ሶማል	-10.6706
▁ዝመስለኒ	-10.6708
▁ብነ	-10.671
7	-10.6715
ጽናዕ	-10.6715
▁ኣቐዲማ	-10.6716
▁ኣጥቃዒ	-10.6716
▁ኣኣብ	-10.6716
▁400	-10.6719
▁የፍልጥ	-10.6728
ሓድር	-10.6729
▁ዝከውን	-10.6729
ምጽኡ	-10.673
▁ወጺኣ	-10.6731
▁የመልክቱ	-10.6731
▁ንነብሱ	-10.6732
ራኽ	-10.6735
▁ትምህርቱ	-10.6735
ፋል	-10.6736
ጋብ	-10.6738
▁ፍሬ	-10.6739
ጣት	-10.6742
ሰማዕ	-10.6744
▁ጻዕርታት	-10.6744
▁ዕለታዊ	-10.6747
▁መልክዑ	-10.675
▁መዳያት	-10.6751
▁መከራን	-10.6751
ቐሉ	-10.6752
▁ሰሉ	-10.6752
▁ነርካ	-10.6754
ፍእ	-10.6754
ጣል	-10.6762
▁ጎዶሎ	-10.6762
▁ንረብሓ	-10.6763
ዳር	-10.6765
▁ማሕበራት	-10.6765
ስርሑ	-10.6769
▁ይአክል	-10.6772
ዓና	-10.6774
ጽም	-10.6777
▁ንሰለስተ	-10.6778
▁ይሃበልና	-10.678
▁ሚድያ	-10.6781
ረፉ	-10.6786
▁ዘንጸባርቕ	-10.6789
▁ትብዓት	-10.679
ራውያን	-10.6791
▁ቀኒ	-10.6791
ከለ	-10.6793
▁ኣካያዲ	-10.6794
▁ኣይሰ	-10.6797
ቀላ	-10.6798
▁ዝህቦ	-10.6802
ሕሱ	-10.6807
▁ነብስካ	-10.6807
▁ንፈ	-10.6809
▁ጎርዞ	-10.681
▁ብምምጻእ	-10.681
▁ወለዱ	-10.681
▁ኣምላኽና	-10.6812
ወስ	-10.6812
▁ጠባያት	-10.6813
መመ	-10.6814
▁ከባቢኣን	-10.6816
ወለድ	-10.682
▁ዝመልኦ	-10.6822
ሕፍ	-10.6822
▁ማህ	-10.6824
▁ሞይታ	-10.6827
ላንድ	-10.6827
▁ዘይከኣል	-10.6829
▁ምድርን	-10.683
▁ደላ	-10.6836
ፍስ	-10.6838
ሃቡ	-10.684
▁ንኤሪና	-10.684
ይይይይይ	-10.6841
▁ለንደን	-10.6841
ማስ	-10.6841
ተላ	-10.6842
▁ዝምስገን	-10.6848
ክፍ	-10.6851
▁ባንዳ	-10.6852
▁ምትሕብባር	-10.6856
▁ኣባጊዕ	-10.6856
ግዝ	-10.6857
▁ስለዝሞቱ	-10.6858
▁ክጽሕፍ	-10.686
▁መአ	-10.686
ዕር	-10.6863
ቡል	-10.6864
ከብ	-10.6865
▁ውርደት	-10.6872
▁ዓላሚ	-10.6875
ወኒ	-10.6875
▁ደቁን	-10.6876
መሰለ	-10.6876
▁ጋና	-10.688
ሓለፈ	-10.6882
▁ክጸ	-10.6883
▁ሰላማዊ	-10.6884
▁ኣቤል	-10.6885
ሓኒ	-10.6887
ጋድ	-10.6887
▁ንፍቕሪ	-10.6887
▁ዋኒን	-10.6892
ቃት	-10.6892
▁ብከላ	-10.6895
▁ዝሓዘት	-10.6896
▁ሓላዊ	-10.6898
ረክቦ	-10.6904
▁በብሓደ	-10.6905
▁ዝመስሉ	-10.6906
▁ዳሕራይ	-10.6907
▁ካርድ	-10.691
▁ኩሉኩም	-10.6912
▁ንኸውን	-10.6913
▁ክትብሎ	-10.6913
▁ኢዮብ	-10.6916
▁የማን	-10.6916
▁ንገልጽ	-10.6921
▁ጊዘ	-10.6922
▁ወለዶታት	-10.693
▁እሉ	-10.693
ጻረፍ	-10.6932
ታቲ	-10.6934
▁ኣሕሊፉ	-10.6935
▁በዓላት	-10.6936
ድግ	-10.6942
ስራ	-10.6944
ርስዕ	-10.6946
እዎ	-10.6949
▁ነቐፌታ	-10.695
ኢል	-10.695
ጠመ	-10.6951
▁ፈሳሲ	-10.6953
ተረ	-10.6953
▁ዓርከ	-10.6953
▁መዳልያ	-10.6954
▁እንዲኻ	-10.6954
▁ይግ	-10.6958
▁ተጣ	-10.6958
ብሎም	-10.6958
ክቲ	-10.6959
ትይ	-10.6963
▁ባኣ	-10.6966
▁ትዕ	-10.6967
ሕድ	-10.6968
ሰካ	-10.6969
ሕዎ	-10.6972
▁በላዒ	-10.6973
▁ክትብሊ	-10.6974
▁ወጺ	-10.6974
ረጋግ	-10.6974
ገልጸ	-10.6975
ፍሕ	-10.6979
▁ግብ	-10.6979
▁ሰቡ	-10.6979
▁ድሕነትን	-10.6981
▁ትርሓቅ	-10.6982
▁ግዝኣት	-10.6983
▁ይስማዕ	-10.6984
▁ንነ	-10.6985
▁ዝስራሕ	-10.6985
▁ቱር	-10.6987
▁ጣዕሚ	-10.6987
▁ብጾቱ	-10.6991
በሮ	-10.6991
ወዳ	-10.6992
▁መዕ	-10.6992
▁ዕግርግር	-10.6998
ከረ	-10.6998
▁ብምድዋል	-10.6998
▁ሓርበኛ	-10.6999
▁ኡይ	-10.7
▁ሐቂ	-10.7
▁አመ	-10.7002
ገዱ	-10.7006
▁እንካ	-10.7007
ርሒ	-10.7009
▁ከለ	-10.7009
▁ኣሓ	-10.701
ውራ	-10.7013
▁ብዝዀነ	-10.7016
▁ሓደጋታት	-10.7017
ሻል	-10.7019
ጽሎ	-10.7021
▁ሓቦ	-10.7023
ቀለ	-10.7024
▁ሕርሻን	-10.7025
▁ጃዮ	-10.7027
▁ሳልስቲ	-10.7034
▁ጥዕም	-10.7034
▁በአ	-10.7037
▁ሰሉስ	-10.7037
▁ክሰምዓ	-10.704
ለዋ	-10.704
▁ጉሓፍ	-10.704
▁ዝህቡ	-10.7042
▁ጭብጢ	-10.7045
▁ጌጋታት	-10.7046
ውያ	-10.7047
▁ጎንኻ	-10.7047
▁ተመሊሰ	-10.7048
▁ዓቅሊ	-10.705
▁ዝጥ	-10.7052
▁ነጋዶ	-10.7052
ነሽ	-10.7053
▁ዝብ	-10.7056
▁ቀጽለሉ	-10.7057
ገልጽ	-10.7063
ገዳ	-10.7065
▁ወረደ	-10.7065
▁ዋህዮታት	-10.7067
▁ሓሊፋ	-10.7068
▁ሃለ	-10.7069
▁ሙደይ	-10.707
▁ገዝኡ	-10.707
ርታ	-10.707
▁ጋሕ	-10.7072
▁ደሰ	-10.7073
ልሕ	-10.7073
▁ዝእ	-10.7074
አብ	-10.7075
▁ከምእ	-10.7077
▁መሰጋገሪ	-10.7077
▁ረኺባ	-10.7077
▁ይግበሮ	-10.7078
▁ኣድህቦ	-10.7078
26	-10.7078
▁እደሊ	-10.7082
▁ይሃብ	-10.7083
ዘም	-10.7085
▁ምስናይ	-10.7089
ርዲ	-10.709
ዘብ	-10.7091
▁እትገብሮ	-10.7092
▁ምጉዳል	-10.7094
▁ህንጻታት	-10.7094
▁ሰማዕኩ	-10.7095
▁እኻ	-10.7095
▁ዝቀ	-10.7098
ኽር	-10.7099
▁ሾ	-10.7101
ረየ	-10.7103
▁ጭራ	-10.7105
▁ኔርኩም	-10.7107
▁ሓምሳ	-10.7108
▁ደናቁር	-10.7109
▁የብልኩምን	-10.711
ድኩም	-10.7111
▁ተወሊዱ	-10.7111
▁ክክክክክክክክክክክ	-10.7111
ብርሃ	-10.7113
▁ሂብካ	-10.7114
▁ሰማዒ	-10.7114
ጠፍ	-10.7116
▁ኣይፋል	-10.7117
▁ወጥሪ	-10.712
ዋም	-10.7121
ፈስ	-10.7123
▁ኣብዘን	-10.7124
▁ምንቅስቃስ	-10.7125
▁ናሆመይ	-10.7125
▁ኤቨርተን	-10.7125
▁ስግር	-10.7126
▁ዝደለ	-10.7127
ደልየ	-10.7127
ዝክር	-10.7128
እም	-10.713
ሓቅ	-10.7133
▁አይን	-10.7134
ጸገ	-10.7134
▁ኣጀኹም	-10.7135
▁ያኣክል	-10.7142
ዮስ	-10.7143
ፍተ	-10.7144
▁ቅንዕና	-10.7146
ሱስ	-10.7149
▁ድሉው	-10.7149
▁ጠፈር	-10.715
▁ምሕሬ	-10.7152
ሶን	-10.7157
ንዲ	-10.7157
ግና	-10.7157
▁ብቕዓቱ	-10.7158
▁ወርሓዊ	-10.7158
ደኣ	-10.7158
ዕለ	-10.7164
▁ብደቂ	-10.7165
ጸት	-10.7165
▁ደቅኻ	-10.7169
▁ች	-10.717
▁ትፍ	-10.7171
▁ተቐይሩ	-10.7174
▁ጹ	-10.7175
▁ሓሊ	-10.7176
▁ምንባራ	-10.7178
▁ሃና	-10.7181
▁ኤፍ	-10.7183
▁ክግበረሉ	-10.7184
▁ንብኡ	-10.7188
▁ሰሰናዩ	-10.719
▁ስሒ	-10.7191
▁ምውሓስ	-10.7191
▁ኣይብልን	-10.7193
▁ሓጻር	-10.7194
▁ይሕዋተይ	-10.7195
▁ዳግም	-10.7195
▁ረኣኹ	-10.7197
▁ኣምሓራይ	-10.72
▁ሃገርናን	-10.7203
▁ጐደና	-10.7203
▁ኣምላኽካ	-10.7204
▁ንቅድሚት	-10.7206
ቕርብ	-10.7207
ه	-10.7211
ጣዕ	-10.7215
▁መጻምድቲ	-10.7217
▁ሰላ	-10.7218
▁ክትገብሮ	-10.7221
▁ፈተውቲ	-10.7223
▁ምቕባል	-10.7224
▁ጥንታዊ	-10.7225
▁ድራ	-10.7227
▁ይኹኑ	-10.7228
▁ረሲዕ	-10.7228
ፍለጥ	-10.723
▁እንተኮነ	-10.723
▁ዘርእ	-10.723
በካ	-10.7231
▁ትርጕም	-10.7231
ቃር	-10.7233
▁ግዝ	-10.7236
▁ቦጦሎኒ	-10.7238
▁መስትያት	-10.7238
▁ፕሊስ	-10.7239
ክእሉ	-10.7245
▁ብምኽ	-10.7248
ልድ	-10.7249
▁ፍሽኽ	-10.725
▁በሉለይ	-10.7256
▁ስወድሽ	-10.7256
▁ይሃበና	-10.7256
▁የማናይ	-10.7257
▁ትብሃል	-10.7257
▁ብሓቒ	-10.7259
ያውያን	-10.726
▁ክሓስብ	-10.726
▁ኣይሁድ	-10.7265
▁ዓዳ	-10.7266
▁ድሕሪት	-10.7267
▁መሊ	-10.7268
▁ያታዊ	-10.7269
▁በበይኑ	-10.7271
▁ብቐረባ	-10.7271
ፈጥረ	-10.7277
ኘ	-10.7278
▁ጩራ	-10.7278
▁ቤተሰብ	-10.7278
▁ዋውውውውውውው	-10.7286
▁ክንርኢ	-10.7288
▁ድቃላ	-10.729
▁ግዝያዊ	-10.729
ችው	-10.7291
ሊን	-10.7296
▁ሰሓ	-10.7298
▁ሥ	-10.7301
▁ዝተወሰነ	-10.7301
▁ተሽከርከርቲ	-10.7304
▁መትሓዚ	-10.7304
ቀን	-10.7306
▁ብውሕዱ	-10.7309
ኽእሎ	-10.7313
▁ሓቅታት	-10.7319
ጠፍኡ	-10.732
▁እንቛዕ	-10.732
▁ንእስራኤል	-10.732
▁ገዲፎም	-10.7321
▁ኣይሓ	-10.7323
▁ሕቡእ	-10.7324
▁ድንሽ	-10.7326
▁ዘት	-10.7329
▁ጋላ	-10.7329
ነበር	-10.733
ኾኑ	-10.7331
▁ደሊ	-10.7332
▁ውራይ	-10.7333
ፍቀ	-10.7335
▁ሰኪዔት	-10.7336
▁ዘይሕጋዊ	-10.7336
▁ርእዩ	-10.7336
ሬት	-10.7337
▁መገሻ	-10.7341
▁ይሓትት	-10.7341
▁ብምሃብ	-10.7346
መልሰ	-10.7348
▁ትከ	-10.7349
ረፋ	-10.7349
▁ባቢሎን	-10.7353
▁ትንታነ	-10.7353
ላህ	-10.7354
▁ግበሪ	-10.7355
ሳሲ	-10.7361
▁ተወዲኡ	-10.7364
ፈሊ	-10.7368
▁ርድኢት	-10.7369
ቍ	-10.737
▁ሕሱር	-10.737
▁ብረታዊ	-10.7371
▁እኩም	-10.7374
▁ኣእማን	-10.7377
▁ዕር	-10.738
ኣምኖ	-10.738
ሁን	-10.7381
▁ሰማ	-10.7383
ጽሕፈ	-10.7384
ሓቕ	-10.7385
▁ያላ	-10.7385
▁እፈልጥ	-10.7387
▁ሃይለማርያም	-10.7388
▁ርባ	-10.7388
▁ዝኸደ	-10.7389
▁ክልሰ	-10.739
ገብር	-10.739
▁ዝጠቐሰ	-10.7391
ጸግ	-10.7392
ተባህለ	-10.7393
▁ደሪ	-10.7396
ልባ	-10.7396
▁ወድዛ	-10.7397
▁ጥራ	-10.7397
▁ጀሚርና	-10.7398
▁ክነብሩ	-10.7399
▁ኣሎካ	-10.7401
▁ኾ	-10.7401
▁ኣቑርደት	-10.7402
▁ዘጠቓለለ	-10.7402
▁ኣሞ	-10.7402
▁ጹቡቕ	-10.7403
▁ኣኽርያ	-10.7405
▁ጎቦታት	-10.7406
ሽቲ	-10.7408
▁ዘመልክት	-10.7408
ሊል	-10.7408
ሕሉ	-10.7409
ፍሊ	-10.7409
100	-10.7411
▁ዕደና	-10.7412
▁እስኻ	-10.7413
ውጻእ	-10.7413
▁ኣቃውማ	-10.7419
▁ማስ	-10.7421
▁መዓልት	-10.7422
▁እንተስ	-10.7422
▁ጒ	-10.7423
ብለኒ	-10.7423
ለህ	-10.7424
ልዓል	-10.7426
▁መክ	-10.7426
▁ዕንባባ	-10.7427
▁ብአ	-10.7427
▁እዙ	-10.7427
ن	-10.7428
▁ፍልሚ	-10.743
▁ፈሊ	-10.7431
▁እምነ	-10.7434
▁ብርጌድ	-10.7435
▁ብትሕትና	-10.7435
▁ዕስራን	-10.7435
ራፍ	-10.7437
ተራእየ	-10.7438
▁በደ	-10.7441
ወና	-10.7443
▁ሓለፈ	-10.7444
ጻወተ	-10.7445
▁ምስግና	-10.7446
▁ሓሳብካ	-10.7447
▁ታሪኽና	-10.7451
▁ክቐ	-10.7452
▁በብእዋኑ	-10.7452
▁ሶልያና	-10.7452
▁ተሳኢኑ	-10.7455
▁ፍጻመታት	-10.7457
▁እማ	-10.7457
▁ኣይክት	-10.7458
ማዕብል	-10.7459
▁ታንክስ	-10.746
ب	-10.746
ምራ	-10.7464
▁ምትእምማን	-10.7465
▁ዘሎኹ	-10.7468
▁መቐጸልታ	-10.7468
▁ጽዋእ	-10.7469
▁ተኸታታሊ	-10.7469
▁ንዝኾነ	-10.7472
▁ከምዘይብሉ	-10.7475
▁ኣጻ	-10.7475
▁ኣሸ	-10.7483
▁ፅብቅ	-10.7485
▁ሩፍታ	-10.7486
▁መሃሪት	-10.7487
▁ትምህርተይ	-10.7487
▁ተሰሚዑኒ	-10.7488
ምል	-10.7489
ስዕ	-10.749
▁በኣ	-10.7492
ተሎ	-10.7493
▁ገበናት	-10.7493
▁ኣምሲ	-10.7495
ጥፋ	-10.7496
ዋስ	-10.7496
በልኩም	-10.7497
ላብ	-10.7499
ርዑ	-10.7501
ለስ	-10.7501
▁ሳዕቤናት	-10.7502
▁ተኽለሃይማኖት	-10.7502
▁ብዝተፈላለዩ	-10.7502
▁ቊጠባዊ	-10.7505
▁ዕቤት	-10.7506
▁ዘርኣይ	-10.7509
▁ኣይዞ	-10.7511
▁ምዃንካ	-10.7512
▁ማዓት	-10.7513
▁ሓዝ	-10.7516
ቃሕ	-10.7517
▁ኢሞ	-10.7518
▁ስነጥበባውያን	-10.7518
ምባ	-10.7519
ሕልፍ	-10.7521
▁መሃሪ	-10.7522
ዳሃብ	-10.7526
▁አቤት	-10.7531
▁ዓቕሙ	-10.7532
▁ምሓዝ	-10.7533
▁መመረቕታ	-10.7535
▁ፓኪስታን	-10.7535
▁ኣድናቖት	-10.7535
▁ፈጻሚ	-10.7535
ኣኒ	-10.7535
▁ዕሸል	-10.7536
▁ብማይ	-10.7537
▁ንምን	-10.754
▁ጥርዚ	-10.754
▁እዝጊ	-10.754
▁ሻም	-10.7541
ወግ	-10.7542
▁ከምጽእ	-10.7543
ፈጸመ	-10.7544
▁ምጹ	-10.7548
▁ኣደዳ	-10.7549
▁ከበሳ	-10.7549
ጵ	-10.755
▁ፊል	-10.7551
▁ክትርኢ	-10.7552
▁ዓማዊል	-10.7552
ጻጺ	-10.7553
▁ምሕታት	-10.7558
እዝ	-10.756
▁ሰሌዳ	-10.756
▁ግደይ	-10.756
▁ዳአ	-10.7562
▁ሃስያ	-10.7564
ርፊ	-10.7564
▁መሐ	-10.7568
▁ዝተሰመዓና	-10.7569
▁ጓላ	-10.7569
ጅምር	-10.7571
▁ክሊማ	-10.7578
▁ብስላም	-10.7579
▁መጺአ	-10.7579
▁ስለዝኮነ	-10.758
ንብር	-10.7581
▁ክንሰምዕ	-10.7583
ሃሃ	-10.7584
▁ገበነኛ	-10.7585
▁ሳዕቤኑ	-10.7585
▁ገላ	-10.7586
ሎት	-10.7586
▁ቤቶም	-10.7588
▁ምልላይ	-10.7589
▁ካርታ	-10.7591
▁ሪኢና	-10.7591
ርገ	-10.7594
▁ትጻረፉ	-10.7596
ረጽ	-10.7599
ሰበ	-10.7599
▁ነመስግነካ	-10.7607
▁ዝተጸ	-10.7608
▁ዝተወልደ	-10.7619
▁ኣህጉር	-10.762
ዲኡ	-10.762
ጀር	-10.7621
ብላዕ	-10.7621
▁ክትቅ	-10.7622
▁እመት	-10.7624
ገርም	-10.7624
▁ንስካስ	-10.7633
ቀስ	-10.7633
▁ተኸሰስቲ	-10.7636
▁ብካልእ	-10.7637
▁ሆላንድ	-10.7637
▁ኣቦኣ	-10.7638
▁ስወድህ	-10.7638
ኣክል	-10.7639
▁ዝጎ	-10.7639
ከይድ	-10.7639
▁ሰሚዑ	-10.764
▁መሸ	-10.764
መለስ	-10.7641
▁ኮለ	-10.7642
▁ኣይከኣልን	-10.7643
▁ምጉ	-10.7645
▁ቀለም	-10.7646
▁ርግኣት	-10.7648
▁ወደብ	-10.7649
▁ዝሕብሩ	-10.7658
▁ሙዚክ	-10.7659
▁ብቅ	-10.7664
▁ቀጸለ	-10.7664
▁ዘይፈልጡ	-10.7665
▁ዝሰምዕ	-10.7668
▁መጉዳእቲ	-10.767
▁ቀታሊ	-10.7672
ኻኽ	-10.7672
▁ኣዋጅ	-10.7676
▁ሌባ	-10.7678
▁ኢሂ	-10.7679
▁ዘኽ	-10.7682
▁ፈል	-10.7682
▁ረብሓታት	-10.7683
ድገም	-10.7683
ኣልና	-10.7686
▁ክዳውንቲ	-10.7687
ፍላ	-10.7687
ኽና	-10.7688
▁2007	-10.7688
▁ገሪ	-10.7688
▁ከእ	-10.7689
▁ሕን	-10.7692
▁ኣቀ	-10.7692
ረድኣ	-10.7696
ጽሉ	-10.7697
ተለ	-10.7697
▁በሪኽ	-10.7699
እተ	-10.7704
▁ብቅዓት	-10.7706
27	-10.7706
▁ብድምር	-10.7706
ዛረቦ	-10.7709
▁ዝተርፍ	-10.7709
▁ሙሉ	-10.771
ብዝሕ	-10.7714
▁ህይወትካ	-10.7714
▁ትማል	-10.7717
ስእን	-10.7718
▁መከላኸሊ	-10.7721
ጥሪ	-10.7721
▁ገጸይ	-10.7722
ሰርሐ	-10.7726
ቐይ	-10.7728
▁ትሪ	-10.7729
▁ዘካየደ	-10.7731
ሠ	-10.7732
▁ኢላትኒ	-10.7735
ካር	-10.7736
▁መወ	-10.7737
▁ሃገራ	-10.7737
▁እንዳበለ	-10.7738
▁ጥሜት	-10.7738
ጠፍኣ	-10.7738
▁ብሓዊ	-10.7739
▁ዕቱብ	-10.7739
▁ፈሊጡ	-10.774
▁ሂወትና	-10.7741
▁ንነብስኻ	-10.7743
ገና	-10.7743
ፆ	-10.7746
ልኻ	-10.7746
▁ኣውጺኡ	-10.7749
ማእ	-10.7749
▁ዕድሜ	-10.775
ላኽ	-10.775
▁ዝጸንሕ	-10.775
▁ብምት	-10.7751
▁ገድ	-10.7752
▁ኤሩ	-10.7758
▁07	-10.7759
▁2004	-10.7759
▁መንነትና	-10.776
▁ዋልታ	-10.776
▁ዘካየድዎ	-10.776
ስርሕ	-10.7761
▁ጸበባ	-10.7762
▁ሰባይ	-10.7764
ባሃል	-10.7769
ጠባ	-10.777
▁ብሄራት	-10.777
▁ስኢኑ	-10.7772
▁ሕርቃን	-10.7772
▁ፎዝያ	-10.7773
መሃር	-10.7773
▁ማኣ	-10.7775
▁ሞጎስን	-10.7775
ንቁ	-10.7775
▁ደላዪ	-10.7776
▁ከምዝግባእ	-10.7776
▁ዝተገልጸ	-10.7777
ሊም	-10.7787
ጥምት	-10.7788
▁ብቕልጡፍ	-10.7789
▁ኣስቤኮ	-10.7789
▁ስሚ	-10.7789
▁በሃልቲ	-10.779
▁ይሃቦም	-10.7791
ኸፍ	-10.7793
ጎል	-10.7795
▁ደራፊ	-10.7797
00	-10.7798
ጽሩ	-10.7799
▁ኣጸ	-10.7801
ኩሙና	-10.7804
▁ተዛረበ	-10.7805
▁ዝተባህሉ	-10.7806
▁ግዱሳት	-10.7807
ر	-10.7808
▁ንምው	-10.781
▁ኣዴታትና	-10.781
ሙሉ	-10.7817
ስዎ	-10.7817
▁ኰን	-10.7818
▁ረስኒ	-10.7821
▁መሮር	-10.7824
ተወ	-10.7828
▁ረኺበዮ	-10.7828
▁ነብስ	-10.7829
▁ክንድኡ	-10.783
ሊና	-10.7831
▁ጸሓፍቲ	-10.7831
▁ብሉ	-10.7832
▁በጺሓ	-10.7834
▁ገጽኩም	-10.7836
▁ምኻን	-10.7839
_	-10.784
▁ብሰፊሑ	-10.7841
▁ዕጽፊ	-10.7841
ዲት	-10.7843
ጻት	-10.7845
▁ኣኮ	-10.7845
ጥብ	-10.7849
▁ትግረኛ	-10.7853
ፈትዎ	-10.7855
▁ዝገበርዎ	-10.7855
▁ቅልጥፍ	-10.7858
▁ዳዕሽ	-10.7858
ገበሩ	-10.7859
▁ገበናዊ	-10.7859
▁በዳ	-10.786
▁ኣውራ	-10.7861
ነቕ	-10.7862
ጀመረ	-10.7867
▁እናመ	-10.7872
▁ዉሽጢ	-10.7876
▁ብምሉኡ	-10.7876
▁ናት	-10.7878
▁ምስክርነት	-10.7878
▁ብሱል	-10.7885
▁ዘይትብል	-10.7886
ስተን	-10.7886
▁ይክእል	-10.7886
▁ብሩር	-10.7889
▁ተብ	-10.789
▁ንሎሚ	-10.7894
▁ተለፎን	-10.7894
ዩም	-10.7895
ቀሉ	-10.79
▁ወለላ	-10.79
ሩኒ	-10.7902
ሓቶ	-10.7905
▁ቂ	-10.7908
ለበ	-10.7909
▁ተኸሳሲት	-10.791
▁ለኽባጥ	-10.791
▁ንህይወት	-10.7911
▁ቀቢላ	-10.7911
▁ንምፍታሕ	-10.7912
▁ቓላት	-10.7912
▁ዲሞክራሲ	-10.7914
▁ምድሓን	-10.7915
▁ኢኽን	-10.7915
ካየደ	-10.7917
▁ዓብይ	-10.7919
▁ደርሁ	-10.7919
▁ገይ	-10.792
▁ደቃሉ	-10.7922
▁ሱሌማን	-10.7928
▁ጌርኪ	-10.7928
▁ኦሮታ	-10.7928
▁ሓይሉ	-10.793
▁ዝሓለፋ	-10.7931
▁እንተሃልዩ	-10.7935
▁እዋ	-10.7937
ሮሞ	-10.7938
▁ዝያዳይ	-10.7938
▁ብሓሶት	-10.7945
በኪ	-10.7945
▁ፕላ	-10.7948
▁ይዝ	-10.7954
ሰራሕ	-10.7954
▁ጀማሪ	-10.7958
ጥቅ	-10.7958
▁ክንሰርሕ	-10.7959
ብጥ	-10.7959
▁ሑጻ	-10.7961
ባባ	-10.7962
▁ሚልዮናት	-10.7963
▁ኣመጋግባ	-10.7963
▁መቐ	-10.7963
▁ኮምሽን	-10.7964
▁ገፊሕ	-10.7965
▁ጸኒሕና	-10.7968
▁ይኸ	-10.7971
▁ስርቂ	-10.7974
ቤል	-10.7978
መንት	-10.798
▁ሓበሬታን	-10.798
ጥና	-10.7981
▁ዚነብሩ	-10.7985
▁ተዳ	-10.7986
▁ተክ	-10.7988
▁ልምድታት	-10.799
ሃሉ	-10.7991
▁ኣጽኒ	-10.7991
ሳቀ	-10.7993
▁ክኸዉን	-10.7993
▁ክጠፍእ	-10.7997
▁ጉድጓድ	-10.7998
▁ሃተፍተፍ	-10.7998
▁ኣይተርፍን	-10.7998
▁መጽናዕትታት	-10.7999
▁ኣምሓርኛ	-10.8001
▁ዘይብልካ	-10.8001
▁ኣቐዲመ	-10.8002
▁ክእለትን	-10.8006
▁ኣርሓ	-10.8006
▁አሰ	-10.8006
▁ግደፍዎ	-10.8006
ድሊ	-10.8007
▁ፎቶ	-10.8007
▁የምት	-10.8008
▁ዝደልዮ	-10.8009
▁ኑክሌሳዊ	-10.8015
▁መረት	-10.8018
▁ውዱእ	-10.8019
ዓላ	-10.802
▁ርእስ	-10.8026
ፈልጣ	-10.8028
▁ንጥ	-10.8029
▁ዝር	-10.803
ይኑ	-10.803
▁ዝሰርሓ	-10.8033
▁ጕዳይ	-10.8033
▁አማ	-10.8033
▁ቅድስቲ	-10.8034
▁ደጀን	-10.8034
ከታተል	-10.8035
ልሽ	-10.8038
▁መብሬ	-10.8038
▁ባእታ	-10.8039
ያል	-10.804
▁ክንዮ	-10.8041
▁ምሳ	-10.8042
ከዉን	-10.8048
▁ከማኪ	-10.805
▁ሃማደኤ	-10.805
▁ንነፍሲ	-10.805
▁ወጽ	-10.8051
▁ብገለ	-10.8053
▁ንዓመታት	-10.8053
▁ገዲፈ	-10.8054
▁ፍቕራዊ	-10.8057
ዘመ	-10.8057
▁እብረ	-10.8057
ጥፋእ	-10.8058
▁ሕር	-10.806
ኢልካ	-10.806
▁ቪላ	-10.8062
▁ዓለ	-10.8062
▁ሜላታት	-10.8063
▁ብምዃኖም	-10.8068
▁ባጤራ	-10.8068
▁ውዒሉ	-10.8068
▁ኣረዲኦም	-10.8068
▁ፅቡቕ	-10.8068
▁ኣማኻሪ	-10.8068
▁እምቢ	-10.8069
▁ቓ	-10.807
▁ስድራቤታት	-10.8071
▁ንፍዓት	-10.8071
▁ቅንኢ	-10.8071
▁ገርና	-10.8072
▁ሴፍ	-10.8073
▁ነገድ	-10.8077
▁ዝበለጸት	-10.8081
ድሩ	-10.8081
▁ማዕዶ	-10.8083
▁ክስዕ	-10.8084
ኤርትራ	-10.8085
▁ሚልክያስ	-10.8086
▁ተዋሳኣይ	-10.8086
▁ምስትውዓል	-10.8086
▁ክወሃብ	-10.8087
▁እትሕተም	-10.8087
▁ዝክእል	-10.8088
ልጥ	-10.8089
ውዓል	-10.8091
▁የመልክት	-10.8094
▁ኣሎኻ	-10.8097
▁መዓላ	-10.8099
ትብል	-10.8101
▁ኣይኮነ	-10.8102
▁ሐቴ	-10.8104
▁የዋርስካ	-10.8104
▁ይዅን	-10.8106
▁ታሪኹ	-10.8107
▁ሓቅ	-10.8107
▁ይፍጠረሎም	-10.8107
▁እንተዘይተ	-10.8108
ማዓ	-10.8109
▁ናህሪ	-10.8109
ሳነ	-10.811
▁እንድዮም	-10.8112
▁ምበልኩ	-10.8114
ድሪ	-10.8119
▁ምትሕልላፍ	-10.8121
▁ሰረቅቲ	-10.8121
ኽም	-10.8127
ኣም	-10.8127
ሚት	-10.813
▁ዘይመ	-10.8137
▁ትምህርታ	-10.8138
▁ፍልይቲ	-10.8138
ዕዘቦ	-10.8138
▁ብምዃና	-10.8139
▁ሓሳዳት	-10.8139
ደሙ	-10.8141
▁ንንጉስ	-10.8141
▁ርጉም	-10.8142
ጽካ	-10.8142
▁ስዒቡ	-10.8143
ሳር	-10.8146
ውዳእ	-10.8147
መጣ	-10.8148
▁ምብላዕ	-10.815
▁ዝተፈልየ	-10.8153
▁እናሓ	-10.8155
ህቦም	-10.8155
▁ሓል	-10.8155
ዳህ	-10.8156
▁ምፍጻም	-10.8157
▁ውሕሉል	-10.8157
▁ሓንሳእ	-10.8157
▁ኣሊ	-10.8158
▁መቀለ	-10.8159
ጽዮን	-10.816
▁ንሰባት	-10.8161
ጻረ	-10.8162
▁ዓይን	-10.8163
▁እንኽእል	-10.8164
▁ብርኪ	-10.8164
▁ኲሎም	-10.8168
▁ሓሲበ	-10.8169
▁ዮኒ	-10.8172
▁ጾ	-10.8173
▁ማሕላ	-10.8174
▁መጥባሕቲ	-10.8174
▁ገጠራት	-10.8174
▁ኮሚቴ	-10.8175
▁ጽዒ	-10.8175
▁ኢንዳ	-10.8177
▁ዘይከኣለ	-10.8177
▁ትብላ	-10.818
▁ተዋህዶ	-10.8182
ኣምኑ	-10.8185
ገራ	-10.819
▁ጋማ	-10.8191
▁ሰለዚ	-10.8191
▁ስልጣነ	-10.8192
▁ኣቕሪቡ	-10.8192
▁ህዝባን	-10.8193
▁በየናይ	-10.8195
▁ባድመ	-10.8197
▁የመ	-10.8197
▁ቅጭ	-10.8201
▁አዲ	-10.8201
▁ካህናት	-10.8202
▁ሰብነት	-10.8205
▁ሕጂስ	-10.8207
▁ኮና	-10.8207
▁ኪፍ	-10.8208
▁ትብልዎ	-10.821
ቨን	-10.8211
▁ኣግኣዝያን	-10.8212
በየ	-10.8213
ኢና	-10.8213
▁ኣርጀንቲና	-10.8218
ፍጽም	-10.8225
ፈለጥ	-10.8225
▁ከር	-10.8227
▁ኣውቶቡሳት	-10.8228
▁ዝኸበርካ	-10.8229
ጋስ	-10.8229
ኖት	-10.8231
▁ምዓልቲ	-10.8233
▁ካልኢትን	-10.8233
▁ፔ	-10.8234
▁ሓብ	-10.8235
▁ሲነማ	-10.8236
▁ዝፈተ	-10.8236
▁ምክንያት	-10.8236
ይታ	-10.8237
▁ክትህብ	-10.8242
▁ሰብኣያ	-10.8244
▁ብሳ	-10.8245
ግህ	-10.8246
▁ፅብቅቲ	-10.8246
▁ትምኒተይ	-10.8246
▁ፓሪስ	-10.8247
▁ምካን	-10.8247
▁2005	-10.825
▁ኽኣ	-10.825
ሰርሖ	-10.8253
ተተ	-10.8254
▁ነፍሰ	-10.8255
▁ምጥቃዕ	-10.8255
▁እንዳበልካ	-10.8256
ዓመ	-10.8258
▁ኮይን	-10.826
ጥፍኦ	-10.8262
▁ዝንገረሉ	-10.8264
▁ቀዋሚ	-10.8264
▁ዳናይት	-10.8264
▁ጀበርቲ	-10.8265
▁ኣማኢት	-10.8265
▁እተካይዶ	-10.8267
ብጽሓ	-10.8268
ረዳ	-10.8268
▁መክሰብ	-10.8269
▁ዝተኣሳሰር	-10.8271
ፈጠረ	-10.8275
ጋሩ	-10.8277
▁ኪንዮ	-10.8282
▁ዝሰምዓ	-10.8283
▁ኣቢይ	-10.8284
ስያ	-10.8287
ዕወት	-10.8288
▁ፊፋ	-10.8289
▁ትድ	-10.829
▁ተሓቢ	-10.8291
▁ክምዚ	-10.8292
▁ዘረጋግጽ	-10.8294
▁ጸሪ	-10.8294
ጻዕ	-10.8295
▁ንበረልና	-10.8299
▁ሔ	-10.83
▁ኣጸጋሚ	-10.83
▁ብምህላዉ	-10.83
▁ኣመሓደርቲ	-10.83
▁ንምድሓን	-10.8301
▁ትበል	-10.8301
▁ኣድም	-10.8302
▁ብናጻ	-10.8302
ርይ	-10.8303
▁መግብታት	-10.8304
ዕሊ	-10.8307
ግቦ	-10.8307
ምንታይ	-10.8308
▁ክጅምር	-10.8309
ርዳእ	-10.8311
▁በልና	-10.8312
▁ኣከ	-10.8312
▁ብሓጎስ	-10.8316
ክለ	-10.8316
▁ዝህልዎ	-10.8316
▁ባእሲ	-10.8316
ፈትዋ	-10.8316
▁ኣፍዓበት	-10.8318
▁ድንኳን	-10.8318
▁ውዑይ	-10.8318
▁ሓሙሻይ	-10.8318
▁ኣማኒኤል	-10.8319
▁ዝበልካ	-10.8321
▁ደቀባት	-10.8321
▁ትበ	-10.8326
▁ምዕራባዊ	-10.8328
▁ከው	-10.8329
ርኣያ	-10.8331
ርዶ	-10.8332
▁መታ	-10.8332
▁ፍል	-10.8333
▁ዓበይትን	-10.8336
▁ከይሓ	-10.8338
ኮት	-10.8338
ረጹ	-10.8339
▁ቅድመይ	-10.8341
ተራት	-10.8343
ቋርጽ	-10.8343
▁ብዕዳ	-10.8344
ማመ	-10.8345
▁ደሪፍ	-10.8347
▁ድሙቕ	-10.8348
ምኩም	-10.835
ግዛእ	-10.8351
▁ተባሂላ	-10.8354
▁መምሃሪ	-10.8355
▁ብቁ	-10.8355
▁በረከት	-10.8355
▁ትግራ	-10.8355
▁መስተን	-10.8358
▁ሓሰን	-10.8358
▁ኣበለ	-10.8359
▁ሳብ	-10.8363
▁ይግባይ	-10.8363
▁ጎን	-10.8364
▁ካአ	-10.8365
▁ዘተባብዕ	-10.8369
▁ክህ	-10.837
▁ሃገሩን	-10.8372
▁ስውእ	-10.8373
▁ዝመጸት	-10.8376
▁ጉዳዩ	-10.8378
▁አዚኣ	-10.838
ገቡ	-10.8381
ዓዊ	-10.8382
▁ጥበብን	-10.8385
▁ክብለኪ	-10.8387
ሰላም	-10.8387
ሐፍ	-10.8387
▁ብምምዝጋብ	-10.8391
▁ኣይንኽእልን	-10.8391
▁ንታሕቲ	-10.8391
▁ተረፈ	-10.8391
▁ጽፍሒ	-10.8392
▁ክስተት	-10.8394
▁ኬድካ	-10.8394
▁ውሽጥኻ	-10.8397
▁ምዓስ	-10.8402
▁ሂብና	-10.8402
▁ወሲ	-10.8403
▁ከምዘለዎም	-10.8403
▁ስምካ	-10.8404
ቅርብ	-10.8405
▁ንፋ	-10.8405
▁ከዳ	-10.8406
ቡኡ	-10.8408
ኽቲ	-10.8409
▁ንጉሆ	-10.841
▁ምጽዋት	-10.8411
▁ዝበልዎ	-10.8413
ቡን	-10.8415
▁መፃ	-10.8419
ዛረባ	-10.842
▁ፍት	-10.842
▁ተጓ	-10.8421
▁በሃሊ	-10.8425
▁ደፊ	-10.8425
ስሕቕ	-10.8427
▁ክምስ	-10.8428
ሓስቦ	-10.8428
▁ጎደሎ	-10.8429
▁ንነብሰይ	-10.8431
▁ወላዲትና	-10.8434
▁አግ	-10.8435
▁ዝተላዕለ	-10.8435
▁ይፈ	-10.844
በድ	-10.8443
▁ዋሕዚ	-10.8446
▁ንምሕያል	-10.8446
▁ጠለባት	-10.8446
▁ዮኤል	-10.8451
▁ሓቅነት	-10.8454
▁ትደርፍ	-10.8454
▁ደቅዛ	-10.8457
ፍሉ	-10.846
▁እግር	-10.8463
▁ኮፒ	-10.8464
▁ፊደላት	-10.8464
▁ዕሽነት	-10.8464
ዕልል	-10.8465
ዘዘ	-10.8465
▁ኣሻ	-10.8466
▁ዝወደ	-10.8471
ግበረ	-10.8473
▁ጎድ	-10.8476
ጅም	-10.8476
ውዕሎ	-10.8479
ልኡ	-10.8482
▁ሊቃውንቲ	-10.8482
▁መዳርግቲ	-10.8482
▁ሚሳይል	-10.8482
ቃዕ	-10.8488
▁ኣፍሪ	-10.8488
ረዲ	-10.8488
▁ምክሪ	-10.8493
ፋፊ	-10.8493
በልኩ	-10.8494
▁ብኢድ	-10.8494
ብገስ	-10.8499
▁ፓላስ	-10.8502
ልቢ	-10.8507
▁ኣቢልና	-10.8508
▁ተዓዋቲ	-10.8509
ቃወም	-10.851
ጥካ	-10.8513
▁ንከይ	-10.8517
ጥበ	-10.8517
▁ከምኣ	-10.8517
ኽእሉ	-10.8519
▁ገብረልዑል	-10.8519
▁ዝብላዕ	-10.852
▁ለሰ	-10.8521
▁ቅረብ	-10.8524
▁ሕልም	-10.8525
▁አቱም	-10.8525
▁ንሓቂ	-10.8526
ምህሩ	-10.8529
▁ፖሎቲካ	-10.853
▁ከባቢኡ	-10.8531
▁አዲስ	-10.8534
ረብሕ	-10.8535
ረኽብ	-10.8536
▁ወተሃደር	-10.8538
▁ህጹጽ	-10.8538
▁ፉሉይ	-10.8538
▁ዘድንቀካ	-10.854
ሳእ	-10.854
▁ኢድና	-10.854
ጮ	-10.8541
▁ዑፍ	-10.8542
▁ፍትውትው	-10.8543
▁አለዋ	-10.8543
▁ብላሽ	-10.8546
▁ዝተዋ	-10.8547
▁ወጺኦም	-10.8547
▁ኢደ	-10.8551
እኩ	-10.8556
ፈጥር	-10.8556
▁ሃብታማት	-10.8556
▁ቀጠልያ	-10.8557
▁ስለዝደለኹ	-10.8557
▁ዓረ	-10.8559
ዀኑ	-10.8559
▁ባዕልካ	-10.8562
ፍዎ	-10.8562
▁ከብቅዕ	-10.8564
▁የብልክን	-10.8564
▁ዚኸውን	-10.8566
ሓሰ	-10.8567
▁ዝነበረሉ	-10.8568
▁ግም	-10.8569
ይድ	-10.8572
▁አቢ	-10.8574
ብኣ	-10.8574
▁ትሓስብ	-10.8574
▁ጠቕላላ	-10.8575
▁ዌልካም	-10.8575
▁ብዝበለጸ	-10.8579
▁ነዝ	-10.858
▁ኦሪት	-10.858
ዘንቱ	-10.8586
50	-10.8586
▁ንሞት	-10.8588
▁ዘይተርፍ	-10.8589
ጲ	-10.8593
▁እንተረኺቡ	-10.8593
ደካ	-10.8594
▁ዓማጺ	-10.8595
▁44	-10.8595
▁አንበሳ	-10.8598
ሰቡ	-10.8601
እትዎ	-10.8602
▁መጻእ	-10.8602
ጺር	-10.8606
ሃቦ	-10.8609
▁ኣልኣዛር	-10.8612
▁ፈጺመ	-10.8612
▁ተሞክሮ	-10.8612
▁ወልደማርያም	-10.8612
▁ወሊዳ	-10.8612
▁መዓልትታት	-10.8613
▁ይፍጠረልኩም	-10.8614
▁ብዓረብ	-10.8615
▁ጥዑምዝጊ	-10.8616
ርዳኣ	-10.8616
▁ሓታቲ	-10.8617
ዩና	-10.8617
ይሩ	-10.8617
▁ኣጅ	-10.862
▁ሪኤ	-10.8622
▁ምጽባይ	-10.8623
▁ዘካይዶ	-10.8625
▁የድልዮ	-10.8627
ቅቅ	-10.8627
▁ክግለጽ	-10.8627
▁ዋን	-10.8627
▁ቀጥ	-10.8629
▁ኣዴና	-10.8631
▁ኣንጭዋ	-10.8632
ወጹ	-10.8634
▁ወድና	-10.8635
▁ደብ	-10.8636
ልምን	-10.8636
ኛል	-10.864
ካብ	-10.8645
ረታ	-10.8646
▁ንምግላጽ	-10.8649
▁ተቖጺሩ	-10.865
▁1991	-10.865
▁ዓስቢ	-10.865
▁ምሓ	-10.8651
▁ምትላል	-10.8652
▁ኣይኮንካን	-10.8652
▁ኢሳቕ	-10.8653
▁እዝስ	-10.8657
▁ክትኣቱ	-10.8658
▁ዝገደደ	-10.8663
▁ከምኡውን	-10.8663
▁ኣጣ	-10.8667
▁ኣኽብሮት	-10.8668
▁ትክክል	-10.8669
ህና	-10.8669
ከራ	-10.8669
▁ክትክ	-10.867
ባሩ	-10.8673
▁ሓራሙ	-10.8678
ውጽኣ	-10.8679
▁ሰሚ	-10.868
እዋ	-10.868
▁ነገራ	-10.8682
▁ሃይሉ	-10.8682
▁ዘይኮኑ	-10.8683
ቅካ	-10.8684
▁ዝበዝሓ	-10.8685
ነዉ	-10.8685
▁ዝሰርሐ	-10.8687
▁ገበ	-10.8688
▁ክትበጽሕ	-10.869
ነታት	-10.8691
▁በርበረ	-10.8691
▁ድሃይ	-10.8693
ስዋእ	-10.8695
▁ቀል	-10.8696
መርጽ	-10.8697
▁ኣብየት	-10.8697
ደነ	-10.8699
ምጻ	-10.8701
ጼ	-10.8701
▁ዓይና	-10.8701
▁ጉል	-10.8703
▁ምምራሕ	-10.8705
▁ፌስቲቫል	-10.8706
▁መመሊሱ	-10.8706
▁ጥርጣረ	-10.8706
▁ሃመማ	-10.8706
▁ፍትወት	-10.8706
▁ምድራፍ	-10.8709
▁የኤርትራ	-10.8709
▁አለኩም	-10.8712
▁ሪአ	-10.8713
▁ይበ	-10.8715
▁ፈላሚ	-10.8716
▁ማሪ	-10.8716
▁ይት	-10.8719
▁ብልሓት	-10.872
▁ኤሬይ	-10.8722
▁ባእታታት	-10.8724
▁ኣርኢ	-10.8724
▁ደቂተባዕትዮ	-10.8724
▁ሶፍያ	-10.8725
▁ከምዝዓጸና	-10.8725
▁ንብሎ	-10.8726
▁አማራ	-10.8726
ልወ	-10.8727
▁ዝወርድ	-10.8728
▁ፍወሳ	-10.8729
ደበ	-10.873
▁ንቐ	-10.8731
▁ክፈጥር	-10.8732
▁ድሕርዚ	-10.8734
▁ይነብሩ	-10.8737
▁ዝተደ	-10.8737
▁ድላይ	-10.8739
ሃላ	-10.8739
▁ንኸተ	-10.8742
▁መዓልትን	-10.8742
▁ውቅያኖስ	-10.8743
▁ይበጽሕ	-10.8744
▁በይን	-10.8745
▁ዘይምኖ	-10.8747
▁ይጠ	-10.8747
▁ዝተሰነየ	-10.8747
▁መዓርፎ	-10.8748
▁ዳን	-10.875
ጸርፍ	-10.8752
▁ምልስ	-10.8752
ብዓ	-10.8754
ብት	-10.8758
▁በጻሕቲ	-10.8762
▁ኣጋንንቲ	-10.8762
▁ኣይኰኑን	-10.8762
▁ኢንጅነር	-10.8762
ድየ	-10.8763
▁ኖሆም	-10.8763
▁ዘበነ	-10.8764
▁ትግር	-10.8764
▁ኮመንቲ	-10.8767
▁ተስፋዝጊ	-10.8771
▁ክስራሕ	-10.8773
▁ጠላማት	-10.8782
▁ይዕድም	-10.8782
▁ኻህን	-10.8782
▁ከሙ	-10.879
▁ክዕወት	-10.879
▁ብምል	-10.8793
ብእ	-10.8793
ጽዎ	-10.8796
▁ሓዘ	-10.8796
▁ሉል	-10.8796
ኞ	-10.8797
ጥፍ	-10.8802
▁እሾኽ	-10.8802
▁ከበሮ	-10.8802
▁ከይበለ	-10.8806
▁በረራ	-10.8809
ቓት	-10.881
ክሊ	-10.881
▁ኮይንና	-10.8813
ጸና	-10.8814
▁ገብአ	-10.8815
▁ዊን	-10.8815
ኽዋ	-10.8816
▁ከማኺ	-10.8817
▁ነገደ	-10.8818
▁ኣውደኣመት	-10.8819
▁ሕጋውያን	-10.8819
ዘና	-10.882
▁ምራ	-10.8822
ስጉም	-10.8822
ለዩ	-10.8825
▁ኣካይዱ	-10.8825
▁እሎም	-10.8826
▁ጥቕሲ	-10.8826
ዕዎ	-10.8828
በተ	-10.8832
▁ንዕኦም	-10.8834
ለሙ	-10.8835
▁ረጊ	-10.8837
ድመ	-10.8838
▁ወሃብቲ	-10.8838
▁ሓላው	-10.8839
▁ዕድሚኡ	-10.8841
▁ብሌን	-10.8842
▁ከፋሊ	-10.8843
▁ደቒቕን	-10.8851
ርጽ	-10.8857
▁ኣዛሚት	-10.8858
▁ጽብ	-10.8859
▁መንግስ	-10.8862
▁እናዓበየ	-10.8862
ብኡ	-10.8863
▁ከምዘየ	-10.8867
ጠጥ	-10.8867
ተየ	-10.887
▁ወሰደ	-10.8871
▁ይግበረልካ	-10.8872
ርዮ	-10.8872
▁ሀብ	-10.8872
▁ክትዕወት	-10.8873
▁ሕድ	-10.8874
▁ብምግ	-10.8875
▁መሻርኽቲ	-10.8876
▁መርሐባ	-10.8877
▁ኣንተ	-10.8879
ርእዮም	-10.8879
▁ናብቶም	-10.888
▁አጆኻ	-10.8881
ለቅ	-10.8882
ነግር	-10.8883
ወሩ	-10.8883
ኣሎ	-10.8886
▁ኣምሓራ	-10.8887
▁ኣቐ	-10.8888
ከዱ	-10.8889
▁መኻ	-10.889
▁ውጻእ	-10.8892
▁ሰበይትን	-10.8893
▁ዝረኣዩ	-10.8896
▁ክመውት	-10.8896
▁ዘቃበርኩምናን	-10.8898
▁ግብራዊ	-10.89
▁እር	-10.8902
▁ንኣኻ	-10.8902
▁ዝዛረቡ	-10.8903
▁በራኪ	-10.8906
▁ዕላማታት	-10.8908
▁ከብድካ	-10.8911
የኩም	-10.8913
▁ንእት	-10.8913
▁ንምዕቃብ	-10.8915
▁ገሊ	-10.8917
▁ልደትን	-10.8918
▁ንሲ	-10.8919
▁ባልዕ	-10.892
▁ደመ	-10.892
▁ምእማን	-10.8921
▁ከዓ	-10.8921
▁ይክ	-10.8922
ትክን	-10.8922
▁ብዓልቲ	-10.8923
ሓባ	-10.8924
▁ሜዳኣ	-10.8932
▁ሰገነይቲ	-10.8934
▁ኣካላቱ	-10.8934
መላለሱ	-10.8935
▁ብሐቂ	-10.8935
▁ቬ	-10.8936
ሳቐ	-10.8939
▁ሓሳቡ	-10.8939
▁ጥበባት	-10.8942
ድኡ	-10.8943
▁ትሽ	-10.8945
▁ስደተኛ	-10.895
ቀትል	-10.895
▁ክኢለ	-10.895
▁ክገብራ	-10.8952
▁ብዘረባ	-10.8955
▁ሜትር	-10.8956
ፍቅር	-10.8957
▁ጽርግያታት	-10.8958
▁ዕምባባ	-10.8961
ርዝ	-10.8962
ረቱ	-10.8962
▁ጸል	-10.8963
▁ህቡብ	-10.8964
▁መደብካ	-10.8964
▁እዝን	-10.8967
▁ስትራተጂ	-10.8968
▁ኣይከኣለትን	-10.8973
▁ማሓ	-10.8973
▁ዳግመ	-10.8974
▁ዝኮኑ	-10.8975
ተኛታት	-10.8976
ጋጥም	-10.8976
ምድ	-10.8977
▁ኣብነታዊ	-10.8979
▁ደጊሙ	-10.8979
▁ውሱን	-10.8979
▁ሓቲቱ	-10.8979
▁ምልእቲ	-10.8981
▁ሰረት	-10.8981
ደልዮ	-10.8981
▁ዄንካ	-10.8992
▁ፕሮግራም	-10.8992
▁ዘይክእሉ	-10.8994
▁ባሕ	-10.8996
▁ዘይኣ	-10.9001
ኮኖ	-10.9006
▁ይጸ	-10.901
ዥ	-10.9011
▁በቒዑ	-10.9011
▁ጸጸራት	-10.9011
ዓቱ	-10.9011
▁ንጹሃት	-10.9012
▁ጠዓመ	-10.9015
▁ከዕ	-10.9015
▁ትምህርት	-10.9016
ገብረሉ	-10.9018
▁ሓጂ	-10.902
▁ለም	-10.902
ርሁ	-10.9024
▁ሓሳድ	-10.9024
ጠበ	-10.9024
ንብቦ	-10.9025
ልቦ	-10.9028
▁ክብለኩም	-10.9029
▁ቤትካ	-10.903
ድነ	-10.903
▁ክንነብር	-10.9031
▁ብጌጋ	-10.9031
▁ነፊ	-10.9031
▁ብልዒ	-10.9033
▁ቀንየ	-10.9034
መለ	-10.9036
ትትት	-10.9036
▁ብፍቅሪ	-10.9036
▁ገበል	-10.9038
ዓበ	-10.9038
ርስዖ	-10.9039
ሲስ	-10.9039
▁ፈለጥ	-10.904
▁ጅሮም	-10.904
▁ብምቕ	-10.9042
ኣተወ	-10.9045
ምለሱ	-10.9045
▁ሓይልን	-10.9046
▁ዋጣ	-10.9047
ጉሱ	-10.9047
▁አረይ	-10.9048
▁ህልው	-10.9048
▁መጽናዕታዊ	-10.905
▁ዕዱማት	-10.905
▁ተዓዊቱ	-10.905
▁ዘሎኻ	-10.905
▁ሱፐር	-10.9051
ዀነ	-10.9057
ስኮ	-10.9058
▁ደረስቲ	-10.9058
ርዋ	-10.9058
ልወጥ	-10.9058
▁ال	-10.9061
▁የዋርሶም	-10.9065
▁ካላ	-10.9066
▁ከንቱ	-10.9066
በርክት	-10.9066
▁ኢንዱስትሪ	-10.9068
▁ሰልጠንቲ	-10.907
▁ንጥዕና	-10.9071
ታሪ	-10.9072
ፈኒ	-10.9075
▁የመስግነካ	-10.9076
▁ውሽጥና	-10.9077
▁ዘርአ	-10.9087
ሮስ	-10.9089
▁ንምፍጣር	-10.9089
▁ምዕባለታት	-10.909
▁54	-10.9091
ጸንሕ	-10.9092
▁ከሕ	-10.9096
▁ምኾነ	-10.9097
▁ክሻ	-10.91
▁ኩላቶም	-10.9106
▁ናይተን	-10.9107
▁ድርፊ	-10.9109
▁መዐቀኒ	-10.9109
▁ምቕያር	-10.9109
ልዕል	-10.9109
ድዋ	-10.911
▁ዕማማት	-10.9111
▁ሰራየ	-10.9112
▁ሒጂ	-10.9112
ሐልፍ	-10.9113
▁ንሃቦም	-10.9113
▁ሞያን	-10.9114
ጥል	-10.9115
▁መዋቲ	-10.9115
▁መሬትን	-10.9115
▁ላኪን	-10.9116
ጅን	-10.9118
▁ነበርኩ	-10.9119
▁ምህዞ	-10.912
▁መው	-10.9122
▁ብቐ	-10.9122
ታር	-10.9124
▁ኤረትራዊ	-10.9125
ግማ	-10.9125
መለሰ	-10.9125
▁ጣዕሳ	-10.9125
▁መዐ	-10.9125
ለፉ	-10.9127
▁ንምምዕባል	-10.9128
▁ቀፅሎ	-10.9128
▁ኣሕምልቲ	-10.9128
▁ሓጺራ	-10.9128
▁ፓርሰል	-10.9129
▁ፍራንስ	-10.9129
▁ሳሚኤል	-10.9133
▁ክቅ	-10.9133
ዕርፍ	-10.9134
ሰርሓ	-10.9136
▁ማይኮ	-10.9137
▁ኣተወት	-10.9137
▁ኣሐ	-10.9138
▁ሸባብ	-10.9138
ዱን	-10.9143
▁ኣበየናይ	-10.9149
▁ነጋ	-10.9151
▁ብላ	-10.9151
▁ምሁር	-10.9153
▁ሓለፋ	-10.9155
▁ብልሒ	-10.9156
▁ሲኢና	-10.9156
▁ዝመጽአ	-10.9157
▁ትኸ	-10.9158
ገደፍ	-10.9158
▁ኣደኣ	-10.9162
ተኣ	-10.9164
▁ክትሰምዕ	-10.9166
▁ክትወስድ	-10.9167
ለኹ	-10.9167
▁ዘይውዳእ	-10.9168
▁በዲ	-10.9168
▁ምዕራባውያን	-10.9168
▁ዘዘ	-10.9169
▁ኣተዉ	-10.9169
ሌና	-10.917
▁ተቘ	-10.917
▁ዝጥዕም	-10.9171
▁ኣማልኽቲ	-10.9172
▁ተዘክሮ	-10.9172
ውለድ	-10.9172
▁ኤሪትራዊ	-10.9175
▁ቀላይ	-10.9175
▁ንግዚኡ	-10.9176
ቅበል	-10.9178
▁እል	-10.9178
ርሲ	-10.918
▁ኸደ	-10.9181
ይና	-10.9182
▁መኽ	-10.9182
ርሱ	-10.9182
▁ደራፊት	-10.9185
ዓካ	-10.9186
▁ምርድዳእ	-10.9187
▁እንተዄንካ	-10.9187
▁ሃዋህው	-10.9187
▁ኩናማ	-10.9188
▁ዝንኣድ	-10.9189
▁ብኮ	-10.9189
▁ደሙ	-10.919
▁ዝቐነየ	-10.919
ጻል	-10.9191
▁ምዝንጋዕ	-10.9192
ኮንካ	-10.9192
▁ፈጠራ	-10.9193
▁ናቸው	-10.9195
▁ኣፍሪቃን	-10.9198
ኸል	-10.9198
ጠጠ	-10.9206
▁ምምስራት	-10.9207
▁ብሄር	-10.921
▁ኩርዓት	-10.9211
▁ታክሲ	-10.9212
ካላ	-10.9212
▁ስሚዒት	-10.9213
ከሉ	-10.9213
ገመ	-10.9216
▁ክኢሎም	-10.922
▁ክትርእዮ	-10.9221
▁ነፍሒ	-10.9222
▁እዋናዊት	-10.9224
▁ዀ	-10.9224
ሒት	-10.9225
▁መጽአ	-10.9225
▁ኣዴ	-10.9225
ኣለይ	-10.9226
▁ምዝገባ	-10.9228
▁ኒው	-10.9229
▁ተሓታቲ	-10.9229
▁ዝረክብ	-10.9229
▁ዩኒቨርስቲ	-10.923
ልበ	-10.923
▁ክጥ	-10.923
ጥጥ	-10.9233
▁ኣምላ	-10.9233
ሃስ	-10.9233
▁ግድል	-10.9234
▁ጸላእቲ	-10.9238
▁ለልት	-10.9239
▁ብቃ	-10.924
▁ብምፍ	-10.924
▁ተጻብኦታት	-10.9246
▁ይገ	-10.9246
▁ዕላማኡ	-10.9246
▁ንሰማእታትና	-10.9246
▁ኣገልጋሊ	-10.9247
▁ቦኽሪ	-10.9247
▁ዓውድታት	-10.9247
▁ንምትግባር	-10.9247
▁ተፈጺሙ	-10.9248
ህበካ	-10.9249
▁ድንቂ	-10.9249
▁ትኽእሉ	-10.925
▁እመ	-10.9251
▁ፍትው	-10.9252
▁የዋርሶ	-10.9254
▁ክትቅጽል	-10.9256
ለማ	-10.9262
ጽንዕ	-10.9262
▁ለዐለ	-10.9262
▁ዘቕ	-10.9263
▁ወሲደ	-10.9264
▁ምሕረቱ	-10.9266
▁ቁጽጽር	-10.9267
▁ኣፍቀርቲ	-10.9267
▁ዝበልዕ	-10.9269
ሞቱ	-10.9271
▁ተኸታተልቲ	-10.9271
▁ከለዋ	-10.9272
ካይድ	-10.9273
▁በተን	-10.9276
▁የሚያ	-10.9278
▁ረኸበ	-10.9278
▁ናዓ	-10.928
▁ዓይ	-10.9284
▁ሞራልን	-10.9285
▁ወታሃደራዊ	-10.9287
▁ፒኤስጂ	-10.9287
▁በጺሐ	-10.9287
ርሕቕ	-10.929
▁ድኳን	-10.9291
ንቀሳቐስ	-10.9292
ዳውያን	-10.9294
▁ክፍጠር	-10.9301
ታኣ	-10.9301
▁ሓውኻ	-10.9303
▁ዓሪ	-10.9304
ሕግዝ	-10.9306
▁ብጠቕላላ	-10.9307
▁ስርሕ	-10.9309
▁ወገናተይ	-10.9309
ዘከር	-10.9312
ጠሉ	-10.9315
▁ዕዮን	-10.9319
▁ኤርይ	-10.9324
▁መሲልካ	-10.9324
▁ተሰሚዑ	-10.9326
▁ብቛንቋ	-10.9327
▁ዘካርያስ	-10.9327
▁ድልዱል	-10.9327
ሉል	-10.9327
▁ማእቶት	-10.9327
▁ንጡፍ	-10.9327
▁ኽልተ	-10.9327
▁ባህል	-10.933
▁42	-10.933
▁ርአ	-10.934
▁ቆር	-10.9342
▁ደኣምበር	-10.9343
▁ሽግርና	-10.9346
▁መሊሳ	-10.9346
ጎን	-10.9349
▁ራሻ	-10.9353
▁ዒላ	-10.9354
▁ሒዘዮ	-10.9354
▁ንምፍ	-10.9356
ፈሩ	-10.9356
▁ደጊ	-10.9359
ሳድ	-10.9359
▁ኣብርሀት	-10.936
▁መርዓዊ	-10.9361
▁ፈላስፋ	-10.9361
ወሰደ	-10.9362
▁ክንገብሮ	-10.9363
▁ተቐቢሉ	-10.9366
▁ኣገንዚቡ	-10.9367
▁ምርኻብ	-10.9367
▁ሰራቒ	-10.9369
ዳስ	-10.9372
▁ሉቃስ	-10.9374
▁ደቀን	-10.9374
▁ዝፈጸመ	-10.9375
ፈርሕ	-10.9375
▁ላዛ	-10.9376
▁ምስኪን	-10.9376
ቀደም	-10.9377
▁ኣስናን	-10.938
▁ፋይ	-10.938
▁ህዝቡን	-10.9381
ለፈ	-10.9382
▁ትቅ	-10.9384
▁ባርዕ	-10.9385
▁ከጋጥም	-10.9385
ግዜ	-10.9385
▁ረቂቕ	-10.9387
▁ቴለፎን	-10.9387
▁ዘብዘብ	-10.9387
▁መስመራት	-10.9388
▁ቐትሪ	-10.9389
▁ውሁድ	-10.9389
ራኸቡ	-10.9389
▁መድሕን	-10.9389
▁ትመ	-10.939
▁አብይ	-10.9391
▁ዝተረጋገጸ	-10.9391
▁ትገብርዎ	-10.9393
▁ወሪ	-10.9394
ጥፈ	-10.9396
▁ክዓቢ	-10.9397
ቋር	-10.9397
ተባብዕ	-10.9399
▁ኣሚና	-10.9402
ጥቃዕ	-10.9402
▁አለኩ	-10.9403
▁የው	-10.9404
▁ኣቕሪቦም	-10.9407
ሐር	-10.9407
▁ሰምዐ	-10.9408
▁ዝፈልጡ	-10.9409
▁ከይህሉ	-10.941
▁መሻ	-10.941
ርድኦ	-10.9411
▁ሊድያ	-10.9411
▁ዓንዶም	-10.9411
ዱኡ	-10.9412
ኔት	-10.9414
▁ክንከይድ	-10.9416
▁መልሱ	-10.9417
ልሙ	-10.9418
▁ዝሰዓበ	-10.942
ኸሉ	-10.942
ድፍ	-10.9422
▁ተወፋይነትን	-10.9422
ሓትት	-10.9424
▁ገጋ	-10.9425
▁ፕሮፌሰር	-10.9427
▁ጨናፍር	-10.9429
▁ያለ	-10.943
▁ዘጸናናዕኩምናን	-10.9433
▁ብጎ	-10.9433
ረክቡ	-10.944
▁ናባኻ	-10.9442
መሰ	-10.9444
▁ንእሽቶይ	-10.9445
▁ተረዲኡ	-10.9446
▁ከይኮነ	-10.9447
▁ንሳተን	-10.9447
▁ዝወጹ	-10.9449
▁ሰማዕ	-10.9449
ጸልእ	-10.9449
▁ጸሚ	-10.945
▁ክራር	-10.9451
▁ሰራዊትን	-10.9452
▁ፈን	-10.9453
▁ተንብብ	-10.9454
▁ተመር	-10.9457
▁ዝዓበ	-10.9457
▁ባኒ	-10.9458
▁ሃው	-10.9462
ሕደ	-10.9463
▁ዝተወስደ	-10.9463
ኮል	-10.9466
▁ዘይኮነት	-10.9467
▁ዕጥቂ	-10.9468
ነተን	-10.9468
▁እንድሕሪ	-10.9468
▁ኣይከውንን	-10.9469
▁ዝተሓለወ	-10.9472
ረጋ	-10.9472
▁ጽም	-10.9474
ፍቅሮ	-10.9475
▁ፍስሃ	-10.9475
ዲያ	-10.9478
▁ሕሰቡ	-10.9479
▁ትዛረቡ	-10.948
▁ኑር	-10.948
▁ሙቁር	-10.9484
▁ሓረግ	-10.9485
ጽግ	-10.9487
ማረ	-10.9488
▁ፍቓደኛ	-10.9488
▁ጽቡቃት	-10.9488
▁ሲናይ	-10.9489
▁ዝምነ	-10.9494
ባኣ	-10.9494
▁ይጅምር	-10.9497
▁በዓቲ	-10.95
▁ኡፍ	-10.9505
▁ዝቑጸሩ	-10.9508
▁ሓባይብ	-10.9509
ስኩ	-10.9509
▁ክንዛረብ	-10.9512
▁ዓይንና	-10.9512
▁ትከይድ	-10.9513
ጽሕፍ	-10.9515
ገት	-10.9518
ቕረብ	-10.9521
▁ሂወትኩም	-10.9524
▁ፕረስ	-10.9529
▁ተዳልዩ	-10.9529
▁ዘረባኡ	-10.953
▁ዝመርሕ	-10.9531
▁ኢልካዮ	-10.9533
▁ስላሴ	-10.9537
▁ዓኽ	-10.9539
▁ሓወ	-10.954
▁ካፕ	-10.954
▁ክንሱ	-10.9541
▁ስደድ	-10.9541
▁ትዓ	-10.9542
▁ሚለና	-10.9542
▁ገል	-10.9543
ዘበ	-10.9543
▁ነብሪ	-10.9544
▁ሓዚ	-10.9545
▁ሓዲሩ	-10.9546
▁ጓሉ	-10.9548
▁ታሕተዋይ	-10.9549
▁ተሃድሶ	-10.9549
▁ጸዓዱ	-10.955
▁ኩባንያታት	-10.955
▁ዝገብረ	-10.9551
መሃሩ	-10.9551
▁ብኽብሪ	-10.9552
▁ኮስታ	-10.9554
▁ካባ	-10.9559
▁ዝጨ	-10.9561
▁ዓለባ	-10.9562
▁ኢለዮ	-10.9564
ሃረ	-10.9564
ክተር	-10.9565
ደፍር	-10.9565
ተም	-10.9567
▁ይደ	-10.9568
▁ምቁራጽ	-10.957
▁ረሳሓት	-10.9571
ህድ	-10.9571
ኹሉ	-10.9572
▁ኣባኻ	-10.9573
ሕም	-10.9573
▁ሃር	-10.9574
እክብ	-10.9575
▁ገዲ	-10.9576
ስሕቅ	-10.9576
▁ናችሁ	-10.9577
▁ሂቦም	-10.9578
▁ዝጻወት	-10.958
ነቅ	-10.9581
▁ኣቲና	-10.9583
ህላ	-10.9584
▁ዝብገስ	-10.9585
ድለ	-10.9587
▁ዱላ	-10.9587
▁አክ	-10.9589
▁መዘናግዒ	-10.959
▁ብመንግስቲ	-10.959
▁ታሕትን	-10.959
▁ሕብረተሰባት	-10.9591
▁ኣድልዎ	-10.9595
ቓዕ	-10.9599
ነካ	-10.9599
ቢያ	-10.9602
ካየድ	-10.9604
▁ቴዲ	-10.9604
▁አሕዋት	-10.9606
▁ሳህራን	-10.9609
▁ሐራይ	-10.961
▁ምብራቓዊ	-10.9611
▁ግጉይ	-10.9611
▁ዘይከ	-10.9611
▁ከዳዓት	-10.9613
ፔ	-10.9613
ጽና	-10.9614
▁ተላዒሉ	-10.9617
ሀይ	-10.9617
▁ክህቡ	-10.9617
▁ቀለ	-10.9618
▁ንዘለዎ	-10.9619
ውጽኡ	-10.9624
▁እንዴት	-10.9628
ጭፍ	-10.9629
▁ሻርሙጣ	-10.9631
▁ብመጠኑ	-10.9632
▁ይስመዓኒ	-10.9632
▁ሰለዝበላ	-10.9632
ስለ	-10.9632
▁ደብረ	-10.9634
0000000000000000	-10.9635
▁ላንጋ	-10.9635
▁ጸብለል	-10.9637
▁ትደ	-10.9637
▁ታቦት	-10.9638
▁መላኪ	-10.964
▁ነጸላ	-10.9642
▁ምጭ	-10.9644
▁ኣጉ	-10.9645
▁እኪ	-10.9647
ሸን	-10.965
▁ሰሚዕ	-10.965
▁ሽንግርዋ	-10.9652
ምረጽ	-10.9652
ሾም	-10.9652
▁ናፍቖት	-10.9652
▁ቃሉ	-10.9653
▁ስምዒታ	-10.9655
ኣለም	-10.9656
▁ስለያ	-10.9656
ነየ	-10.9656
▁ባራ	-10.9665
▁ትኩል	-10.9667
ከደ	-10.9668
▁ርኤ	-10.9669
ስተማ	-10.9671
▁ባርሰሎና	-10.9673
▁ቀው	-10.9673
▁ተመሊሳ	-10.9676
▁ተማሂረ	-10.9676
▁ወለደይ	-10.9677
▁ሓቅን	-10.9678
▁ቅድሜኻ	-10.9679
ፉን	-10.9681
ተራ	-10.9681
▁ዝምለስ	-10.9682
ዩኒ	-10.9684
▁ቅጫ	-10.9684
ዎስ	-10.9687
▁ትሃ	-10.9691
ብሃ	-10.9691
ኣትዎ	-10.9692
▁ትዕግስቲ	-10.9694
▁ፍጥነት	-10.9694
▁ኣይነበራን	-10.9694
▁መቐለ	-10.9694
▁ا	-10.9695
▁ገበሮ	-10.9697
▁ኣብርሽ	-10.9699
▁ይኽፈት	-10.97
▁ሕጸ	-10.9701
▁ምልኪ	-10.9702
ላኣ	-10.9704
ቀርብ	-10.9707
▁ዘጸናናዕኩምና	-10.9709
▁ብኣፍ	-10.9709
▁ዔ	-10.9712
▁ፍረወይኒ	-10.9714
▁ተመሃራይ	-10.9714
▁ኣልዒሉ	-10.9714
▁ተለቪዥን	-10.9715
▁በርቂ	-10.9715
▁ላዕልን	-10.9715
▁ፍለጡ	-10.9722
▁በሉኒ	-10.9723
▁ሩኒ	-10.9723
▁ንምር	-10.9724
መታ	-10.9726
ዬም	-10.9727
▁በሰላ	-10.9727
ግደፍ	-10.9734
▁ክረኽቦ	-10.9734
▁ኣፍሪቃውያን	-10.9735
▁ዕንቅፋት	-10.9735
▁ስዋረዝ	-10.9735
ደኒ	-10.9737
▁ተስፌ	-10.9737
▁ቀሲ	-10.9739
▁ዝዋ	-10.9739
ተካ	-10.974
በዝሑ	-10.974
▁ስኒት	-10.9741
▁ሕታም	-10.9742
▁ንዛ	-10.9743
▁ገራ	-10.9746
▁ብሪ	-10.9747
በጽሑ	-10.9748
▁ካዓ	-10.975
ቐርብ	-10.9751
▁ለሐ	-10.9752
▁መስል	-10.9754
▁ቀልጢፍካ	-10.9756
▁ብልሽውና	-10.9756
▁ሰቲ	-10.9765
ደልያ	-10.9771
▁ፎር	-10.9773
ሕብረ	-10.9773
ጽዕር	-10.9774
ይይይይይይ	-10.9775
▁ክዛረቡ	-10.9775
ራግ	-10.9777
ጥቀ	-10.9777
▁ትስፉው	-10.9777
▁ምህረት	-10.9778
▁ወሲዶም	-10.9779
▁ሓላቑ	-10.978
ፑ	-10.978
▁ብግዜ	-10.978
▁ቀመም	-10.9782
▁ዲጋታት	-10.9783
▁ዝተረ	-10.9784
▁ዘይትኽእል	-10.9784
ነጸረ	-10.9784
▁ቫ	-10.9787
▁ምስልጣን	-10.9787
▁ትካላትን	-10.9787
▁ዘሎዎም	-10.9789
▁ምሳሕ	-10.9789
▁ተባህለ	-10.979
▁ሓሪፍ	-10.9792
ጸሩ	-10.9793
ሰቲ	-10.9794
ደርፋ	-10.9796
▁መጋረጃ	-10.9798
▁ተመሊሶም	-10.9799
▁ርኹስ	-10.9799
▁መለክዒ	-10.9801
ውታ	-10.9804
ቅቲ	-10.9805
▁ዝተኣ	-10.9806
▁ተመለሱ	-10.9806
▁ግሪኽ	-10.9808
▁ቀሪን	-10.981
▁ኣይወ	-10.981
▁ዝነበር	-10.9813
▁ተዛሪብካ	-10.9815
▁ግዚ	-10.9816
▁ሕጂውን	-10.9816
▁ነይሩኒ	-10.9817
▁ንግድን	-10.9817
ገይ	-10.9818
▁ለምን	-10.9819
▁ኦርቶዶክስ	-10.9819
▁ገምገም	-10.982
▁ጥቡቕ	-10.982
▁ጋሓፍ	-10.9823
▁ዳሓር	-10.9826
▁ኤድ	-10.9827
▁ሳቢ	-10.9828
▁ንታ	-10.9832
▁ንዳ	-10.9834
▁ይዛረቡ	-10.9837
ሻይ	-10.9838
▁ይፍ	-10.9839
▁ወኻርያ	-10.984
▁ጽቡቓት	-10.984
▁እንከለው	-10.9841
▁ቦምብ	-10.9841
▁ጽሉል	-10.9844
ፈጸም	-10.9845
ሃና	-10.9846
▁ንምግ	-10.9847
ናል	-10.9847
ገልግል	-10.9851
▁ወሲዳ	-10.9852
▁ስውኣትና	-10.9852
ጼን	-10.9853
▁ዝተጠ	-10.9854
▁ነቒ	-10.9855
▁ዓጺ	-10.9856
በጽሐ	-10.9857
▁ስኒትን	-10.9857
▁ወዲቑ	-10.9857
▁ከብል	-10.9858
▁ብድድ	-10.9859
▁ኣቲኻ	-10.9862
▁ናዓና	-10.9863
▁ጫካ	-10.9863
ፍቅራ	-10.9867
▁ኣሃዱታት	-10.9868
ሓዊ	-10.987
▁ንዮ	-10.9872
▁ዝሰኣነ	-10.9872
▁መሽ	-10.9872
ዝዝ	-10.9872
▁ዝዀና	-10.9872
▁ንጋ	-10.9874
▁ታዓ	-10.9877
ጠዓ	-10.9878
▁ወጊ	-10.9879
ግዳ	-10.9879
▁ትልሂት	-10.9882
▁ሓውካ	-10.9883
▁ተክለ	-10.9884
▁ገጣሚ	-10.9884
ምስል	-10.9892
ሃቦም	-10.9892
▁ነይሩዎ	-10.9893
▁ሓቒ	-10.9896
▁ግብር	-10.9896
ሓቂ	-10.9896
▁ዪሻ	-10.9896
▁ኤርትራውነት	-10.9897
ሓልፎ	-10.9897
▁ይመስገን	-10.9899
▁ክወግሕ	-10.99
ጽበዮ	-10.99
▁ብብ	-10.9901
ገበርካ	-10.9903
ኪም	-10.9903
▁ኣሕዋቱ	-10.9903
▁ለክባጥ	-10.9904
▁ተሪፎም	-10.9904
▁ኣመሪካዊ	-10.9905
▁ልዝብ	-10.9906
▁ብመጀመርያ	-10.9906
▁ጓሂ	-10.9907
▁ኔርዎ	-10.9907
▁ዶና	-10.991
▁ክነግረካ	-10.9911
▁ይሰርሑ	-10.9911
▁ረኺብካ	-10.9911
▁ብጥበብ	-10.9913
ንጊ	-10.9913
▁ቴለ	-10.9917
▁ኤረና	-10.9924
▁ተቃወምቲ	-10.9925
ፍቀር	-10.9926
▁ሕልፍ	-10.9926
ስማዓ	-10.9927
▁ቲቢ	-10.9929
ጸባ	-10.9932
▁120	-10.9935
▁ዝሓዝ	-10.9938
▁ኣጥፊእ	-10.994
ጸራ	-10.994
▁ጥብ	-10.9944
▁ኣዲኣ	-10.9944
ኻስ	-10.9945
▁ዝተረኽብሉ	-10.9946
▁ፍቑራት	-10.9946
▁ኢንተርቪው	-10.9946
▁ሻንጊት	-10.9946
▁እዝንና	-10.9946
▁ኣይክእሉን	-10.9947
▁ፈርኦን	-10.9947
▁150	-10.9948
▁ግዜኻ	-10.9949
▁ጋግ	-10.995
▁ቆላ	-10.9954
▁ኣፍሪቃዊ	-10.9954
▁ተሰሪ	-10.9956
ሰሩ	-10.9957
▁ዕርዲ	-10.9957
▁ኣሚ	-10.9959
▁ፍልልያት	-10.9962
▁ክአ	-10.9963
▁ከረ	-10.9964
▁127565	-10.9967
▁ውህብቶ	-10.9967
▁ረኺቦም	-10.9967
▁ዓያሹ	-10.9967
▁ንሰን	-10.9968
▁እናወ	-10.9969
▁ሻምብቆ	-10.9969
▁መጸት	-10.9977
▁ዝተመስረተ	-10.9978
▁ዝሕበር	-10.998
▁ኤውሮጳዊ	-10.9984
ርክብ	-10.9986
▁ትህ	-10.9986
▁ጃኪ	-10.9988
▁ዝተሰማዓና	-10.9989
▁ደብዳብ	-10.9989
▁ተንኮል	-10.999
▁ውጽኢታዊ	-10.9991
▁م	-10.9992
▁መፍትሕ	-10.9994
▁ነቢዐ	-10.9995
▁ከምዘይት	-10.9995
▁ዘይሓ	-10.9999
ዓዮ	-11
ሓፍር	-11.0002
▁ሓዲ	-11.0002
ልቀ	-11.0008
ጥፋኣ	-11.001
▁ኣመለኻኽታ	-11.001
▁ሃም	-11.001
▁ብተግባር	-11.0011
▁ጃልባ	-11.0011
▁ረሳ	-11.0012
▁ይሕግዝ	-11.0016
ዳለወ	-11.0016
▁እድመን	-11.0018
▁ትረክብ	-11.0018
ሊስ	-11.0019
ተረድኦ	-11.0021
▁ዝጥቀስ	-11.0021
▁ንዝመጽእ	-11.0021
▁መሃ	-11.0023
▁ሃቡና	-11.0027
▁ዝፈትወካ	-11.0027
ልዎም	-11.0028
▁ዝዓይነቱ	-11.0032
▁ሓይለኣብ	-11.0032
▁ኣጀንዳ	-11.0033
▁ምግባርን	-11.0034
ግኣ	-11.0034
▁ፍቃድ	-11.0035
▁ንቕሓትን	-11.0037
▁ቁር	-11.0039
▁እንተዝኸውን	-11.0039
▁ወሊድ	-11.0041
▁እንጂ	-11.0043
▁ንቅ	-11.0044
ብለኩም	-11.0046
ጽዓ	-11.0052
ነብራ	-11.0053
▁ብምክያድ	-11.0053
▁ተመረቕቲ	-11.0053
▁ድንቁርና	-11.0053
▁ኣይፈለየና	-11.0053
ኣትዉ	-11.0053
ቀጥ	-11.0053
▁ዝኣመሰላ	-11.0054
▁መኣ	-11.0054
▁ወልዳይ	-11.0054
ዛይድ	-11.0056
▁ኢሎሞ	-11.0056
ገደሰ	-11.0057
ደቅ	-11.0058
▁ደንጊ	-11.0059
▁ንምሃብ	-11.006
ሊክ	-11.0061
▁ፈረንሳዊ	-11.0065
▁ከፊቱ	-11.0067
▁ኪን	-11.0067
ማውያን	-11.0067
▁ሰማያዊ	-11.0072
▁ጸላኢና	-11.0073
ብለ	-11.0073
▁ተጻዋርነት	-11.0075
▁ኣግርጭው	-11.0075
▁ገዛውትና	-11.0075
▁ጎረቤት	-11.0076
ስረ	-11.0076
▁ክገልጾ	-11.0076
▁አሕ	-11.0076
▁ብጾት	-11.0079
▁ኢያሱ	-11.008
ይም	-11.008
▁ሕማሙ	-11.008
ለር	-11.0081
ጄ	-11.0083
እኪ	-11.0095
▁ይቕረታ	-11.0096
▁ሓመልማሎ	-11.0096
▁ትዕቢት	-11.0097
▁ፍልጠታዊ	-11.0098
▁ናባ	-11.01
▁ዋዒ	-11.0102
▁ተሰሪሑ	-11.0102
▁ዅሎም	-11.0104
▁ዃላ	-11.0104
▁ክፍጽም	-11.0105
ጠላ	-11.0106
እትዉ	-11.0107
▁ሚኪ	-11.0108
▁መሊስካ	-11.0111
በቅዕ	-11.0115
▁ስፖርትን	-11.0116
▁ይቐ	-11.0116
▁መለለዪ	-11.0118
▁ብመሰረቱ	-11.0118
▁ጎልጎል	-11.0119
▁ደሊና	-11.0122
▁ክሳዱ	-11.0123
▁እስራኤልን	-11.0125
▁ይረአ	-11.0125
▁ስጋዊ	-11.0126
▁ኣእምሮኻ	-11.0126
▁እናደ	-11.0128
▁መቅ	-11.0133
ድሕነ	-11.0135
▁ኣኸለ	-11.0135
▁ንዓመታ	-11.0138
▁ጠር	-11.0138
▁ዝፈጠሮ	-11.014
▁ብሓያል	-11.014
▁ብሙ	-11.0143
▁ገጀረት	-11.0146
▁ዘምጽእ	-11.0147
ሻን	-11.0148
▁ፍትዊ	-11.0148
▁ሰሪሕ	-11.0151
ውክል	-11.0153
▁ኣድኒ	-11.0155
ብህግ	-11.0158
በደ	-11.0159
ወተ	-11.016
▁ሓርማዝ	-11.0161
▁ተንሲኡ	-11.0161
▁ብኸፊል	-11.0161
▁ሓሳ	-11.0162
ሰተ	-11.0162
▁መንግስትኣብ	-11.0162
▁ልክ	-11.0164
ዉት	-11.0166
▁እንዳበሉ	-11.0166
▁ኸለዉ	-11.0166
▁ምሳኪ	-11.0167
▁ይብሎ	-11.0171
▁ንረኽቦ	-11.0177
ጠት	-11.0177
▁ካዳስተርን	-11.0177
▁ሕርሲ	-11.0178
▁ኢንበር	-11.0178
ደአ	-11.0182
▁ተወዳዳርነት	-11.0183
▁ኢንጂነር	-11.0183
ስማ	-11.0184
▁ፊልሞን	-11.0184
▁ዘጋ	-11.0185
▁ክተርፍ	-11.019
በለት	-11.019
ውውው	-11.019
▁ዲበ	-11.0192
▁ካህን	-11.0194
▁ጻዕር	-11.0195
ገጹ	-11.0195
ልህ	-11.02
▁ንዓኪ	-11.02
▁ዓብዩ	-11.0202
▁ጻድቕ	-11.0205
▁ብማዕዶ	-11.0205
▁ጤል	-11.0205
▁በይል	-11.0206
▁ሳይንስ	-11.0207
ርዓ	-11.0208
ኸለ	-11.0209
ለአ	-11.0209
▁ስቕታ	-11.0211
▁መኣዝን	-11.0211
▁ወጠን	-11.0212
▁ዘኪረ	-11.0212
▁ስዒ	-11.0213
▁ተፍ	-11.0214
▁ኤፊ	-11.0215
▁ህዝብኹም	-11.0216
ፈካ	-11.022
ምልሶ	-11.0221
▁ዘሐ	-11.0223
ዛዘመ	-11.0224
ራእ	-11.0225
▁ቀቢ	-11.0226
▁ንህዝቡ	-11.0227
ርቕ	-11.0229
▁ሰሪሖም	-11.0229
▁መብ	-11.0231
▁ኣዩ	-11.0231
▁ብምር	-11.0232
▁ትምርቲ	-11.0233
▁ዓቅ	-11.0238
▁ድለ	-11.0238
▁ጀማል	-11.0239
ሰማዓ	-11.0242
ኣልካ	-11.0243
▁ዘምጽኦ	-11.0244
▁መርሓባቦ	-11.0247
▁ባሃ	-11.0249
▁ብጠዓሚ	-11.0249
▁ተሓታትነት	-11.0249
▁ምህሮ	-11.0249
▁እንዲና	-11.0251
▁ማዕርግ	-11.0253
▁መደብኩም	-11.0255
ፍጸም	-11.0258
▁ብቐስ	-11.0258
▁ብሳላ	-11.0258
▁š	-11.0259
▁ቆፎ	-11.0263
ዝያ	-11.0265
ጨን	-11.027
▁ሎቅማጽ	-11.0271
▁ኣሕምልትን	-11.0271
▁ክህልወካ	-11.0271
▁ንጸላኢ	-11.0271
▁ብምውሳድ	-11.0271
▁ገሪሙኒ	-11.0271
▁ዓለመይ	-11.0272
▁ዮዲት	-11.0272
▁ደሊካ	-11.0272
▁ሃገራውነት	-11.0272
▁አዳም	-11.0274
▁ዘጠቓልል	-11.0275
▁ወላዲቱ	-11.0276
▁ሕውነት	-11.0276
▁ዝሰርሖ	-11.0277
የላ	-11.0279
▁ኣብቶም	-11.028
▁ይባሃል	-11.028
ዘውትር	-11.028
▁በተለይ	-11.0281
▁ክትምለስ	-11.0282
ሓም	-11.0282
▁ዘመዝገበ	-11.0283
ደርፈ	-11.0283
▁ምስጢራዊ	-11.0285
ገሮ	-11.0289
▁ሰሪሐ	-11.0289
▁እግዙኣብሄር	-11.0293
▁ጁቬንቱስ	-11.0293
▁ፈጺሞም	-11.0293
▁ሊባኖስ	-11.0293
▁ሲቪል	-11.0293
▁ዜግነት	-11.0293
▁ዓስራይ	-11.0293
▁ቀጽሉ	-11.0294
▁ቀሪቦም	-11.0294
▁ካንሰር	-11.0294
ቕረ	-11.0294
▁ኣኽራን	-11.0296
ናኸ	-11.0299
▁ክህበካ	-11.0299
እትው	-11.0299
▁ዝተፈ	-11.0301
▁ሓፍቲ	-11.0301
▁ሐሳዊ	-11.0303
ስርሓ	-11.0304
ኽት	-11.0304
▁ዕዳጋታት	-11.0305
▁ዝሽ	-11.0308
▁ሰፍ	-11.0312
▁ዓቕሞም	-11.0313
▁ኣመል	-11.0314
▁ክንስ	-11.0315
▁ንዘለኣለም	-11.0315
▁ኣልጋነሽ	-11.0315
▁ዘይንቡር	-11.0316
ድነቅ	-11.0316
▁ዓድኻ	-11.0316
▁ካልአ	-11.0317
▁ፈሊጥና	-11.0317
▁ትርኢ	-11.0318
▁ክግ	-11.0321
▁ድኻታት	-11.0321
ካኣል	-11.0321
▁ወሲድ	-11.0322
▁ዝተረኽቡሉ	-11.0329
▁አዱ	-11.0331
▁እፈቱ	-11.0331
▁መዘና	-11.0336
▁በሰላም	-11.0336
▁ፍልስጥኤማውያን	-11.0337
▁ገብርሂወት	-11.0337
▁የቀንየለይ	-11.0337
▁ንግስነት	-11.0337
▁ኖርማል	-11.0337
▁ኣዛሄር	-11.0338
▁ከቕርብ	-11.0339
ህባ	-11.0343
▁ጉማማ	-11.0344
▁ኣእምሮይ	-11.0347
ልእኽ	-11.0348
ባጥ	-11.035
▁ይፈልጦ	-11.0352
▁ዓወትና	-11.0352
▁ዴማ	-11.0352
▁ክሰጋገር	-11.0355
▁ብኣካ	-11.0356
ቀረ	-11.0357
ዝርግሕ	-11.0359
▁ድፍረት	-11.0359
▁ተመሊስካ	-11.0359
▁ምግራብ	-11.036
▁ኣጸቢቑ	-11.0361
ጽራ	-11.0362
▁ንግዜ	-11.0362
▁ዶባት	-11.0363
▁ብዝርዝር	-11.0365
ጋእ	-11.0369
▁መዛኑ	-11.0371
▁እስቲ	-11.0371
▁ክሕይል	-11.0379
▁ጽዮን	-11.0379
▁መረጋገጺ	-11.0381
▁ተመኵሮ	-11.0381
▁ብብዙሕ	-11.0381
▁ተመኲሮ	-11.0381
▁ባክተርያ	-11.0381
▁ክብርታትን	-11.0382
▁በጀካ	-11.0382
▁1994	-11.0382
▁ሞይቶም	-11.0382
▁ጭፍራ	-11.0382
ለች	-11.0384
▁ገበርካ	-11.0386
▁ኣዉ	-11.0387
▁ኣይበ	-11.0387
ተርፉ	-11.0391
▁ቄ	-11.0393
▁ሹም	-11.0394
▁መጽዩ	-11.0395
▁ክትገብሩ	-11.0401
▁ድምር	-11.0402
ከን	-11.0404
▁ፍቓዱ	-11.0404
▁ምዕሩይ	-11.0404
▁መዓርግ	-11.0404
▁ኤፍረም	-11.0404
▁ሓበሬታታት	-11.0405
▁ኣታኽልቲ	-11.0406
▁ጠም	-11.041
▁ድያብሎስ	-11.0411
ዋዕ	-11.0411
▁ቆን	-11.0416
እዩ	-11.0419
▁ዝሸ	-11.0422
ጉል	-11.0422
ሃደ	-11.0424
▁ሹቅ	-11.0425
▁ዲዮም	-11.0425
▁ድርኺት	-11.0426
▁ኩፍሉ	-11.0428
▁ንበሎ	-11.0429
▁ዋሕስ	-11.043
▁ኣንታይ	-11.043
▁ኾነ	-11.0432
ዓለ	-11.0434
▁ዊዒ	-11.0436
ነበሩ	-11.0436
ሰላስል	-11.044
ርከበ	-11.0441
ኸት	-11.0442
ኑስ	-11.0444
▁ውልዶ	-11.0446
▁ዝዓበዩ	-11.0446
▁ንምምሕያሽ	-11.0448
▁ዳህላክ	-11.0448
▁ስጕምቲ	-11.0448
▁ሓገዛት	-11.0448
▁ኮመዲ	-11.0448
ጻው	-11.0449
▁ይኣ	-11.0449
ተማ	-11.0452
ክብ	-11.0453
▁ደራ	-11.0454
▁ካባኹም	-11.0456
▁ካብዘን	-11.0456
▁ኣርት	-11.0457
▁ንስኽን	-11.0457
▁ጋዜጠኛታት	-11.0461
▁ዝወጾ	-11.0462
መሓላልፍ	-11.0463
▁ዅ	-11.0465
ኩሩ	-11.0465
▁ነኣ	-11.0467
ጽሊ	-11.0467
▁ብኣጋ	-11.0468
▁ዕደ	-11.0468
▁ልዕለ	-11.0469
▁ጎዲ	-11.047
▁ኢክን	-11.047
▁ህዱእ	-11.0471
▁ኣዘዝቲ	-11.0471
መሓላለፈ	-11.0471
▁ገበነኛታት	-11.0471
▁ምዝዛም	-11.0471
▁ትሕት	-11.0472
ራኣየ	-11.0472
በርት	-11.0473
ላቹ	-11.0474
▁በሪሁ	-11.048
▁ነበሮ	-11.0483
ገበርኩ	-11.0484
ዕኩም	-11.0484
▁ትፈ	-11.0485
▁ከብድኻ	-11.0485
▁እውነት	-11.0485
ጊድ	-11.0488
▁ክውሰድ	-11.049
▁ዝበልኩ	-11.0492
▁ምትእትታው	-11.0493
▁መኽፈቲ	-11.0493
▁ብዝሓየለ	-11.0494
▁ዘራእቲ	-11.0494
ዕም	-11.0496
▁ዘሪ	-11.0497
ወች	-11.0497
እዛ	-11.0498
▁እው	-11.05
ህሪ	-11.0502
▁ክፍል	-11.0503
▁ኣሎዶ	-11.0503
▁ኣጀኻ	-11.0504
ረክ	-11.0506
ህልዉ	-11.0506
▁መቀ	-11.0512
▁መቓ	-11.0512
ሓልፈ	-11.0514
▁ኣገዳስነቱ	-11.0516
▁ንምምላስ	-11.0516
▁ኤሪተል	-11.0517
▁ሓሊበት	-11.0518
ዕት	-11.0521
▁መሕትት	-11.0521
▁ይዀኑ	-11.0522
▁ብኣሉታ	-11.0524
ቓቕ	-11.0525
▁በዓለ	-11.0526
ንጸባርቕ	-11.0527
ህልው	-11.0529
▁ብዘለዎ	-11.0529
▁እሰ	-11.0529
▁ቀዲ	-11.0532
▁ግጥምታት	-11.0534
▁ፈታው	-11.0535
▁ወርቃዊ	-11.0536
▁ኣሓት	-11.0536
▁ተወሰኽቲ	-11.0538
▁ንዓበይቲ	-11.0538
▁ዑቕባሚካኤል	-11.0538
▁1990	-11.0539
▁ካላኣይ	-11.0539
ትስ	-11.054
▁ብዝተኻእለ	-11.0541
ፈሰ	-11.0541
▁ክትመስል	-11.0541
▁ይቅ	-11.0544
▁ቡሩክ	-11.0545
▁ዘድልየና	-11.0548
▁ኮኑ	-11.0548
ሓና	-11.0551
▁ስምዕ	-11.0552
▁መጽያ	-11.0552
▁ዯ	-11.0555
ላሕ	-11.0556
▁ሂበ	-11.0557
▁ዝፈልጣ	-11.0559
▁ኣተኩሮ	-11.0561
ቅየር	-11.0563
▁ቦታን	-11.0565
▁ኮምፕዩተር	-11.0567
▁ሳሊና	-11.0568
▁ምስታይ	-11.0569
ኒት	-11.0569
ወገ	-11.057
ሌት	-11.057
▁ስው	-11.0571
ባህልና	-11.0572
ሽየጥ	-11.0574
▁የሚል	-11.0575
ስመራ	-11.0575
ርሞ	-11.058
▁መስጣ	-11.0582
▁ሕጽረታት	-11.0584
▁ዓጽሚ	-11.0584
▁ዳዕሮ	-11.0584
▁ርኡይ	-11.0584
በባ	-11.0585
▁ስእልታት	-11.0591
ኼ	-11.0592
▁ዝምራሕ	-11.0594
▁ቁርሲ	-11.0597
▁ምዉ	-11.0599
ክዎን	-11.06
በጣ	-11.0601
▁ክፈልጦ	-11.0604
▁ይበዝሕ	-11.0605
▁ንኻልኣይ	-11.0606
▁ገለዓይነት	-11.0606
▁ጐድኒ	-11.0606
▁ኣምላኸይ	-11.0606
▁ኣባላቱ	-11.0607
▁41	-11.0608
▁ምቅርተይ	-11.0609
▁ተሰሪዑ	-11.061
▁ሓሙ	-11.0611
▁ናብዛ	-11.0612
ድሚ	-11.0613
▁ምጽናት	-11.0613
ዋጋእ	-11.0613
ሮማ	-11.0614
▁ኢትዮጲያ	-11.0615
ባድ	-11.0618
▁ጸገማ	-11.062
▁ኮንኩ	-11.0621
▁ገባ	-11.0625
ሰትዩ	-11.0627
▁ዩክሬን	-11.0629
▁መፈጸምታ	-11.0629
▁ብዝሕ	-11.0629
▁ቅርሲ	-11.0633
▁ጋህ	-11.0633
▁ገዛእቲ	-11.0634
▁ትበልዕ	-11.0635
ጨው	-11.0635
▁ናኣ	-11.0636
▁ዝኸድ	-11.0636
ዓኒ	-11.0636
▁ገዳም	-11.0637
ሩና	-11.0638
ውጽኦ	-11.0639
ጻዊ	-11.064
▁ቦርድ	-11.0642
ወየ	-11.0642
▁ይምለስ	-11.0643
▁የብሉ	-11.0645
▁ኣእምሮኡ	-11.0645
▁ጸይ	-11.0645
ሲት	-11.0648
▁ኣቺ	-11.0649
ትንስእ	-11.0651
▁ኣቀባብላ	-11.0652
▁ኣካየድቲ	-11.0652
▁ኣዳል	-11.0653
▁ቆጽሊ	-11.0653
▁ደልያ	-11.0654
ብለኪ	-11.0656
▁ባሕቲ	-11.0656
ብለሉ	-11.0657
▁ዝተሃንጸ	-11.0659
ሓስቡ	-11.0659
▁ሪኢ	-11.0659
▁እምባየ	-11.066
▁ዘርኡ	-11.0666
ሓቱ	-11.0667
▁ሓሚ	-11.0669
▁ኣነውን	-11.0669
▁ሃዲ	-11.0673
▁ሞሳ	-11.0675
▁ምልውዋጥ	-11.0675
▁ባይገባኝም	-11.0675
▁ሩት	-11.0676
▁ጸሃየ	-11.0676
▁ጽቡ	-11.0677
ሃገር	-11.0677
▁ብዚ	-11.0677
አስ	-11.0677
▁ለኹ	-11.0677
▁ፍረታትን	-11.0679
▁ዝተሓደሰ	-11.0679
ዕዳ	-11.068
▁ዑቕባይ	-11.0681
ክታ	-11.0681
▁ኣይትሕ	-11.0681
▁ምድላይ	-11.0682
▁ንትግራይ	-11.0683
▁ገደል	-11.0683
ርጾ	-11.0684
▁መጸለል	-11.0689
▁ክሪስ	-11.0689
ልሚ	-11.0689
በዩ	-11.0692
▁ሓም	-11.0693
▁ዘብሎ	-11.0695
▁ቀር	-11.0696
▁ኣትክልቲ	-11.0698
▁መድሂን	-11.0698
ጠራጠር	-11.0699
ቐር	-11.07
▁ሳምሶም	-11.0701
▁ሰማያዊት	-11.0702
ርከቡ	-11.0703
▁ከሰተ	-11.0704
▁ዝላ	-11.0704
▁ከካይዱ	-11.0706
ኖስ	-11.0706
▁ንመርዓ	-11.0708
▁ስለዘይብሉ	-11.0709
▁እገብር	-11.0709
▁ምምራ	-11.071
ብቅ	-11.0711
▁ዝውክል	-11.0711
▁ዘይፈልጦ	-11.0715
ጠለ	-11.0717
▁ክንሰ	-11.0718
▁ኣቐዲምና	-11.0721
ርሰ	-11.0721
▁ቡክ	-11.0721
▁ለተብርሃን	-11.0721
ረኣዩ	-11.0723
▁ኵለን	-11.0726
ፍፍ	-11.0727
▁አሪ	-11.0727
▁ልምድን	-11.0728
▁ይሃ	-11.0728
▁ንዑኡ	-11.0729
ፍኩም	-11.0733
▁ተበገስ	-11.0734
▁ሓሸ	-11.0734
▁ወይኔ	-11.0734
▁ምስጋናና	-11.0735
ዋህ	-11.0735
▁ራሕ	-11.0735
ላልዩ	-11.0737
▁ጸኒሕካ	-11.074
ከፈ	-11.0741
▁ተገዲ	-11.0741
▁ክህልዋ	-11.0743
▁ሌዋውያን	-11.0744
▁ኣዒንተይ	-11.0744
▁ጠንቅታት	-11.0744
▁ብዋጋ	-11.0745
ቦት	-11.0746
ውደ	-11.0747
ታቶምን	-11.0747
ዘል	-11.0748
▁ዓባየይ	-11.0749
ዘከረ	-11.075
▁ገዳይም	-11.0754
▁ኣርሰን	-11.0755
▁ሳሕቲ	-11.0756
▁ዓሽ	-11.0759
▁ኦፍ	-11.0759
ድብ	-11.0761
▁ጸን	-11.0764
ሕኩም	-11.0764
▁ሰለም	-11.0764
▁ኢዋይ	-11.0765
▁ቢል	-11.0766
▁ሓዲር	-11.0767
ከኣ	-11.0767
▁ክትስ	-11.0767
▁ህግደፋውያን	-11.0768
▁መጸውዒ	-11.0768
▁ለማኒ	-11.0768
▁ብስምዒት	-11.077
▁ንበገስ	-11.0771
▁ውልቂ	-11.0771
▁ግልጽ	-11.0772
▁ክብድ	-11.0773
▁መንነቱ	-11.0773
ምልስ	-11.0773
▁ፌቡ	-11.0775
▁ዓር	-11.0777
ርፋ	-11.078
▁ማንታ	-11.0781
ምራሕ	-11.0781
▁ታኣ	-11.0781
ሸት	-11.0782
ድግፍ	-11.0783
ዛነ	-11.0784
▁ብሓቅ	-11.0786
▁ኔርኪ	-11.0786
ገሰ	-11.0787
▁ዝበለቶ	-11.0787
ቡቅ	-11.0789
▁ምብህሃል	-11.079
▁ኣጠማምታ	-11.079
ኹዎ	-11.0792
▁ይዓቢ	-11.0794
ሃድም	-11.0796
▁ዝበዝሖ	-11.0798
▁ፈታሪ	-11.0799
▁ንመንግስቲ	-11.0799
▁መገ	-11.08
ትኹም	-11.0802
ጠሩ	-11.0802
ጣይ	-11.0803
ጠቅም	-11.0804
ዘፍ	-11.0805
▁ይኣቱ	-11.0806
ኖር	-11.0812
▁ጸባን	-11.0812
▁ሽቕለት	-11.0813
▁ፕላስቲክ	-11.0813
▁ፕሎት	-11.0814
▁ዝነጥፉ	-11.0814
▁ብመንፈስ	-11.0814
ንጠ	-11.0815
▁ረብ	-11.0817
ኣሎም	-11.0817
ቕቲ	-11.0818
▁ዝቖ	-11.0818
▁ኣጻብዕ	-11.082
▁ክርእያ	-11.0824
▁ስት	-11.0826
ስተውዕል	-11.0827
▁እስክ	-11.0829
ገረመ	-11.0829
▁ሙኻን	-11.0831
▁ገሌ	-11.0831
▁ሓተታ	-11.0831
ሰድድ	-11.0831
መጽአ	-11.0832
▁ሽማ	-11.0832
▁ባዓ	-11.0834
▁ወጹ	-11.0835
መልእ	-11.0836
▁ሳጥናኤል	-11.0836
▁ንዘለዉ	-11.0839
▁ኮታስ	-11.0841
ተይን	-11.0842
▁ምባሉ	-11.0844
▁ብሰንኩ	-11.085
▁ሳል	-11.0852
ጋም	-11.0854
ጸንሐ	-11.0855
ነግሮ	-11.0856
▁ዘይደሊ	-11.0856
ግሊ	-11.0856
40	-11.0859
▁ተጸዊዑ	-11.086
▁ኑፉዕ	-11.086
▁ዝተጠቕሱ	-11.086
▁ተላብዮም	-11.086
▁ጓሶት	-11.086
ወረደ	-11.086
▁ክኣትዉ	-11.0864
ባሃ	-11.0864
▁ንኹልና	-11.0864
▁ኣማዕ	-11.0865
▁ሶሪ	-11.0868
▁ብዅሉ	-11.0871
▁ዝጠፍእ	-11.0872
መልሶ	-11.0873
▁ኢታ	-11.0874
ጣር	-11.0874
▁ሓቅካ	-11.088
▁ለለ	-11.0881
▁ዓይንኻ	-11.0883
▁ብራዚላዊ	-11.0883
▁ሌስተር	-11.0884
▁ሃይለስላሴ	-11.0884
▁ክገብረ	-11.0885
▁ሓምላይ	-11.0885
ማድ	-11.0886
▁ዘይትምኖ	-11.0886
ታው	-11.0887
▁ክፍጸም	-11.0887
▁ዘለኻዮ	-11.0887
▁በጥ	-11.0887
ፍቅድ	-11.0889
▁ዘንበ	-11.0891
▁ኒሕ	-11.0891
▁ቑ	-11.0892
▁75	-11.0902
▁ዝሰረ	-11.0903
▁ኣውጽኣ	-11.0904
▁ንህላወ	-11.0907
▁ሸይጣን	-11.0907
▁በርቲዕ	-11.0907
▁ይረኣዩ	-11.0908
ኪር	-11.091
▁ሳሆ	-11.0912
ሓሳ	-11.0913
▁ሃቡለይ	-11.0914
▁ዝል	-11.0915
▁ይምነየልኪ	-11.0915
ገልጾ	-11.0915
ራሓ	-11.0917
▁ነቦ	-11.0919
ነቱን	-11.0922
ንጋ	-11.0922
ግቡ	-11.0923
ኹሞ	-11.0928
▁ሽጉርቲ	-11.093
▁ዝዳሎ	-11.093
▁ዘቢባ	-11.0931
▁ሽን	-11.0932
▁ባህላውን	-11.0933
▁ንኪድ	-11.0934
ኖን	-11.0935
ግፍ	-11.0935
▁ኣርእዩ	-11.0935
▁ዝተሳተፉ	-11.0936
ዓዘ	-11.0936
▁ይብለና	-11.0936
▁ሞቱ	-11.0939
የኪ	-11.0942
ሃየ	-11.0944
▁ንዳዊት	-11.0946
▁እዬም	-11.0948
▁ክወርድ	-11.0948
ዳብ	-11.0949
ለለይ	-11.095
▁ሰማዕቲ	-11.095
▁ሰና	-11.095
▁ሒዘን	-11.0951
▁ብኣሽሓት	-11.0954
▁ንዋንጫ	-11.0954
ሃንጽ	-11.0955
▁ትሰርሑ	-11.0956
▁ምርባሕ	-11.0956
▁ግለ	-11.0956
▁ረኺብና	-11.0956
▁ዝባ	-11.0957
▁ካዳስተር	-11.096
ወጣ	-11.0961
▁ሠ	-11.0963
ቬ	-11.0964
▁ኣቦታቶም	-11.0966
▁ይሁዳን	-11.097
▁ንርእዮ	-11.097
▁ዝርከቦ	-11.0973
ጋፍ	-11.0974
▁ስልኪ	-11.0977
▁ኻህናት	-11.0977
▁ምድረበዳ	-11.0977
▁ተኸፊቱ	-11.0978
▁1997	-11.0978
▁መሰረታውያን	-11.0978
▁ሳንድሮ	-11.0978
▁ምርኩስ	-11.0979
▁እላ	-11.0979
▁ኣይነበረትን	-11.098
▁መሃርን	-11.0981
▁ዝገብራ	-11.0982
▁ዝተዋህቦ	-11.0984
▁ኣጠ	-11.0985
▁ብኣኻ	-11.0986
ናኣ	-11.0986
ምጽኦ	-11.0987
▁ዝሕተት	-11.0988
▁ኡፍፍፍፍ	-11.099
ጥምቶ	-11.0992
▁ዝሕግዙ	-11.0992
ሎሞ	-11.0995
ዋግኡ	-11.0995
ተረፈ	-11.0996
▁መንገድ	-11.0996
ተዉ	-11.0998
▁ዓቕ	-11.1
▁ኣልታሕሪር	-11.1001
▁ንመስዋእቲ	-11.1001
▁ዝርግሐ	-11.1001
▁ኣይትተሃመል	-11.1001
▁ኣድሒን	-11.1001
▁ንምጥፋእ	-11.1004
▁ግበሮ	-11.1006
ወዳእ	-11.1006
▁ይሐ	-11.1006
ጓስ	-11.1007
▁ሰሚዐያ	-11.1008
▁ይፈልጡ	-11.1009
ረኪ	-11.101
▁ኪኣ	-11.1014
▁ብምጥ	-11.1015
▁ገብ	-11.1018
ዓዓ	-11.1021
▁ላይኽ	-11.1022
▁ኣርማ	-11.1023
▁ኮምፒዩተር	-11.1024
▁ኣተሓሳሲቡ	-11.1024
▁ብቑጽሪ	-11.1025
▁ፕላኔት	-11.1025
ዚዙ	-11.1025
▁እናኸ	-11.1026
▁ዝኾነሉ	-11.1027
▁ወለዳ	-11.1027
▁ርስቲ	-11.1028
▁ቅጽል	-11.1029
▁ሰለማዊ	-11.103
▁ዘክር	-11.103
▁ቀብሪ	-11.1031
▁አንካ	-11.1031
ላክ	-11.1031
ፊል	-11.1032
▁ፈሊጥካ	-11.1035
▁ዓፋ	-11.1035
ዳዲ	-11.1036
▁ፎርቶ	-11.1036
▁ዝስራዕ	-11.1037
▁መንግስታዊ	-11.104
▁ዝሰምዖ	-11.1042
ኻኸ	-11.1042
▁ጓሓፍ	-11.1043
▁ሱታፌ	-11.1048
▁ጽድቂ	-11.1048
▁ተጋድሎ	-11.1048
ፍአ	-11.1048
▁ጭካነ	-11.1048
▁እንግሊዛዊ	-11.1049
▁ጥምቀት	-11.1049
▁ልኡላውነት	-11.1049
▁ድሩት	-11.105
▁በመ	-11.1051
▁ክምለሱ	-11.1055
▁ኤሊ	-11.106
▁ዕሸላት	-11.1061
▁ዝበጽሑ	-11.1061
▁ንኢሳያስ	-11.1061
▁አሰና	-11.1061
ሃባ	-11.1063
▁ስብሒ	-11.1063
▁ግሩም	-11.1065
▁ዓባ	-11.1065
ሕጉስ	-11.1066
▁ሰደት	-11.1067
ጋዕ	-11.1069
▁መጺካ	-11.107
▁መሰለ	-11.1071
ርከቦ	-11.1072
▁ፋይናንስ	-11.1072
ወጠ	-11.1073
▁ሳይሞን	-11.1073
▁የውርደልካ	-11.1074
▁ሜጀር	-11.1074
▁ነብዪ	-11.1074
ሕዘ	-11.1074
▁ምዕዋት	-11.1075
▁ልደ	-11.1077
▁መዘክር	-11.1078
▁ተመሃሮን	-11.1078
ረኺ	-11.1078
ወሃብ	-11.1079
▁ሓላለይ	-11.1079
▁ዝወዓለ	-11.1079
ርበት	-11.1079
▁ገዛኻ	-11.1081
ፖር	-11.1081
ሰባ	-11.1083
▁ኣብሽር	-11.1084
ዐይ	-11.1085
▁መኣዛ	-11.109
▁ክመርሕ	-11.1091
▁መማ	-11.1091
▁አንዲ	-11.1094
▁ደጋጊሙ	-11.1096
▁መፋርቕ	-11.1096
▁ይቅርታ	-11.1103
ትላ	-11.1104
የለይ	-11.1106
▁ስኢና	-11.1106
▁ከማኩም	-11.1108
▁ዝሃቡ	-11.1109
▁ማሃሪት	-11.111
▁ለከ	-11.1111
▁ህይወታ	-11.1111
▁አሉ	-11.1117
▁ርእይቶታት	-11.1117
▁ዝሕብ	-11.1119
▁መክንያቱ	-11.112
▁ጽሒፈ	-11.112
▁ንምዃን	-11.112
▁መሃሪትን	-11.112
▁ጣልያን	-11.112
▁ክንፈልጥ	-11.112
ምሃሩ	-11.1121
ረኪብ	-11.1122
▁ነራ	-11.1125
በርቲ	-11.1125
▁ዝምልከቶም	-11.1126
አካ	-11.1127
ጣቕ	-11.1127
▁ብኸምኡ	-11.1133
▁ይስምዓኒ	-11.1134
▁ዘይብለይ	-11.1135
▁ተቆ	-11.1137
▁ሃዋ	-11.1137
ጠፈ	-11.1139
ዓመት	-11.1139
ግፈ	-11.1142
▁ክትደርፍ	-11.1142
▁ሳወ	-11.1144
▁ሽር	-11.1145
ዳዕ	-11.1146
ኽስ	-11.1147
ግደድ	-11.1147
▁ይግደፍ	-11.1148
ጸንሓ	-11.1149
▁ክኸዱ	-11.1152
▁ልዕለይ	-11.1153
▁መሬትና	-11.1154
▁ማዕዳ	-11.1156
ሓሒ	-11.1159
▁ሃቡ	-11.1159
▁ይርከባ	-11.1162
▁ደብዳበታት	-11.1162
▁ደግሞ	-11.1165
▁ሓቃ	-11.1165
እስ	-11.1166
▁ብኹ	-11.1166
▁ብምውህሃድ	-11.1168
▁ረኽሲ	-11.1168
▁ፍሉያት	-11.1168
▁መስኮት	-11.117
▁ካርቱን	-11.1171
▁ንዕቀት	-11.1171
ውዒ	-11.1173
▁ክፍት	-11.1176
▁ኢልዋ	-11.1178
▁ንጽል	-11.1178
ጋደል	-11.118
▁የሐ	-11.118
ዛብ	-11.1181
ትናን	-11.1181
▁ካብኣ	-11.1186
▁ብኸ	-11.119
▁ጠልጠል	-11.1192
▁ተንቤን	-11.1192
ፍረድ	-11.1193
▁ድላዩ	-11.1193
ቆሮ	-11.1193
▁ስግ	-11.1195
▁መሊሰ	-11.1196
ማጽ	-11.1197
▁ኣምጺኡ	-11.12
▁ዝደለኹ	-11.12
ነብረሉ	-11.1201
▁ከዱ	-11.1203
▁ኣብዝ	-11.1205
ርሆ	-11.1206
▁ሓመ	-11.1206
▁ቅድ	-11.1206
ወለዱ	-11.1215
▁ፍጡራት	-11.1216
▁ኣይከኣሉን	-11.1216
▁ፕሮቲን	-11.1217
ፈነ	-11.1217
▁ክብረኣብ	-11.1217
▁ውክልና	-11.1218
▁በርቱዑ	-11.1218
▁ዘየድሊ	-11.1219
ምርዖ	-11.1219
ፐር	-11.1221
▁ሓሳባትን	-11.1222
▁ዝተሰምየ	-11.1224
▁መጻምድ	-11.1224
▁ካፈ	-11.1225
ረቑ	-11.1225
▁ብከምዚ	-11.1226
ማቱ	-11.1231
ክይ	-11.1232
▁ቘ	-11.1232
ርሶ	-11.1234
▁ኣይትሓ	-11.1234
▁ህለ	-11.1236
▁ባህልናን	-11.1237
ቕጻዕ	-11.1238
ኣተ	-11.1239
ጊሩ	-11.1239
▁ምውህሃድ	-11.124
▁ጀራዲን	-11.124
▁ይከኣሎ	-11.1241
▁ኣይትሕመቁ	-11.1242
▁ንምምጻእ	-11.1242
▁ከዛብ	-11.1243
▁ተስፎም	-11.1244
▁ይምረጽ	-11.1245
▁መንጐ	-11.1245
▁ክውሰን	-11.1247
ኣዮ	-11.1247
▁ሞየስ	-11.1248
▁ጠፊኣ	-11.125
ግዲ	-11.125
▁ጽንሕ	-11.125
ኮንኩም	-11.1254
ኣር	-11.1254
▁ሶል	-11.1256
ግባእ	-11.1257
▁ገዛኢ	-11.126
▁ቁመት	-11.1261
▁ደለየ	-11.1261
ሐጉስ	-11.1261
▁ወፊ	-11.1262
▁ደይሊ	-11.1263
▁ምክፍፋል	-11.1265
▁ተሞኩሮ	-11.1265
▁ሕጉሳት	-11.1265
▁ንጎይታ	-11.1265
▁ገበር	-11.1265
▁ብምዝ	-11.1267
▁ስለዝደለየ	-11.1267
▁ክክክክክክክክክክክክ	-11.1268
▁ኣመሪካውያን	-11.1269
ልፊ	-11.1271
ፍልጦ	-11.1271
ኣትው	-11.1271
▁ደርብ	-11.1273
▁ይፈጥር	-11.1273
ደልካ	-11.1275
▁አቡ	-11.1277
ፈፍ	-11.128
መቅ	-11.128
ላውነት	-11.1283
ድይብ	-11.1284
▁ጎማ	-11.1286
▁ዝብለ	-11.1288
▁ሚኒስተራት	-11.1289
▁እግዚአብሄር	-11.1289
▁ዘጠራጥር	-11.1289
▁ብጥዓሚ	-11.1289
▁ዳየሪ	-11.1289
▁ስርሐይ	-11.129
ዓተ	-11.1291
▁ንእግረ	-11.1291
▁ቆማል	-11.1292
ቢራ	-11.1293
▁እነሆ	-11.1294
▁መለሰት	-11.1296
▁መሬታ	-11.1296
▁ቀይሩ	-11.1299
▁ቅልስ	-11.13
▁ትምህርታዊ	-11.13
ሜን	-11.1302
▁አለዉ	-11.1303
▁ከምዝኸውን	-11.1303
▁ዘይብልና	-11.1304
ግሎ	-11.1305
ቕመጥ	-11.1306
ቃለሱ	-11.1307
ፍታሕ	-11.1307
▁ጉዕ	-11.1308
▁ተዛረብቲ	-11.1309
▁ምግናን	-11.131
▁ትሕብር	-11.1312
▁ኣፍጋኒስታን	-11.1313
▁ልኡኻት	-11.1313
▁ተጻዊቱ	-11.1313
▁ዘቤታዊ	-11.1313
▁ኣየወ	-11.1313
▁ምሕጋዝ	-11.1314
▁ምዝካር	-11.1314
▁ጓሳ	-11.1317
▁ጀመርኩ	-11.1319
▁ርኢኻ	-11.1322
▁አጆኩም	-11.1322
ዉነት	-11.1324
▁ዘሕፍር	-11.1325
ዓሊ	-11.1327
ሼ	-11.1327
▁ሽሙ	-11.1328
▁ዝተረፋ	-11.1328
ከሙ	-11.1331
▁ውሕ	-11.1332
▁ምድራ	-11.1332
▁ወጺአ	-11.1336
ጭው	-11.1336
▁ዝዝርጋሕ	-11.1337
▁ብብቕዓት	-11.1338
▁ርጉጽ	-11.1338
▁ጸለምቲ	-11.1338
▁ሰረቕቲ	-11.1338
▁ይመችህ	-11.1339
▁ሰሪሕኩም	-11.1341
▁ብስመይ	-11.1342
▁ዝደርፍ	-11.1343
ልዕሎ	-11.1343
▁እዝነይ	-11.1345
▁ሓብትና	-11.1352
ምያ	-11.1354
▁ዝፍለ	-11.1355
▁ይቱብ	-11.1357
▁ኣንስ	-11.1358
▁ኢዚኣ	-11.1358
ረደ	-11.136
ረቅ	-11.1361
▁ጎላጉል	-11.1362
▁ኣፎርቂ	-11.1362
▁ኣድማስ	-11.1363
▁ሕተት	-11.1363
▁ንኮ	-11.1364
▁መጥ	-11.1365
▁ዘይተደልየ	-11.1366
▁ንገብሮ	-11.1368
▁መሲሉኒ	-11.1368
▁መወዳእታኡ	-11.1371
ደለየ	-11.1372
▁ዝንገር	-11.1373
▁ድምጻዊት	-11.1373
▁2001	-11.1375
▁ዝተበ	-11.1375
▁ኣጋር	-11.1377
▁ኣስቲ	-11.1384
▁መወዳድርቲ	-11.1387
▁ኮሌጅ	-11.1387
▁ብግልጺ	-11.1387
ንጅ	-11.1387
▁ውጹዓት	-11.1388
▁ሰመ	-11.1388
▁ኣማረ	-11.1389
▁ጊላ	-11.1391
▁ክንረክብ	-11.1393
▁ክንርእዮ	-11.1394
ካይዶ	-11.1394
▁ዝልለ	-11.1395
▁በይና	-11.1397
▁መኸ	-11.14
▁ጠሚ	-11.14
▁ኦይ	-11.1401
▁ምፍታሕ	-11.1402
▁ዓይነታ	-11.1403
▁ከይነ	-11.1405
▁ንርኢ	-11.1405
ምታ	-11.1406
▁ዝኣተዉ	-11.1407
ረሳ	-11.1408
▁ደግ	-11.141
▁ንኩሎም	-11.141
▁ይሄ	-11.1411
▁ይባርኽ	-11.1411
▁ተሰጋጊሩ	-11.1411
▁ብሰለስተ	-11.1411
▁ሸሪዓ	-11.1412
ሕተት	-11.1412
▁ቁሸት	-11.1414
▁ይፈላለ	-11.1417
▁ሓድጉ	-11.1417
▁ማንኪ	-11.1419
▁የድልየና	-11.1425
ተረኽበ	-11.1426
ወጻ	-11.1427
▁እከለ	-11.1427
ይነት	-11.1427
▁ገጽኪ	-11.1427
▁ታርክ	-11.1428
▁ዝረኸቦ	-11.1428
▁ዝረኣ	-11.1429
ግሩ	-11.143
ጊስ	-11.1431
መጠ	-11.1431
▁ኖታሪ	-11.1433
▁ኣመንዝራ	-11.1436
▁ክይ	-11.1436
▁ተበጊሶም	-11.1436
▁ንምሉእ	-11.1436
▁ኮራ	-11.1437
▁ኦንኦን	-11.1437
▁ዝኾ	-11.1437
▁ብቑዓት	-11.1437
ሁሉ	-11.1437
▁ንምኽ	-11.1441
ሐደ	-11.1442
ግብር	-11.1446
ግዓ	-11.1447
▁እንተኮይኑ	-11.1448
ስምዖ	-11.1454
ጸኒ	-11.1455
▁ክወስዱ	-11.1455
▁ጭቃ	-11.1456
ወቕ	-11.1458
▁ብሎ	-11.1459
ክሕ	-11.1461
▁ምፍራ	-11.1461
▁ልጆች	-11.1461
▁ንምህናጽ	-11.1461
▁ፈርጉሰን	-11.1461
▁ተክኖሎጂ	-11.1461
ቅቕ	-11.1461
▁ሃብተሚካኤል	-11.1461
▁ተረጋጊጹ	-11.1461
▁ምድማር	-11.1465
▁ኣጥፊኡ	-11.1469
ቦይ	-11.147
▁ድሌታት	-11.1472
▁ክሰምዖ	-11.1476
▁ዲኣ	-11.1476
ስዕስዕ	-11.1477
▁ብኣጋኡ	-11.1477
▁ክትግበር	-11.1479
ድግፎ	-11.1479
▁ልም	-11.148
▁የብ	-11.1482
▁ኣሰል	-11.1484
▁ትብ	-11.1485
ጽሕፎ	-11.1485
▁በጽሑ	-11.1486
▁ገብረትንሳኤ	-11.1486
▁ንምዕባለ	-11.1486
▁ዝናኣድ	-11.1487
▁ኣእጋር	-11.1487
▁መስዋእትን	-11.1487
▁ሓዛ	-11.1488
▁ታንኪ	-11.1488
▁ንሕሰብ	-11.1488
▁ዘልኩ	-11.1488
▁ብዝተኻየደ	-11.1489
▁ሲራክ	-11.149
▁መለሳ	-11.1491
▁ተኺ	-11.1492
ነትካ	-11.1492
ገዝ	-11.1493
▁ዘሕለፈ	-11.1494
▁ብጣ	-11.1494
መስግኖ	-11.1495
▁ዕድለኛ	-11.1497
▁ቅን	-11.1501
ምዕብል	-11.1502
▁እኛ	-11.1503
ዛም	-11.1504
ውዎ	-11.1504
▁ኣባይኩም	-11.1506
▁ኣዝማ	-11.1508
▁ብምምልላስ	-11.1508
▁ንመበል	-11.151
▁ይቕረቡ	-11.151
▁በልኩም	-11.151
▁ተጋዳሊት	-11.1511
▁ኦሎምፒክ	-11.1511
▁ተፈጥሮኣዊ	-11.1511
▁ጎብለል	-11.1512
▁ፈቲነ	-11.1512
ህም	-11.1513
▁ሽማግለታት	-11.1517
▁ንምት	-11.1517
▁እናበላ	-11.1518
▁ዝሓለፎ	-11.1518
ረጋግጽ	-11.1521
ሎጂ	-11.1524
▁ዝኾንኩም	-11.1529
ነኒ	-11.1529
▁ዘሳ	-11.153
▁ሓለ	-11.1532
ራኸበ	-11.1532
▁ኣቢልኩም	-11.1533
ጠው	-11.1533
▁ሃይስኩል	-11.1536
▁ዝዓይነታ	-11.1536
▁ኣንባቢ	-11.1536
▁ቆላሕታ	-11.1536
▁ተኻኢሉ	-11.1536
▁ብምርኣይ	-11.1536
▁ዘይነበሮ	-11.1538
▁ሒዝዎ	-11.1541
▁ገፋሕ	-11.1542
▁ፈለ	-11.1542
ምገብ	-11.1546
▁ልብን	-11.1547
አለ	-11.1547
ዳፍ	-11.1549
▁ጎንደር	-11.155
▁ንስካትኩም	-11.1551
ወድአ	-11.1551
ፈርህ	-11.1552
▁ኣግራብን	-11.1553
▁ክደ	-11.1554
ነግስ	-11.1558
ምልከት	-11.156
▁ብጋህዲ	-11.1561
▁ወልደስላሴ	-11.1561
▁ብውልቂ	-11.1561
▁ዘየለወሉ	-11.1562
ጽብቅ	-11.1564
▁ሓዚነ	-11.1565
▁ካባኩም	-11.1565
ደልና	-11.1567
▁ዓረዛ	-11.1567
▁ወደባት	-11.1568
▁ኬን	-11.1568
ዋሪ	-11.1571
▁ትክእል	-11.1571
ኽብሩ	-11.1571
ገዛ	-11.1574
ጥቀመሎም	-11.1581
▁ከብዱ	-11.1582
▁ክሳ	-11.1582
ጋጋ	-11.1584
▁ዝገበርካ	-11.1585
▁ቅጽበታዊ	-11.1586
▁ሕጋጋት	-11.1586
▁ተጸዋዒ	-11.1586
▁ትጃር	-11.1586
▁ኴንና	-11.1587
▁ብዝእዝዞ	-11.1587
ሕጂ	-11.1587
▁ዝውሰድ	-11.1587
▁ከውሒ	-11.159
ልኦ	-11.1593
▁ጽሕፍቲ	-11.1594
ገማ	-11.1596
▁ክውዕል	-11.1597
ዀን	-11.1597
▁ሃገራትን	-11.16
ቀበ	-11.1602
▁ጸማም	-11.1604
▁ዝመጽኣ	-11.1605
▁ቀልጢፎም	-11.1611
▁ክላሲካል	-11.1611
▁ኻልኣይ	-11.1611
▁ስርዓታት	-11.1611
▁ስርሓትካ	-11.1612
▁እምንቶ	-11.1612
▁እግዚኣቢሄር	-11.1612
▁ብለይቲ	-11.1613
ሓተተ	-11.1615
ጥራ	-11.1617
▁ኣሚን	-11.1617
▁ኣውጺ	-11.1618
▁ጸለ	-11.162
▁ብሄረ	-11.1621
▁ብሃኪ	-11.1621
▁ነርስ	-11.1622
ሰሱ	-11.1624
ተግብሮ	-11.1624
ሳተፉ	-11.1625
ፈላሊ	-11.1625
▁ሽምዓ	-11.1625
▁ቆሪ	-11.1626
▁እዬ	-11.1626
▁ረሲ	-11.1631
▁ዘሎኹም	-11.1633
▁ድምጽን	-11.1634
▁እንቃ	-11.1634
▁ከማኹም	-11.1634
▁ደጋ	-11.1636
ፍዕ	-11.1637
▁ውጽእ	-11.1637
ራረብ	-11.1638
▁ተስፊት	-11.1638
▁መዓልታዊት	-11.164
▁ዝደረ	-11.1641
▁ጉን	-11.1642
▁ከመሓላልፎ	-11.1644
▁ቅቅቅ	-11.1644
ቓሕ	-11.1644
እምን	-11.1646
▁ወልድ	-11.1648
ርኮ	-11.165
▁ካልኣይን	-11.1651
ክብር	-11.1652
▁ዘሐጉስ	-11.1654
ቅሪ	-11.1655
▁ቦር	-11.1657
▁ከለኹም	-11.1657
ጽሙ	-11.1659
▁ስሞም	-11.1659
▁ሓድነትን	-11.1661
▁ክብረወሰን	-11.1661
▁ልኡል	-11.1662
ጊት	-11.1662
▁ብምምልላስን	-11.1663
▁ሳህራ	-11.1665
▁ክሽነ	-11.1666
▁ተስፋጽዮን	-11.1669
▁ክሳተፍ	-11.1669
ጸንሑ	-11.1671
▁ንፍቅሪ	-11.1672
ሊዮ	-11.1673
ወቲ	-11.1673
▁ወለዶም	-11.1674
ሃንስ	-11.1676
ወለ	-11.1677
ቅም	-11.1677
▁ንኹን	-11.1677
ገዲ	-11.1678
▁ሊቀ	-11.1679
▁ኣስተውዕል	-11.168
▁ጸንሐ	-11.1682
ጻብ	-11.1682
ርእየና	-11.1683
▁ተወዲ	-11.1686
▁መዘኻኸሪ	-11.1686
▁ሻድሻይ	-11.1686
▁ንምፍጻም	-11.1686
▁መዕለቢ	-11.1687
▁ቤንሁር	-11.1687
▁ቅቅቅቅ	-11.1688
▁ህይወታውያን	-11.1688
▁ኣበየ	-11.1689
በረት	-11.169
ሀት	-11.1691
ጋራ	-11.1691
▁በሊዕ	-11.1693
ቕስ	-11.1694
▁ፍትሓዊ	-11.1695
ከተ	-11.1696
▁ሂብ	-11.1701
ይኒ	-11.1701
ሕድር	-11.1703
ሪር	-11.1705
▁ጎረ	-11.1706
ነና	-11.1707
ብለን	-11.1708
▁የመን	-11.1709
▁ንምቕ	-11.1709
▁ሙካን	-11.171
ፉና	-11.171
▁ኣገናዕ	-11.1712
▁ተሓጋጋዚ	-11.1712
▁ዘቕረቦ	-11.1712
▁ብምንባራ	-11.1713
▁ጽበት	-11.1714
▁አኪ	-11.1715
ሃሪ	-11.1715
ኳዕ	-11.1717
▁ምክልኻልን	-11.1718
▁መፂ	-11.1719
▁ዘእቱ	-11.1723
▁ታርኽ	-11.1724
ደየ	-11.1725
▁ንገር	-11.1727
▁አጀ	-11.1728
▁በዝ	-11.1728
▁ዝጸልእ	-11.1729
▁ዉድ	-11.173
▁መዛ	-11.1731
ርፈ	-11.1732
▁ኡፍፍፍ	-11.1732
በጽሓ	-11.1732
▁ኣታዊታት	-11.1733
▁ናጽነትና	-11.1734
▁ኣባና	-11.1736
▁ምህንድስና	-11.1737
▁መኽንያቱ	-11.1737
▁በጺሖም	-11.1737
▁ጭቡጥ	-11.1737
▁ለገስቲ	-11.1738
▁ኣይመስልን	-11.1738
▁ምግፋፍ	-11.1738
ጽሕ	-11.1739
▁ስለዘየለ	-11.1739
▁ሼ	-11.174
▁ኣርከይ	-11.1741
ንብረ	-11.1741
ብጽሑ	-11.1742
▁ብዛዕባኡ	-11.1743
▁ዕምሪ	-11.1744
ውሓ	-11.1744
▁ብዝበለ	-11.1745
▁ምእንታ	-11.1749
▁ባይረ	-11.1752
ወራ	-11.1755
▁ንምብ	-11.1759
ርደኦ	-11.1759
▁ፋርስ	-11.176
▁ኣስመላሽ	-11.1763
▁ተስፈኣለም	-11.1763
ሰክ	-11.1763
▁ቅርስታት	-11.1763
▁ዓቕምና	-11.1764
▁ቀጥታዊ	-11.1765
▁እንተኾኑ	-11.1765
▁ህልኽ	-11.1765
▁ነግ	-11.1766
▁ሓልዮትን	-11.1767
ብጽሕ	-11.1771
ውዩ	-11.1771
▁ጉራ	-11.1772
በሃ	-11.1772
▁ምምሃር	-11.1774
ደለይ	-11.1776
▁ኮነት	-11.1777
ዳእ	-11.1777
ሰምዐ	-11.1777
▁ጥዕ	-11.1782
ቲክ	-11.1784
▁ክንምለስ	-11.1784
▁ኣእምሮና	-11.1786
ግዚ	-11.1788
▁ገንሸል	-11.1789
▁ኣእጋሩ	-11.1789
▁ምክትል	-11.1789
▁ኣድሓኖም	-11.1789
▁ፈነወ	-11.1789
▁ተሰማ	-11.1791
ብዝ	-11.1792
ፎር	-11.1794
▁ዓድካ	-11.1795
▁ዘእተወ	-11.1796
▁ነናብ	-11.1797
ጥምታ	-11.1797
ግዒ	-11.18
▁ወእ	-11.1802
ሬታ	-11.1802
▁ዝርኢ	-11.1802
ልኹም	-11.1804
▁ጦ	-11.1806
ሪሩ	-11.1809
ተኒ	-11.1811
▁ማንካ	-11.1811
▁ንጣብ	-11.1811
▁ንውድድር	-11.1814
ጽሮ	-11.1814
▁እግራ	-11.1815
▁ይላቦ	-11.1815
▁77	-11.1816
ዕረ	-11.1818
▁ኖታሪን	-11.1819
ካየዱ	-11.1819
ሰው	-11.182
ኡኒ	-11.182
ሓድሩ	-11.1821
▁ዓበ	-11.1822
▁ይውዕል	-11.1823
ልዲ	-11.1825
ኽብ	-11.1825
▁ንኣብ	-11.1825
▁ኩለ	-11.1825
▁ይጥ	-11.183
▁ዝሰላሰል	-11.1831
ቅይር	-11.1833
▁ዝበጽሓና	-11.1834
▁ሲንጋፖር	-11.184
▁እንኻዕ	-11.184
▁ሕንጻጽ	-11.184
▁እብለኩም	-11.1841
▁ተወልደብርሃን	-11.1842
▁ትንተና	-11.1842
▁ቅጽሎ	-11.1843
▁ፖለቲካውን	-11.1845
ክሮ	-11.1848
▁ዝመጽኡ	-11.1849
▁ክፍትን	-11.185
ጸልኦ	-11.1852
ገጥም	-11.1852
▁ኣቕሓ	-11.1853
ለወ	-11.1857
ሕሰ	-11.1857
ትግራይ	-11.1859
▁ለበ	-11.1859
▁04	-11.186
▁አህ	-11.186
▁እዉይ	-11.1865
▁ኒውካስል	-11.1866
▁ዝተሳተፍዎ	-11.1866
▁ረዲኤት	-11.1866
▁ይሕዋትና	-11.1866
ስታን	-11.1868
▁መካ	-11.187
▁ዘቃ	-11.187
▁ይሃበለይ	-11.187
ሰአ	-11.1871
▁ክትው	-11.1872
▁ዕጸ	-11.1872
ጥዑ	-11.1872
▁ሓተላ	-11.1872
▁ደይብ	-11.1873
▁ክትሓስብ	-11.1873
▁ሚስተር	-11.1874
▁መድሃኒታት	-11.1875
▁ሃፍ	-11.1875
▁ኣናጹ	-11.1876
▁አነስ	-11.1876
▁ወግ	-11.1879
▁ወሲድካ	-11.1883
ልጣ	-11.1884
▁ትክ	-11.1886
▁እንተበልኩ	-11.1888
▁ትነ	-11.1888
▁ይወጽእ	-11.1889
ውውውው	-11.1889
▁ድዪ	-11.1891
ሰርሓሉ	-11.1891
▁ዕሱባት	-11.1891
የልና	-11.1892
▁ምጽጋን	-11.1893
▁ክፋ	-11.1894
ኢካ	-11.1894
▁ቦርሳ	-11.1894
ብዱ	-11.1897
ጥመት	-11.1897
ግምት	-11.1898
▁ነቕ	-11.1901
▁ቤታት	-11.1901
▁መጨረሻ	-11.1901
ቀሳ	-11.1905
▁ንሳዋ	-11.191
▁ወመ	-11.191
▁ዝግበረሉ	-11.1912
ነወ	-11.1913
ደፈ	-11.1914
▁ሓውኩም	-11.1915
▁ተተካእቲ	-11.1917
▁ወከፎም	-11.1917
▁እምነትን	-11.192
▁ማሺ	-11.192
▁ጨርቂ	-11.1922
▁እናጠ	-11.1923
▁ብርኽቲ	-11.1926
▁ብቋንቋ	-11.1928
▁ግዜኣ	-11.1928
▁ስደትን	-11.1928
▁ክህልዎም	-11.1928
ሓጎስ	-11.1934
ውነቱ	-11.1935
ዳለዉ	-11.1935
ተኻየደ	-11.1935
▁ኢኮ	-11.1937
▁ዘካይድዎ	-11.1938
▁ካካ	-11.1939
▁ንህዝብ	-11.194
ወስዶ	-11.1941
▁ኣውድኣመት	-11.1943
▁መጠንቀቕታ	-11.1943
▁ሳሮነይ	-11.1943
▁ምድንጋር	-11.1943
▁ኮራኩር	-11.1944
▁ከምዘይክእል	-11.1946
▁ራድዮ	-11.1946
ሮት	-11.1947
▁ኣይኮን	-11.195
▁ይዋ	-11.1952
ላውያን	-11.1953
▁ናዓካ	-11.1953
▁ቃላ	-11.1953
▁ኣይትሃ	-11.1954
▁ተሰዊኡ	-11.1955
▁ዓላ	-11.1956
▁ከይረኣ	-11.1957
▁ነስ	-11.1958
ዘት	-11.1958
▁ዝሰመ	-11.1959
ወልዳ	-11.1961
▁ህዝብኩም	-11.1965
ነትና	-11.1965
▁ይገብራ	-11.1967
▁ድኽመት	-11.1968
▁ኣልኮላዊ	-11.1969
▁ብምግንዛብ	-11.1969
▁ሚል	-11.1969
▁ተወልደመድህን	-11.197
▁ኤክስፖ	-11.197
▁ጉድጋድ	-11.1971
▁ሕም	-11.1971
ሀለ	-11.1972
▁ግዳማዊ	-11.1973
▁ኤውሮጳን	-11.1973
ርቢ	-11.1973
ራባ	-11.1977
▁ዕብየትን	-11.1977
▁ዘና	-11.198
▁ከደት	-11.1981
▁ሕዝካ	-11.1982
▁ተጋጊኻ	-11.1982
▁ሳዓ	-11.1984
▁ከባቢና	-11.1987
▁ዝአ	-11.1987
ዝና	-11.1988
▁ጎኑ	-11.1988
መሃሮ	-11.1989
▁ይል	-11.1989
ሕሊፍ	-11.199
ኪዮ	-11.199
▁ዘስተ	-11.1992
▁ደንበ	-11.1993
▁ተጠቃምነት	-11.1995
▁ጳጳስ	-11.1995
▁ሩዋንዳ	-11.1995
▁በንጻሩ	-11.1995
▁ምንቅስቓሳት	-11.1996
▁ሰንሰለት	-11.1996
▁መንግስትና	-11.1997
ግበሮ	-11.1997
▁ሰፊሩ	-11.2
▁አስተ	-11.2
ክሲ	-11.2
ልግ	-11.2003
ዒን	-11.2005
▁ኮንጎ	-11.2005
ግነ	-11.2006
▁ሰዓብቲ	-11.2008
ሪኤ	-11.2008
▁ፎሮ	-11.2008
ጥቕ	-11.2008
▁ኣላይ	-11.2009
▁ሃማ	-11.2011
▁ማሚ	-11.2012
▁ድምጽኺ	-11.2014
▁ኣሎዉ	-11.2016
▁ስቴ	-11.202
ላገጽ	-11.202
▁ሰነፍ	-11.2021
▁ስዊዘርላንድ	-11.2022
▁ሞዴል	-11.2022
▁ተረኽበ	-11.2024
▁ጸብ	-11.2025
▁ዝበልጽ	-11.2027
▁ዝተሰጋገረ	-11.2028
▁እናወሰኸ	-11.2029
▁ባህር	-11.2032
▁አሳ	-11.2032
▁ፍሕ	-11.2032
ቤቱ	-11.2033
▁ክፈልጡ	-11.2034
▁ንገንዘብ	-11.2035
▁ተታ	-11.2035
▁ኢለያ	-11.2036
▁ውዲት	-11.2036
ጀምር	-11.2038
▁ጀሚርኩም	-11.204
▁ቀዲሙ	-11.2041
ሉሉ	-11.2042
▁ይጻወት	-11.2045
▁ሽግ	-11.2046
ልጡ	-11.2048
▁ዶብና	-11.2049
▁ምዕዛብ	-11.2049
▁ንመንእሰይ	-11.2049
▁ኩርኩር	-11.2049
▁ግንባርን	-11.2049
ብሄር	-11.2049
▁ክወሃቦ	-11.2051
ዕለል	-11.2052
በቱ	-11.2053
▁መራሒት	-11.2054
▁ይሓስብ	-11.2054
ቃስ	-11.2056
▁ሃብቱ	-11.2056
▁ኮላ	-11.2057
መልከ	-11.2057
▁ተዓዘብ	-11.2058
▁ዝገጠሞ	-11.2059
ደው	-11.2061
▁ርሒ	-11.2062
▁ዘይበ	-11.2063
ገዝኡ	-11.2065
▁ከረጋግጽ	-11.2066
▁ይብለኩም	-11.2066
ስልጣን	-11.2071
ጻፍ	-11.2072
ሕበ	-11.2072
ልሳ	-11.2073
▁ተወዳዳሪ	-11.2074
▁ጉኑፍ	-11.2074
▁ኣከለጉዛይ	-11.2074
▁ኣሸጋሪ	-11.2074
▁ወሲኾም	-11.2075
▁ጽንኩር	-11.2076
በዝሕ	-11.2076
▁ኣጀኪ	-11.2076
ሰዱ	-11.2077
አለም	-11.2077
▁ክንብሎ	-11.2078
ለኝ	-11.2078
▁ይኸዱ	-11.2079
▁ሳዓት	-11.2079
ሰጋገረ	-11.2081
ልግስ	-11.2081
ለማዊ	-11.2083
▁ተቛ	-11.2084
ዝሕ	-11.2086
▁ህልም	-11.2091
ጡን	-11.2094
▁ይገብረ	-11.2095
▁ዓብደል	-11.2096
▁ዝገበረት	-11.2097
ንቃዕ	-11.2098
ሩብ	-11.2098
▁ይጥዕም	-11.2098
▁ንስኻን	-11.2098
▁ንልቢ	-11.2099
▁ነዓና	-11.21
ይቶ	-11.2101
▁ንምዃኑ	-11.2101
ሰየ	-11.2101
▁መንእሰያትና	-11.2104
▁ዝቅ	-11.2105
▁ኣይረኸብ	-11.2105
▁ቀላ	-11.2108
▁ኢጣልያዊ	-11.211
▁ተርእዮታት	-11.211
▁ሂባ	-11.2112
ኤት	-11.2113
▁ብልዕ	-11.2114
▁ህዝበ	-11.2114
ጺሩ	-11.2115
▁ናብኣ	-11.2115
▁ንምጥ	-11.2118
▁ክልል	-11.212
▁ኣስሚ	-11.2121
ኩምኒ	-11.2123
▁ሰስኑ	-11.2124
▁ክህቦ	-11.2125
ሁድ	-11.2126
▁ጽግያት	-11.2127
▁ዓዋተ	-11.2127
▁ንሃገሩ	-11.2128
▁ምሕላው	-11.2128
▁ዕውት	-11.2128
▁ዕፉን	-11.2132
▁ፈጠረ	-11.2132
▁ፈላ	-11.2134
▁ረኣዩ	-11.2134
▁ዜማታት	-11.2134
ኽራ	-11.2135
▁ድንግልና	-11.2135
መሓደር	-11.2136
▁ዓቕምኻ	-11.2138
ሕኩ	-11.2139
ድሙ	-11.214
▁ትወ	-11.214
ጥቀም	-11.2141
ሰድ	-11.2141
▁ወጽዓ	-11.2142
▁ቃልኣብ	-11.2144
▁ኣርሒ	-11.2145
▁ዝጠፍኣ	-11.215
▁ኮምኡ	-11.2153
▁ትዕዝብቲ	-11.2154
▁ቀንዩ	-11.2154
▁ደቀቕቲ	-11.2154
ህረ	-11.2154
▁ቀረበ	-11.2156
▁ብሞያ	-11.2157
▁ማያዊ	-11.2157
ጸለ	-11.2157
▁ሓርጭ	-11.2158
▁ዶክተራት	-11.2158
▁ዘይሕ	-11.216
በልዖ	-11.216
ንግስ	-11.2162
▁ዐድ	-11.2164
ብርህ	-11.2164
ሕዋ	-11.2164
▁ዝወረ	-11.2167
▁ማሰ	-11.2168
ሰልካ	-11.2168
▁ንስም	-11.2169
▁መኪ	-11.2174
ዚኣ	-11.2174
▁ካንሸሎ	-11.218
▁ጻህያይ	-11.218
▁ዋርድያ	-11.218
▁ኢትዮፕያ	-11.218
▁ስሕበት	-11.2181
▁ለኪ	-11.2181
▁ኣጆዃ	-11.2181
▁ሂወትኪ	-11.2183
▁ማዕድን	-11.2183
▁ብደቂቕ	-11.2189
▁ኣድና	-11.219
▁ካብዚኦም	-11.2191
▁ዌ	-11.2195
▁ፉል	-11.2195
▁ሰበይተይ	-11.2195
ነተ	-11.2197
▁ርግጽ	-11.22
ስእኑ	-11.2201
▁ዝገደፈ	-11.2203
ፍነ	-11.2203
ማራ	-11.2205
▁ዕድ	-11.2206
▁ኣቐዲምካ	-11.2207
▁ግርጭት	-11.2207
▁ብግደኡ	-11.2207
▁ፈጺማ	-11.2207
▁ኣይተረፈን	-11.2207
በደል	-11.2208
▁ቻፒ	-11.2209
▁ዓይኖም	-11.2209
▁ሎሚስ	-11.2211
ኽሩ	-11.2211
▁ንስክን	-11.2212
ሽሽ	-11.2216
▁ጥቅ	-11.2216
ህልዋ	-11.2216
▁ዘፍረ	-11.2218
▁ገሮም	-11.2222
አቱ	-11.2222
ዳሉ	-11.2222
▁ጽል	-11.2224
ክሎ	-11.2225
ሃለወ	-11.2226
▁መዓል	-11.2227
▁ገዛኡ	-11.2228
ውሕድ	-11.2228
ግንዘብ	-11.2229
▁ሕብረተሰብን	-11.223
▁ዳታ	-11.2231
▁ክሰርሓ	-11.2231
▁ፊዚክስ	-11.2233
▁ተዓዛቢ	-11.2234
▁ስብከት	-11.2236
▁ርኢ	-11.2236
▁ምትካል	-11.2236
▁ዴቭ	-11.2237
ኣልየ	-11.224
▁ስዓት	-11.2243
እዳ	-11.2244
▁ሰጊሩ	-11.2244
▁ክከ	-11.2246
▁ክብራ	-11.2247
▁እንካን	-11.2248
ርሂ	-11.225
▁ዘይነ	-11.2255
ሽው	-11.2255
ምስክር	-11.2256
▁ሹቕ	-11.2257
ግላ	-11.2257
▁ከብድ	-11.2259
ቅጽ	-11.226
▁ሃጓፍ	-11.226
▁ኣእዳዉ	-11.226
▁ብጉዳይ	-11.2261
▁ገዲፍኩም	-11.2261
▁በሃላይ	-11.2262
▁ሽኾር	-11.2263
▁ተነጺ	-11.2264
▁ነባ	-11.2265
▁መዛሙርቱ	-11.2265
▁ንዛረብ	-11.2269
▁ኣንድ	-11.2272
▁ተዛሪብ	-11.2273
ሚር	-11.2274
ገለጽ	-11.2276
ስሊ	-11.2278
ነነ	-11.2278
ቢኡ	-11.2278
▁ውል	-11.2278
▁ጎስጓስ	-11.228
▁ይብዝሑ	-11.228
▁ያኣ	-11.228
▁የለም	-11.2283
በያ	-11.2284
▁ጸሊአ	-11.2285
▁ተቐሚጡ	-11.2287
▁ንብዓተይ	-11.2287
ድመር	-11.2288
▁ብትብዓት	-11.2288
▁ዘለኣለም	-11.2288
▁2002	-11.2289
▁ተሰሊፉ	-11.2291
▁ተሕ	-11.2291
▁ገንዘብን	-11.2291
▁ኢተ	-11.2294
▁ላቲን	-11.2295
▁ክልቴና	-11.2295
ናዮን	-11.2296
▁ምህር	-11.2298
ማማ	-11.2299
▁ሕርር	-11.23
▁ንገሩኒ	-11.23
▁ጠፊ	-11.2302
ጠፋ	-11.2304
ምቦ	-11.2304
▁ሃባ	-11.2304
▁ጥል	-11.2305
▁ሀይ	-11.2306
▁ንጽበየካ	-11.2307
▁እንከ	-11.2308
▁ሒዝኪ	-11.2308
ሽቱ	-11.231
▁ትእ	-11.2311
ትል	-11.2313
▁ንብዙሕ	-11.2314
▁መበቆል	-11.2314
▁መንከም	-11.2315
▁ኣብቂዑ	-11.2316
▁ማዓር	-11.2316
▁ሽሻይ	-11.2317
▁እንዳበልኩም	-11.2317
▁ክህልዉ	-11.2318
▁ሰሓቢ	-11.2321
ብዛ	-11.233
▁ዝተገ	-11.233
ፋስ	-11.2331
▁ተወዲኣ	-11.2332
▁ግል	-11.2332
ባለ	-11.2333
እሰር	-11.2333
▁ማዓልት	-11.2334
▁ኤውሮፓ	-11.2336
▁ብኸም	-11.2336
▁ዝኽእላ	-11.2339
▁ግሪ	-11.234
▁ያታ	-11.234
▁ሹድሽተ	-11.2341
▁ምበኣር	-11.2341
▁ብቐሊል	-11.2341
▁ኣብርሸይ	-11.2342
ረሙ	-11.2342
▁ክርእዩ	-11.2343
ኣሊ	-11.2344
ደርፊ	-11.2345
ዛዊ	-11.2347
▁ግዛ	-11.2347
▁ትቀ	-11.2348
▁ስምዒቱ	-11.235
▁ለሀ	-11.2351
ፈለጡ	-11.2355
ልመ	-11.2356
▁አበ	-11.2358
▁ጸሊ	-11.2359
ቓል	-11.2359
ገድስ	-11.236
ጸይ	-11.236
▁ሄሎ	-11.2363
▁ክንሕ	-11.2363
ጃል	-11.2363
▁ልብኺ	-11.2364
መሓይሽ	-11.2366
▁ዘይብልኩም	-11.2367
▁ቀመማት	-11.2368
▁ጨካናት	-11.2368
▁ምእካብ	-11.2369
▁ብሰንክ	-11.2369
ጫጭ	-11.2371
ጥዕም	-11.2371
▁መጀመሪያ	-11.2372
▁እንተዘይኮነ	-11.2374
▁በሃ	-11.2375
▁ሓጋይ	-11.2377
▁ሐንቲ	-11.2378
ሕዛ	-11.2379
▁እትገልጽ	-11.2381
ጽፍ	-11.2383
▁ስሓቕ	-11.2385
▁ሸው	-11.2386
▁ሓውይ	-11.2387
▁ምጻእ	-11.2389
▁ደርፍስ	-11.239
ንገር	-11.2392
▁ሃቦ	-11.2392
ዝር	-11.2394
▁ዝሰርሓሉ	-11.2394
▁እሂ	-11.2396
▁ኣይጠራጠርን	-11.2396
▁ብዓውታ	-11.2396
▁ብምብ	-11.2397
▁ዕድመኡ	-11.2398
ህለ	-11.24
ኽካ	-11.24
▁ስምረት	-11.2401
▁መሰላ	-11.2401
▁መሲላ	-11.2404
▁ሓላፊት	-11.2405
ኾና	-11.2405
ላማ	-11.2405
ርቱ	-11.2405
ኣኪ	-11.2406
ልቡ	-11.2407
▁ክወጹ	-11.2411
▁ዶስ	-11.2411
ህልዎ	-11.2412
ባበ	-11.2412
▁ዝከይድ	-11.2419
▁ዘቃበርኩምና	-11.2419
ተግብር	-11.2419
▁ኣይትስ	-11.242
ርድኡ	-11.2421
▁ግብጻውያን	-11.2423
▁እሺ	-11.2423
▁ጽዕነት	-11.2423
▁ዘመናውነት	-11.2423
▁ብኽያት	-11.2427
▁ከማና	-11.2428
▁ሳሎን	-11.2429
▁ውውው	-11.2429
▁ነር	-11.2431
ኸዱ	-11.2433
▁ስለዝኾኑ	-11.2433
▁ዘይሕሰብ	-11.2434
▁ፈቐዶ	-11.2435
▁መጓሰ	-11.2437
▁ዕም	-11.2437
▁መሸላ	-11.2437
▁መሪጸ	-11.2438
▁በኣል	-11.2438
▁ትረኽቦ	-11.244
▁ከመዝግብ	-11.244
ወድቁ	-11.2441
▁ዝግመት	-11.2442
መዝግብ	-11.2443
ከነ	-11.2445
▁ተኽ	-11.2445
▁ውሒ	-11.2449
ሪፍ	-11.2449
▁ሃበኒ	-11.2449
▁ካልኢታት	-11.245
▁መንገሻ	-11.245
▁ላዕላይ	-11.245
▁ንምርኣይ	-11.2451
▁ምድጋም	-11.2451
▁ብኡነት	-11.2451
▁1999	-11.2451
ጣሕ	-11.2456
ዉቲ	-11.2457
▁ሓለፍ	-11.2457
▁ሃዳሚ	-11.2458
▁ፈቲና	-11.2459
▁ካባኺ	-11.2459
▁ዘዕግብ	-11.2461
ኮራ	-11.2465
ርሙ	-11.2467
ህበና	-11.247
▁ወሰ	-11.2473
▁ክኾና	-11.2476
▁ፊሽ	-11.2477
▁ምጅማሩ	-11.2477
▁ብሕርቃን	-11.2477
▁ደጋጊምካ	-11.2477
▁ቀጥልበት	-11.2478
ፍልጠ	-11.2479
▁ህብ	-11.2479
▁በኺት	-11.2479
▁መልሰ	-11.2481
▁ኣምጺእ	-11.2481
▁ፈልሲ	-11.2482
ቢብ	-11.2484
▁ይር	-11.2484
እከብ	-11.2484
መበል	-11.2484
▁አባይ	-11.2487
▁ክትሰርሑ	-11.2487
▁52	-11.2488
▁46	-11.2489
▁ምምራጽ	-11.249
▁እተባህለ	-11.2491
▁እንዲካ	-11.2492
▁ብሓገዝ	-11.2493
▁ቨ	-11.2493
▁ድበ	-11.2494
▁ሁሉም	-11.2494
▁ተኣምራት	-11.2495
▁ዘይጸ	-11.2498
▁ዓብደልቃድር	-11.2505
▁ኣቓሑ	-11.2505
▁ምትግባር	-11.2505
▁ጾሎት	-11.2505
▁ዘጋጥመ	-11.2505
▁ዓሚቚ	-11.2508
▁ጌር	-11.251
ኮላ	-11.2513
▁ግናይ	-11.2514
▁ብልዕሊ	-11.2514
ይዎም	-11.2519
▁ዘህ	-11.252
▁ክረኽባ	-11.2525
▁ትምጻእ	-11.2525
▁ንጓል	-11.2528
▁ይረክብ	-11.2529
ወርዱ	-11.2531
ሕጐስ	-11.2531
ሕተቱ	-11.2531
ወስዳ	-11.2532
▁ተንቀሳቓሲ	-11.2532
▁ተረኺቦም	-11.2532
▁ትግራዎት	-11.2533
▁ዘይምህላው	-11.2533
▁ማህደር	-11.2534
▁ወልደኣብ	-11.2534
▁ሕማማ	-11.2535
▁ጉዳዮም	-11.2535
ሓረ	-11.2536
ኣኹ	-11.2538
▁ሰብአይ	-11.2541
▁ተኮይኑ	-11.2545
▁ውውውው	-11.2545
▁ቀደምካ	-11.2545
▁ክትድ	-11.2545
ብደ	-11.2545
ጥቀማ	-11.2546
▁ይሽ	-11.2548
ሀን	-11.2549
▁ማእከላት	-11.2551
▁ዝግበኦ	-11.2553
▁ፈገር	-11.2554
▁ከጽ	-11.2554
▁ብሚ	-11.2556
ኻል	-11.2558
▁ጊደ	-11.2559
▁ኣካዳሚ	-11.256
▁ፕረሲደንት	-11.256
ኽዮ	-11.256
▁መፃእኩም	-11.2561
▁ቀልቀል	-11.2561
▁ዘጋጠሞ	-11.2562
▁ምኽኣሉ	-11.2566
ሰሪ	-11.2566
▁ትጅምር	-11.2567
ዲስ	-11.2568
▁ወደቐ	-11.2568
ቐኒ	-11.2572
ሓፋ	-11.2573
▁ጸም	-11.2575
ስትዮ	-11.2575
▁መጠ	-11.2581
▁መሊእ	-11.2582
▁ዘፍቅሮ	-11.2584
▁ክወዳደር	-11.2584
▁ዘሎዉ	-11.2586
▁ኣልኣሚን	-11.2588
▁ዳሕረዋይ	-11.2588
ቀው	-11.2588
▁ሳሌም	-11.2589
▁ኣይኰነትን	-11.259
▁ዝህባ	-11.2591
▁ውነሽ	-11.2592
▁እናሻዕ	-11.2592
▁ትጽ	-11.2593
▁ኮይንኪ	-11.2593
ሓጥ	-11.2595
▁ሸኮር	-11.2595
ባስ	-11.2599
▁እድሜ	-11.26
መሩ	-11.2601
▁ንደቀ	-11.2607
የቶ	-11.2607
▁ዝሃለ	-11.2608
ዝብ	-11.2611
▁ዋናታት	-11.2611
▁ከንብብ	-11.2612
▁ሰክት	-11.2613
ጸም	-11.2613
ልላ	-11.2613
ፈታ	-11.2614
ጋት	-11.2614
▁እንተዘይቀሪብካ	-11.2616
▁ኣገዳስን	-11.2616
▁ዘርኣ	-11.2616
▁ዓንጃል	-11.2616
▁ህድኣት	-11.2616
▁ቐዳማይ	-11.2616
▁ሹኮር	-11.2617
▁ንፍትሒ	-11.2618
▁የካይድ	-11.2618
▁ክነሱ	-11.2618
▁ሓየሎም	-11.2619
▁ዝጸሓፍ	-11.2619
▁ድምጻውያን	-11.262
▁ሓተቶ	-11.262
▁ጸጋማይ	-11.2622
ዲኣ	-11.2622
▁ዘድልዮም	-11.2623
▁ፊደል	-11.2625
ድሞ	-11.2626
▁ተመሪ	-11.2631
ገብራ	-11.2631
ጽውዕ	-11.2632
▁ጨር	-11.2633
▁መፍ	-11.2633
ንብቡ	-11.2633
▁መለይ	-11.2634
▁ተዛረቦ	-11.2635
▁ዘርኣየ	-11.2635
ጽቡቅ	-11.2635
▁ብደገ	-11.2637
ምህራ	-11.2637
ዓዲ	-11.2638
ኢሉ	-11.2639
▁ሸኽ	-11.2639
▁መጻኪ	-11.2639
▁አዳ	-11.264
ደግም	-11.2642
ብዩ	-11.2642
▁አገ	-11.2643
▁ንፉ	-11.2643
▁ማሕበራውን	-11.2643
▁ብገምጋም	-11.2643
▁ጥዑማት	-11.2643
ድሕኑ	-11.2644
▁ኣፍቂረ	-11.2644
▁ተመሊስና	-11.2644
▁ተበጊሰ	-11.2644
▁ዝውዕሉ	-11.2645
▁ጸጊ	-11.265
ረዩ	-11.265
▁ኣንቢ	-11.2653
▁ሓላፍ	-11.2655
ጉድል	-11.2656
▁መኽበሪ	-11.2657
▁የእት	-11.2657
ቐም	-11.2658
ሕልፉ	-11.2659
▁ዕድመይ	-11.2665
ጽሓፍ	-11.2667
▁እንዲዩ	-11.2669
▁ክትነብሩ	-11.267
▁ኣዕኑድ	-11.2671
▁ገብረክርስቶስ	-11.2671
▁ሕድገት	-11.2672
ስተማቕሮ	-11.2672
▁ተጠቒሞም	-11.2672
ሓቑ	-11.2673
▁ናፖሊ	-11.2673
▁ተጠቒሱ	-11.2675
▁ኔር	-11.2676
▁በሃሊት	-11.2676
▁ብምስራሕ	-11.2679
▁ሰማይን	-11.2679
▁ዜብሉ	-11.2681
ፈርድ	-11.2685
▁ዝተሓወሶ	-11.2686
▁49	-11.2687
መስሉ	-11.2691
ረፈት	-11.2692
ኽሰ	-11.2698
▁መቕ	-11.2698
▁ኣይጸ	-11.27
▁ተጻብኦ	-11.2701
▁ክጽበያ	-11.2702
▁ኩንታል	-11.2702
ደዳ	-11.2704
▁ሓርነትን	-11.2705
▁ይፍጠረልና	-11.2708
▁ተፈሪ	-11.2709
▁ታንክታት	-11.2711
ብዛሕ	-11.2711
▁ቦምባ	-11.2713
▁ክፍወስ	-11.2713
▁ዝነበረኒ	-11.2714
ስትን	-11.2714
▁መፅ	-11.2717
▁ትሓይሽ	-11.2718
ቶት	-11.2718
▁ተድላ	-11.2719
▁ዘይብለን	-11.272
▁ትኪ	-11.2721
ጠንቅ	-11.2724
▁ቦሎ	-11.2726
▁ሰደደ	-11.2727
▁ብየማናይ	-11.2727
▁ዳውን	-11.2728
ትፈልጥ	-11.2728
▁ንዓዲ	-11.2728
▁ምዕጻው	-11.2728
ሀል	-11.2731
ቃም	-11.2732
ፈትሖ	-11.2732
▁ኣጃ	-11.2737
▁ከውጽእ	-11.2739
▁ሞስኮ	-11.274
ገብረሎም	-11.274
ከድ	-11.274
▁ብልጫታት	-11.2741
ስዕሮ	-11.2741
▁ነጺ	-11.2742
ሸር	-11.2747
ህሊ	-11.2749
ዘውር	-11.2753
ፍትሽ	-11.2753
▁ኩኒ	-11.2753
▁ተሪፍና	-11.2754
▁ፖርቱጋል	-11.2756
▁ኮለጃት	-11.2756
▁ቁሊሕ	-11.2756
▁ንልምዓት	-11.2756
▁ይሓግዝካ	-11.2757
▁በልክዎ	-11.2757
▁ክብርኣብ	-11.2758
▁መዓሾ	-11.2758
▁ሃይማኖትን	-11.2758
▁ምኳኑ	-11.2759
▁ቃሕ	-11.2761
▁ብስለት	-11.2762
ነኣ	-11.2763
▁ምሕባር	-11.2763
▁ንምስራሕ	-11.2763
▁ዝሀ	-11.2771
▁ክዛዘም	-11.2772
▁በእ	-11.2772
ስተማቕር	-11.2773
ረጋገጽ	-11.2778
▁እትኸውን	-11.2779
▁የርእየና	-11.278
▁ቀሊ	-11.2782
▁ሞራ	-11.2783
▁ምንቅጥቃጥ	-11.2784
▁ገጣማይ	-11.2784
▁ተምቤን	-11.2784
▁ሓንጐል	-11.2784
ደፋ	-11.2786
▁ኣያታትና	-11.2786
ረድእ	-11.2786
▁ተል	-11.2787
▁ብኣይ	-11.2788
ወለደ	-11.2789
▁ክትመ	-11.279
▁ጥሪትን	-11.279
▁ናፊ	-11.2791
▁ተወፋይነት	-11.2791
▁ሃሰስ	-11.2792
በላሽ	-11.2794
▁ይግብኦ	-11.2795
▁ክጥቀስ	-11.2795
▁ኢሰያስን	-11.2796
▁ዝግብኦም	-11.2797
▁ጀር	-11.2797
▁ንብረትን	-11.2797
▁ሃሰው	-11.2798
▁በላዕ	-11.28
▁ኣስተማ	-11.2801
ኣኩም	-11.2806
▁ግደፉና	-11.2806
▁ዶር	-11.2809
▁ደረቕ	-11.2809
በኩም	-11.281
ራሽ	-11.281
▁65	-11.2812
▁ጽጉማት	-11.2812
▁ጋዘጠኛ	-11.2812
▁ፍሉጣት	-11.2812
▁ብታእሚ	-11.2812
▁ዘለኣለማዊ	-11.2812
▁ኣእዱግ	-11.2812
▁ኣልባሳት	-11.2813
▁ጋይላ	-11.2813
ህዝ	-11.2815
▁መጺኻ	-11.2816
▁ወተ	-11.2816
ጋጠመ	-11.2824
ቕበሎ	-11.2827
▁ክቐርቡ	-11.2829
▁ስሓቅ	-11.2829
▁ደልዮም	-11.2829
▁ሽዋ	-11.283
▁ንትምህርቲ	-11.283
ሽገር	-11.2831
▁ተቐመጠ	-11.2831
ሊላ	-11.2832
▁እቡ	-11.2834
▁ምምሃርን	-11.2836
▁ወጻ	-11.2838
▁ክንደ	-11.284
▁ኣመዝጋቢ	-11.2841
▁ምህላወን	-11.2841
▁ንምክያድ	-11.2841
▁ስለዝደለና	-11.2841
▁ተራእዮም	-11.2841
▁ካርቱም	-11.2841
▁ኣካላታ	-11.2841
▁ስሉጥ	-11.2842
▁ዝቘ	-11.2844
▁ንቅሓት	-11.2845
▁ተዛረቡ	-11.2846
▁ባልዓት	-11.2846
ምርሑ	-11.2849
▁አሎና	-11.2849
▁ንውሽጢ	-11.285
▁እናተመ	-11.2852
▁ሰምዑ	-11.2853
▁ዳንነት	-11.2853
ቕርቡ	-11.2855
▁ኣማኒ	-11.2856
ምኖ	-11.286
ሰደ	-11.2862
▁ባህግ	-11.2862
ገልግሉ	-11.2864
▁ሓሰ	-11.2866
▁ዝሕል	-11.2867
▁ጽውጽዋይ	-11.2869
▁ኣትሒዛ	-11.2869
▁ተኸሲቱ	-11.2869
▁ብኸቢድ	-11.2869
ጽዩ	-11.287
ገፈ	-11.2873
ድሽ	-11.2874
ደሎም	-11.2875
ረኽ	-11.2875
▁ክዳ	-11.2876
▁ብጾታ	-11.2878
ወዳደር	-11.2878
ክኣ	-11.288
▁ይበልጽ	-11.288
ልቁ	-11.2881
ሕብር	-11.2884
▁ኣከለ	-11.2884
▁ሓፍቱ	-11.2884
▁ዘዋ	-11.2884
▁ትግ	-11.2886
▁ክትዓ	-11.2887
▁ሃልኪ	-11.2888
▁ንግዜኡ	-11.2888
▁ንባዓል	-11.2889
▁ወርቅን	-11.2891
▁ዘፍቅራ	-11.2892
ቀና	-11.2892
▁ክምዝ	-11.2893
ሰደድ	-11.2894
ቾ	-11.2895
▁እንቆዕ	-11.2898
▁ዝረኸብናዮ	-11.2898
▁ወኻሩ	-11.2899
▁ቅድስት	-11.2899
▁ጎስ	-11.2902
እላ	-11.2903
ነገረ	-11.2905
ሩም	-11.2906
ኣቢ	-11.2907
▁ሓረ	-11.2909
ሓልፋ	-11.2912
▁ፈረቓን	-11.2915
ምሰል	-11.2916
ዛዘ	-11.2919
▁ፕሮጀክትታት	-11.292
▁ይውስኽ	-11.2921
▁ኰይነን	-11.2921
▁ምሃ	-11.2922
ተዋ	-11.2923
▁አቶ	-11.2923
በልዐ	-11.2924
▁ማእቶታዊ	-11.2926
▁ብቕጽበት	-11.2926
▁መንአሰይ	-11.2926
▁ትግራወይቲ	-11.2926
▁ብኣጋጣሚ	-11.2926
▁ዘግ	-11.2927
▁ትግሬዎች	-11.2927
▁ኤን	-11.2928
▁ኣሎዎም	-11.2928
▁ፍቕርና	-11.2928
▁ኣይነብርን	-11.2928
▁ሓሲብካ	-11.2929
ጽቢ	-11.2929
▁መሃይምነት	-11.293
▁ሓዳሽ	-11.2931
▁ብከ	-11.2932
▁ድሕ	-11.2932
▁ምጽራይ	-11.2933
▁ሕልፊ	-11.2933
▁ፍሩ	-11.2936
▁ደይት	-11.2937
▁በልዋ	-11.2939
ቑር	-11.2939
▁ብሓሳብ	-11.2942
▁ባሕር	-11.2944
▁ይባርክ	-11.2949
▁ነሮም	-11.2949
▁ዝመርሓ	-11.295
ኻያ	-11.295
▁እንግሊዛዊት	-11.2955
▁ምቅይያር	-11.2955
▁መጸዋዕታ	-11.2955
▁ቅልጣፈ	-11.2955
ጣም	-11.2955
▁ድልዋት	-11.2955
▁ዓንደብርሃን	-11.2955
ጥቀመላ	-11.2956
▁ድምቀት	-11.2957
▁ሜድያ	-11.296
ተነ	-11.2961
ኩሞም	-11.2963
▁ካልአይቲ	-11.2965
ፍዑ	-11.2966
▁ደፋር	-11.2966
▁የካይዱ	-11.2968
ሕተ	-11.2968
▁ብራኸ	-11.2969
▁ነዓ	-11.297
▁ብዙሕነት	-11.2974
▁ዲሲ	-11.2975
▁እኩይ	-11.2976
▁ብባህ	-11.2977
ተርፈ	-11.2978
▁ይብዛ	-11.2978
▁ገበርቲ	-11.2979
▁06	-11.298
ራትን	-11.298
▁ረስ	-11.298
ቀቅ	-11.2982
ሙዚቃ	-11.2983
▁ወያል	-11.2984
▁ኤለትሪክ	-11.2984
▁ዕጡቕ	-11.2984
▁ገዛባንዳ	-11.2984
▁ሻቕሎት	-11.2984
▁ሓርነታዊ	-11.2984
▁በቓ	-11.2985
▁ክስዕብ	-11.2986
▁ስለዘይኮነ	-11.2988
ዘካ	-11.2989
▁ይጸንሕ	-11.2991
ምሮ	-11.2992
▁ራስ	-11.2994
▁ሓበረታ	-11.2995
▁ዘገዳም	-11.2997
▁ኣይቀ	-11.2997
▁ሃገርኩም	-11.2997
▁ኣቶም	-11.2999
▁እናጸ	-11.3
▁አቅ	-11.3001
ዓወተ	-11.3003
ድለየ	-11.3004
ላልየ	-11.3005
▁እትደሊ	-11.3006
▁ትጸ	-11.3006
▁እናሃለወ	-11.3006
▁ቻይናን	-11.3007
▁ፑ	-11.3008
▁ይስማዓኒ	-11.3008
▁ክትከዉን	-11.3008
ዉዕል	-11.3009
▁ሙሽሙሽ	-11.3013
▁ተጻሒፉ	-11.3013
▁ፍቱዋት	-11.3013
▁መሳርሕቱ	-11.3013
▁ብቕንዕና	-11.3013
▁ሙኻኑ	-11.3013
▁ዘተኮረ	-11.3013
▁ሕልመይ	-11.3014
▁ንጽህና	-11.3014
▁ክሓተካ	-11.3015
ጽውዓ	-11.3017
ሙር	-11.3018
▁ጸጸር	-11.3018
▁ሱዳንን	-11.3019
የልካ	-11.302
▁ኣውያት	-11.3021
▁ኣሚኑ	-11.3022
▁ውዕሎ	-11.3023
ፈትሕ	-11.3024
▁ሃውና	-11.3024
▁ተዓዚበ	-11.3027
ወኪ	-11.3027
▁ሒዝ	-11.3027
ልልልልልልልልልልልልልልልል	-11.3028
ማሚ	-11.3029
ሕባእ	-11.3032
▁ቺለ	-11.3033
▁አድናቂ	-11.3036
ቐውም	-11.3037
▁መርዚ	-11.3037
▁ዝብሃሉ	-11.3038
▁ከይኑ	-11.304
▁ተገብረ	-11.3041
ረኛ	-11.3041
ቆት	-11.3042
▁ተመስሪቱ	-11.3042
▁ወረቓቕቲ	-11.3042
▁ኣስጎዶም	-11.3042
▁ተጋግየ	-11.3042
▁ዘርእሰናይ	-11.3042
▁ዘጸግም	-11.3042
▁እሳ	-11.3042
▁ይህን	-11.3043
▁እግዝኣብሄር	-11.3043
ሙት	-11.3043
▁ተዋሂብዎ	-11.3045
▁በዓልቤተይ	-11.3045
ኳር	-11.3047
▁ጥርጥር	-11.3047
▁ኩፉእ	-11.3048
▁ተኽእሎታት	-11.3049
▁ግዜኦም	-11.3049
▁ክትኮኑ	-11.3052
▁ፃ	-11.3053
ግኡ	-11.3055
▁ዋል	-11.3057
ረኤ	-11.3057
▁ዓንዲት	-11.3057
መረጽ	-11.3057
▁ብቤት	-11.3058
ርዮም	-11.3059
ግዱ	-11.306
▁አዋ	-11.3062
ገድፋ	-11.3067
▁ዋሪ	-11.3069
ለዓል	-11.307
▁ኣርሴማ	-11.3071
▁ዚሐርር	-11.3071
▁ገብረዝጊ	-11.3072
▁ንክብሪ	-11.3074
▁ተወሲዱ	-11.3075
▁ማዕርነት	-11.3076
ረያ	-11.3076
▁ንውሓት	-11.3077
▁አሉላ	-11.3079
▁ክክክክክክክክክክክክክ	-11.3081
▁ኢልክን	-11.3082
▁ምንጋር	-11.3082
▁ዝጠቅም	-11.3082
▁አልካ	-11.3082
▁ድሌትን	-11.3085
▁ሙዚ	-11.3087
▁መካነ	-11.3087
ያዊት	-11.3088
▁ክህልወና	-11.3091
ገድሰ	-11.3093
ብሔር	-11.3095
ጠኒ	-11.3095
▁ዝሕዝ	-11.3097
▁ዝፈጥሮ	-11.3098
▁ዲቪዝዮን	-11.31
▁ሓጎሰካ	-11.31
▁ሕዛእቲ	-11.31
▁ሰኪዐት	-11.31
▁ሰብኣይን	-11.3101
▁ሉኡ	-11.3103
ስሕቶ	-11.3103
ገድድ	-11.3104
▁ኤስ	-11.3106
▁ቅርብ	-11.3108
▁ሚኒ	-11.3112
▁ሚለን	-11.3113
▁መይል	-11.3113
▁ትወጽእ	-11.3115
▁እናበ	-11.3117
ፍቀድ	-11.3117
ሙስ	-11.3121
ካውን	-11.3121
▁ንሂወት	-11.3122
ጠቕሙ	-11.3122
በራበር	-11.3123
▁ይጠፍእ	-11.3127
ወልዱ	-11.3127
▁ማርክ	-11.3127
▁መለሰሉ	-11.3129
ሔር	-11.3129
▁ስወዳችሁ	-11.3129
▁የራክበና	-11.3129
▁ሰምሃረይ	-11.3129
▁ዝቐንዐ	-11.313
▁ፍርሃት	-11.313
▁ኣእዛን	-11.3131
ዋው	-11.3133
ቃዓ	-11.3134
▁ብሰንበት	-11.3136
▁ዳሃይ	-11.3137
▁ስለዝኽእል	-11.3137
ዝነ	-11.3139
▁ዝበጽሐ	-11.314
ክለይ	-11.3141
▁ንስሓ	-11.3142
▁ዝኣትዉ	-11.3143
▁መፈ	-11.3146
ሓዛ	-11.3147
▁መቃ	-11.315
▁ነገሰ	-11.315
▁ዝቅጽል	-11.3157
▁ፍራ	-11.3158
▁ሻዱሻይ	-11.3159
▁መደናገሪ	-11.3159
▁ርዝነት	-11.3159
▁ኣነባብራ	-11.3159
▁ብሓጐስ	-11.3159
▁ኡጋንዳ	-11.3159
▁ቈጸራ	-11.3159
▁ኣይፈልጡን	-11.316
ትኦም	-11.3161
▁አንደኛ	-11.3161
▁ሓራም	-11.3162
የድ	-11.3163
ልት	-11.3165
ቲካዊ	-11.3165
ደጋ	-11.3165
▁ጋህዲ	-11.3166
▁ዱር	-11.3166
▁ይሰምዕ	-11.3167
▁ለሚን	-11.317
▁ከይትኸውን	-11.3172
▁ተሻ	-11.3173
▁ብልቡ	-11.3173
▁ሰዐ	-11.3175
▁ወሲነ	-11.3176
▁ዘቐ	-11.3178
ሳውያን	-11.3178
▁ዝተጻሕፈ	-11.3178
▁ኤርትር	-11.3179
ሕጸብ	-11.318
ጉዳ	-11.3183
▁ይዝከረኒ	-11.3188
▁ተጠቃሚ	-11.3188
▁ጉድለታት	-11.3188
▁ማቴዎስ	-11.3188
▁ዘምጽኣ	-11.3189
▁ጻዕቂ	-11.319
▁ቦትኡ	-11.3192
▁ጾራት	-11.3193
▁ጅግ	-11.3194
ተሐ	-11.3196
▁ንኩልና	-11.3196
▁ይተኣሳሰር	-11.3197
▁ዘረ	-11.3197
▁ምቁ	-11.3198
ምልከተ	-11.3198
▁ውውውውው	-11.3198
ማኖ	-11.3198
ፍጽሞ	-11.3198
▁ድላይካ	-11.3201
▁ደብዳቤ	-11.3201
▁ፈሪሐ	-11.3201
ካልና	-11.3202
▁ብሊ	-11.3203
ርኣዮ	-11.3205
ርኒ	-11.3206
▁ገርሂ	-11.3207
▁ለወ	-11.3208
▁የመስግን	-11.3209
▁ብጠ	-11.321
▁ሓድነትና	-11.3212
▁ኣድራሻና	-11.3213
▁ክትፍ	-11.3213
ጭብጥ	-11.3214
▁ዘመና	-11.3216
▁ኣስሚሩሉ	-11.3217
▁ፍቁራት	-11.3217
▁ትርግታ	-11.3218
▁ንሜዳ	-11.3218
▁ትውዕል	-11.3218
▁ስታይል	-11.3218
▁ሳዶር	-11.3219
▁ቀሪ	-11.3221
▁ብጥይት	-11.3221
▁እምነቱ	-11.3222
ንእስ	-11.3222
ጢር	-11.3224
▁ውድድድድ	-11.3225
▁እንዳኣ	-11.3226
▁47	-11.3227
▁ክትፈ	-11.3227
ቆረ	-11.3228
▁ልበ	-11.3228
▁ብትምህርቲ	-11.3229
▁ሃንቲ	-11.3231
▁እዚአ	-11.3232
▁ክንፈ	-11.3232
▁ፍሉይነት	-11.3233
ሓልፉ	-11.3233
▁ኢዝ	-11.3235
▁ዲፕሎማ	-11.3237
ኦሞ	-11.3237
▁ስገም	-11.3237
▁መንነትን	-11.3238
▁ከተማታትን	-11.324
ፍሮ	-11.3242
▁ዬ	-11.3242
ኣታ	-11.3242
ሑር	-11.3243
ገዝእ	-11.3244
▁ንምዝ	-11.3246
▁ንምግታእ	-11.3247
▁ቃልኪዳን	-11.3247
▁ሸዐብ	-11.3247
▁ራሻይዳ	-11.3247
▁ተኣሲሩ	-11.3248
▁ለመንቲ	-11.3249
▁ቅዳሕ	-11.3249
▁አሳያስ	-11.325
▁እናኾነ	-11.3251
▁ቀጺሎ	-11.3251
▁ኣይከም	-11.3253
▁ዝተዓወተ	-11.3253
ድአ	-11.3254
ቋረጽ	-11.3254
▁ኢላቶ	-11.3254
▁ካለ	-11.3255
ነውሕ	-11.3255
▁ውድእቲ	-11.3256
▁ይመስለካ	-11.3257
▁ሼር	-11.3257
▁ተቐቢ	-11.3258
▁ሓፍታ	-11.3259
▁ሮማን	-11.3259
▁ምሂ	-11.326
▁ይኸፍ	-11.3262
ልቂ	-11.3262
▁ዝቘመ	-11.3262
▁እግረይ	-11.3263
▁ዘይወ	-11.3264
▁ሰላማዊት	-11.3264
▁ኢለኪ	-11.3264
▁አዪ	-11.3267
ቢቡ	-11.3267
▁ዝሓረ	-11.3267
▁ክደርፍ	-11.3268
▁ማሽን	-11.3268
ከሩ	-11.3268
ተፈጸመ	-11.3269
ጥሕ	-11.327
▁ብዛ	-11.3271
▁ጽንዓትን	-11.3271
▁ዝጽበዮ	-11.3271
▁600	-11.3273
▁ዝራ	-11.3273
▁ያኢ	-11.3274
ጽገ	-11.3275
▁ትርብዒት	-11.3277
▁ክርስቲያናት	-11.3277
▁ጎረባብቲ	-11.3277
▁ክገርመካ	-11.3277
▁ዓንደማርያም	-11.3277
▁ቆንዳፍ	-11.3277
▁ይርከቦ	-11.3277
▁ቕድሚ	-11.3277
▁ምፍቃር	-11.3277
▁ኣስመረት	-11.3277
▁ክኸፍል	-11.3278
ከታተላ	-11.3278
▁ውሰድ	-11.3279
▁ተጸጊ	-11.3279
ሪስ	-11.328
▁ገብረኣብ	-11.328
ርኡ	-11.3282
▁ምውሳኽ	-11.3283
▁ጎረሮ	-11.3284
ባታ	-11.3284
ያትኒ	-11.3285
▁ከምዝዀነ	-11.3286
ብሱ	-11.3286
መርጹ	-11.3287
▁ሓየት	-11.3291
▁ትጽሕፉ	-11.3293
ጽያ	-11.3294
▁ቁሪ	-11.3294
▁እንተበለ	-11.3295
▁ወሰነ	-11.3296
ኽሉ	-11.3298
▁ኢሳ	-11.33
ገዝኣ	-11.33
ሸጠ	-11.3301
▁ባሕራ	-11.3305
▁ተኸታታሊት	-11.3305
ጋብር	-11.3306
▁መጻረዪ	-11.3306
▁ዳህሳስ	-11.3306
▁ተቓዋሚ	-11.3306
▁ክስራሓሉ	-11.3307
▁ዘነጽር	-11.3307
▁ሴም	-11.3307
▁እትህቦ	-11.3307
ሰፍ	-11.3307
▁ትብለና	-11.3308
▁ክትረኽቦ	-11.3309
የሎም	-11.331
ኩነ	-11.331
መርሑ	-11.3311
▁ብጹእ	-11.3311
▁ብኢዱ	-11.3312
ረቐ	-11.3312
▁እናነ	-11.3312
▁ደሪፊ	-11.3313
▁ክረ	-11.3314
▁ልዕሊኣ	-11.3315
▁ሁሌም	-11.3316
▁ዘይትፈልጦ	-11.3317
▁እሱር	-11.3317
ጥፉ	-11.3318
ሕይል	-11.3318
ተባብዓ	-11.332
ከበ	-11.3322
▁እኩብ	-11.3322
ከኣል	-11.3324
ሓጠ	-11.3324
▁ዝገበርኩ	-11.3325
▁ትውዕሉ	-11.3327
▁51	-11.3328
▁ኣፍቃሪቱ	-11.3328
▁ባላ	-11.3329
ቀረበ	-11.3334
▁ዝክ	-11.3335
▁ኣንቢበ	-11.3336
▁ሓድሕዳዊ	-11.3336
ወልና	-11.3336
▁ተጸሊ	-11.3338
ሃነ	-11.334
▁ኵናት	-11.334
ክእሎ	-11.3343
▁ጸላእ	-11.3345
▁ዕዮታት	-11.3345
▁ነድሪ	-11.3347
▁እዴ	-11.3349
▁ሓይል	-11.3349
ኸፍሎ	-11.335
▁ክትሕዝ	-11.3352
▁ዓፋር	-11.3352
▁ብስር	-11.3352
ፈጠር	-11.3353
▁ዝግባኣ	-11.3353
▁ዘገልግሉ	-11.3354
ቀርቡ	-11.3354
ኹር	-11.3356
ውስኽ	-11.3356
ልዒ	-11.3359
ለሽ	-11.3359
በገስ	-11.3359
▁ክወጻ	-11.3362
▁መንነትካ	-11.3363
▁በቢ	-11.3364
▁የዕብዮ	-11.3364
ብዑ	-11.3365
ለጥ	-11.3366
▁ዴቪድ	-11.3366
▁ጀሚረን	-11.3366
▁መሓዝኣ	-11.3366
▁ኣኽሊሉ	-11.3367
ድሃ	-11.3368
▁ወደብቲ	-11.3368
▁ትቕ	-11.3369
▁ፈለጠ	-11.337
▁ክንጽበየካ	-11.3372
▁ይሰስን	-11.3372
▁ነይርዋ	-11.3374
▁ሓብት	-11.3377
ወሰኸ	-11.3377
▁ሽኮርርር	-11.3378
ወርስ	-11.3378
▁እንተልዩ	-11.3378
▁ባንድ	-11.338
ህዝቢ	-11.3381
▁ተዓዋቲት	-11.3383
▁ይሃሉ	-11.3383
▁ዓንደ	-11.3383
ምጻእ	-11.3384
▁መስለካ	-11.3387
▁እንተሓ	-11.3388
▁ጉዳይና	-11.3389
ጹን	-11.3389
▁ደቅካ	-11.339
▁መግለጺታት	-11.3393
▁ርትዓዊ	-11.3396
▁ድሁል	-11.3396
▁በይሉል	-11.3396
▁ህወት	-11.3397
▁ተጸበዩ	-11.3397
▁ስልጡን	-11.3397
▁ዓቕምን	-11.3399
ተሪ	-11.34
ዛዚ	-11.3401
▁ንዓወት	-11.3403
ክምዎ	-11.3403
▁ስድራኻ	-11.3405
▁ክዀነ	-11.3405
ንገረ	-11.3406
ጻኣ	-11.3408
ግእ	-11.341
▁ቀያሕቲ	-11.3412
▁ስጋን	-11.3412
ቃይ	-11.3413
▁አዜ	-11.3415
ስዕር	-11.3416
▁ተፈሊ	-11.3422
ስመዐ	-11.3424
▁ኣድኒቐካ	-11.3424
▁ልብኹም	-11.3425
▁ነፋሲት	-11.3426
▁አልችልም	-11.3426
▁ዓንኬል	-11.3426
▁እግዛብሄር	-11.3427
▁ምቅራብ	-11.3428
▁ጌታ	-11.3428
▁ብዜ	-11.3431
▁እትብሎ	-11.3431
▁ንመጀመርያ	-11.3433
ጸሓፍ	-11.3435
▁ልእ	-11.3436
▁ሓቢርካ	-11.3437
▁ዝተጻወተ	-11.3438
▁ኣረጋገጸ	-11.3439
▁ጸላእትና	-11.3439
▁መልእ	-11.3439
▁ኣይትፍ	-11.344
ይኮነ	-11.344
ይሉ	-11.344
ገለጸ	-11.344
ውቅ	-11.3442
▁መምስ	-11.3442
ረዮ	-11.3443
▁ወሃቢ	-11.3443
▁ኣብራሃ	-11.3443
መርዓ	-11.3446
▁ልዕሊኦም	-11.3447
▁ጦር	-11.3448
▁ንሕቶ	-11.3449
▁ተኽሉ	-11.3449
▁መኸተን	-11.3449
▁ሓላ	-11.3451
▁ከገልግል	-11.3451
▁ዝጸዓ	-11.3453
▁ከፊሉ	-11.3455
ቦን	-11.3456
▁ጠቓሚ	-11.3457
▁መምሃራን	-11.3457
▁ብምብጋስ	-11.3457
▁ባህሎም	-11.3461
▁ትባሃል	-11.3463
▁ክማ	-11.3464
ይል	-11.3465
ተረጋገጸ	-11.3466
ጨፍ	-11.3466
ኣስር	-11.3467
▁ምትብባዕን	-11.3467
ቃቅ	-11.3467
▁ወሲኑ	-11.3467
▁ሓላይ	-11.3469
ግደስ	-11.3469
ስዕቡ	-11.347
ስዋ	-11.3471
ማሕ	-11.3476
ዘረ	-11.3477
አና	-11.348
▁_	-11.348
ቃጥ	-11.348
▁ዝጋ	-11.3481
▁ዝማ	-11.3483
ውሰድ	-11.3483
ስጥ	-11.3484
▁ተሓቢኡ	-11.3484
ሓምም	-11.3484
መሪ	-11.3486
▁ስብሃቱ	-11.3487
▁ዝርእዮ	-11.3487
▁ኣኻውሕ	-11.3487
▁ትኽእሊ	-11.3487
▁ንገረኒ	-11.3488
▁ቀቲል	-11.3488
▁ክሃ	-11.3489
▁ሙዝቃ	-11.3489
▁ገሊጽካዮ	-11.349
▁ኤስሮም	-11.349
▁ርሒቑ	-11.3491
▁ሕስረት	-11.3491
ተባብዑ	-11.3492
▁ይህልዎ	-11.3492
▁ንስደት	-11.3493
▁ወላዲና	-11.3493
▁ቐደም	-11.3493
▁ትዛረቦ	-11.3494
▁ሕክያ	-11.3498
▁ዋውውውውውውውው	-11.3499
▁ይንበር	-11.3499
▁ዘይሃስስ	-11.3499
ክዋን	-11.35
መስገን	-11.3502
ቶች	-11.3502
▁ቃልስና	-11.3504
ሰጋገር	-11.3506
ሓሓ	-11.3506
ሕዳ	-11.3508
ሕፈ	-11.3509
▁ምበለኒ	-11.3511
ሸጣ	-11.3511
▁ዝውዳእ	-11.3511
ግጋ	-11.3512
▁ንሰምዕ	-11.3513
ውስን	-11.3513
▁በይንኻ	-11.3513
▁ፍርድ	-11.3514
ዕጾ	-11.3514
▁ማሕረስ	-11.3515
ሪቡ	-11.3517
▁ትእዛዛት	-11.3517
▁ዕንጸይቲ	-11.3517
▁ኣማሓዳሪ	-11.3517
▁ልግሲ	-11.3517
▁ምሩጽ	-11.3518
▁ወራራት	-11.352
ውትን	-11.352
▁ጋድ	-11.352
▁መጻኢት	-11.3521
▁ደመኛ	-11.3522
▁ታኒካ	-11.3524
▁ንሻ	-11.3525
▁መሪጹ	-11.3526
ዋዊ	-11.3528
▁ሓዊስካ	-11.3528
▁ኢቶ	-11.3529
▁ዝድግፍ	-11.3529
▁ነቕርብ	-11.3529
▁ልዩ	-11.3529
▁ሓሊፍካ	-11.353
▁ኮሙኡ	-11.3531
▁ዝረኽቦ	-11.3531
ስዕቦ	-11.3533
▁የሰ	-11.3535
▁ሽበራ	-11.3537
▁ህይወትን	-11.3537
▁ጋዜጣታት	-11.3538
▁ከይሰ	-11.3538
▁ደርፋ	-11.354
▁ይመርሕ	-11.3541
ህራ	-11.3541
ሪኦ	-11.3541
▁ሰይቲ	-11.3542
▁ዝወደይ	-11.3545
▁ቀጽሉዎ	-11.3545
ርነት	-11.3546
▁ያሲን	-11.3547
▁ተሃን	-11.3547
▁ሳዕሲዒት	-11.3548
▁ቀልጢፈ	-11.3548
▁ህቦብላ	-11.3548
▁ተዋፊሮም	-11.3548
▁ህልቂት	-11.3548
▁ዕቃበ	-11.3548
▁ወጻእተኛታት	-11.3548
▁ምውራድ	-11.3549
▁ብተፈጥሮ	-11.3549
▁እኒ	-11.3549
ዳሕ	-11.355
▁ፈትየ	-11.355
▁ዕቑር	-11.355
▁ዝኣመ	-11.3551
ተኻእለ	-11.3552
▁መድረክ	-11.3553
▁ድሑር	-11.3553
▁መዳያዊ	-11.3553
▁ዝነበርኩም	-11.3553
▁ተጠንቀቕ	-11.3554
▁ተገዲዱ	-11.3555
▁ሽግርን	-11.3555
▁ኣዝየን	-11.3557
▁ዕልዋ	-11.3557
▁ርግኣትን	-11.3558
▁ቃላትካ	-11.3559
▁ዘራኽብ	-11.3559
▁ቅቅቅቅቅ	-11.3563
ቤታ	-11.3564
ሰልጠ	-11.3565
▁ማእከላይን	-11.3566
በጽሖ	-11.3568
ኳን	-11.357
መዳ	-11.357
▁ክጥቀመሉ	-11.3571
▁ዘቕረብ	-11.3574
▁ሃዳ	-11.3574
▁ጥቕ	-11.3574
▁እትው	-11.3574
ዓብዩ	-11.3576
▁ሳዕሳዒት	-11.3578
▁ተኸላኻሊ	-11.3578
▁ምእታዉ	-11.3578
▁ምናሴ	-11.358
▁ንደቆም	-11.358
ሓገዘ	-11.358
▁ጽፉፍን	-11.3581
▁ተጠቂ	-11.3581
▁ክብሩ	-11.3581
▁ጸብሒ	-11.3582
በሰ	-11.3582
▁ብርዒ	-11.3583
▁ዘይምኽ	-11.3586
ዓዙ	-11.3593
ዘነ	-11.3595
▁ምኻና	-11.3598
▁ኣሎኩ	-11.3599
ግለጽ	-11.36
▁ዖ	-11.36
▁ኣቦካ	-11.3603
ሰጥ	-11.3604
▁ኣደም	-11.3604
▁መእ	-11.3605
ዛና	-11.3605
ደሰ	-11.3606
ጽሪ	-11.3607
▁ብላክ	-11.3608
▁ኣካላትን	-11.3608
▁እማመ	-11.3608
▁ምስጋናይ	-11.3609
▁ተበጺሑ	-11.3609
▁ጓርድዮላ	-11.3609
▁መዘከርታ	-11.3609
▁ኣይትጥፋኣና	-11.3609
▁ኣይንፈልጥን	-11.3609
▁ክሪስታል	-11.361
▁ካሊ	-11.361
▁ገብረብርሃን	-11.3611
ሐድ	-11.3612
▁ኣፍራይነት	-11.3614
▁ንዝዀነ	-11.3616
ኬት	-11.3616
▁ተስፋጼን	-11.3617
▁ዘመናት	-11.3618
▁ክላስ	-11.3619
▁ቅጭን	-11.3619
ሃጽ	-11.3619
▁ኣቦታተይ	-11.362
ውረ	-11.3621
ነጻ	-11.3621
▁ትሕዝቶታት	-11.3625
ዲም	-11.3625
▁ዓስብ	-11.3626
ጎድል	-11.3627
▁ደሚ	-11.3631
▁ኮሜ	-11.3631
ርድኦም	-11.3632
▁ማአ	-11.3634
▁ፖሊሲታት	-11.3635
ሓታ	-11.3635
▁ኢለኩም	-11.3636
▁ንኩ	-11.3636
▁ሙሁራት	-11.364
▁ብስሩዕ	-11.364
▁ንነገራት	-11.364
▁ስእነት	-11.3641
ግብረ	-11.3641
▁ዘዳለ	-11.3642
▁ምስራዝ	-11.3642
▁ኣፈይ	-11.3644
▁ዝመርሑ	-11.3644
▁ፈላጥ	-11.3648
▁ምውዳ	-11.3651
▁ይጥቀስ	-11.3652
▁ቀሪበ	-11.3653
ወግሕ	-11.3653
መስግን	-11.3653
ዝካ	-11.3654
ረዳእ	-11.3655
▁ዘዳ	-11.3657
▁ውሳነታት	-11.3657
ውዕሉ	-11.366
▁ተሪፈ	-11.366
▁ብለ	-11.3661
▁ይብልዎ	-11.3662
ፈፈ	-11.3662
ግብሩ	-11.3664
▁ኣብነታት	-11.3665
▁ንኸይት	-11.3668
ደግሞ	-11.3668
ነጥፍ	-11.367
▁ብጥንቃቐ	-11.3671
▁ኣካዪዱ	-11.3671
▁ዊልያም	-11.3671
▁ተዘሪ	-11.3672
▁ምጽራፍ	-11.3672
▁እንጅነር	-11.3672
▁ዲየ	-11.3672
▁ሙዚቓ	-11.3675
▁ግድላት	-11.3675
▁ንዝርከቡ	-11.3676
▁ኩሊት	-11.3677
ሎማ	-11.3678
▁ከተካይድ	-11.3678
ሸይጥ	-11.3679
ማሃሩ	-11.3679
ጭነቕ	-11.3681
▁መሪሑ	-11.3681
▁ይስዕብ	-11.3681
ሰዓር	-11.3682
▁ስሚዒ	-11.3682
ብለይ	-11.3683
በሀል	-11.3684
ወዓለ	-11.3684
▁ዝሙት	-11.3685
በሮም	-11.3689
▁ዘረድእ	-11.3689
ልኽ	-11.369
ቕጽ	-11.3691
▁ዘካየዱ	-11.3691
ሓፊ	-11.3692
ሳአ	-11.3692
ባቡ	-11.3692
▁ጠፊኢ	-11.3695
ጥዎ	-11.3696
▁ወሰንቲ	-11.3699
▁ብጣእሚ	-11.3702
▁ኣቦታትናን	-11.3702
▁ብንብዓት	-11.3702
ነል	-11.3703
▁ሞተር	-11.3705
▁ዝኽሰት	-11.3707
▁ተስፋጋብር	-11.3707
ሆነ	-11.3708
ረዳዳእ	-11.3708
▁ደምን	-11.3709
▁እግሮም	-11.3709
ደርፉ	-11.371
▁መዝገበ	-11.3711
▁ቀለብ	-11.3712
ዝኑ	-11.3712
ዉር	-11.3714
▁ጭዋዳ	-11.3716
▁ከፊ	-11.3716
▁መራኸቢታት	-11.3718
ቐረበ	-11.3719
ዕቅብ	-11.3719
▁ትፈልጢ	-11.372
ሩስ	-11.3721
▁ብስጋ	-11.3722
ቃን	-11.3722
▁ሓሳባ	-11.3724
▁ገባሪ	-11.3724
▁ረድዮ	-11.3726
▁ሰለዝ	-11.3727
▁ወዴ	-11.3727
▁ዝገበር	-11.3729
▁ቢኒ	-11.373
ረኩም	-11.3732
▁ተማሂርና	-11.3733
▁ንውጹዕ	-11.3733
▁ንርእሱ	-11.3733
ዝርግሑ	-11.3733
▁ስለዘይከኣለ	-11.3733
▁ኣይነበሩን	-11.3733
▁ቡዙሓት	-11.3734
▁ብምህ	-11.3734
▁ጥምረት	-11.3734
ቢሮም	-11.3735
▁ቁስሊ	-11.3736
▁ንበይና	-11.3736
▁ቡሩኽ	-11.3738
ኸይ	-11.3739
▁ምትእኽኻብ	-11.3739
▁ደየበ	-11.374
ወቅ	-11.374
▁ነአ	-11.3741
ዓዪ	-11.3741
▁ፈለግ	-11.3742
ሓስባ	-11.3744
▁ሓሞት	-11.3745
ሕደር	-11.3747
ጭዋ	-11.3751
▁ዝምህር	-11.3753
▁ክዉን	-11.3759
▁ዝበልክዮ	-11.376
▁ረኣዮ	-11.376
ሙኻ	-11.3761
▁ገዚ	-11.3763
▁ቀልጢፋ	-11.3764
▁ብብዙሓት	-11.3764
▁ተቃውሞ	-11.3764
▁ኣእትዩ	-11.3764
▁ቍሩብ	-11.3764
▁ንምነ	-11.3765
▁ይንገስ	-11.3766
ምርምር	-11.3767
ትከውን	-11.3768
▁ገደብ	-11.3768
▁ጤና	-11.3768
ገጥሞ	-11.3769
▁ብትሪ	-11.377
▁ቀፅሉሉ	-11.377
▁ፎካስ	-11.3771
▁ፎርማ	-11.3772
ጅር	-11.3773
ልዓለ	-11.3773
▁ስድ	-11.3775
▁ጛል	-11.3777
▁ኣይበለን	-11.3779
▁ትርእዮ	-11.378
ሐል	-11.3781
▁ሪእ	-11.3782
▁ክንራኸብ	-11.3783
▁ቀጸላ	-11.3785
▁ምረት	-11.3785
▁ወገ	-11.3786
▁ክትስዕ	-11.3792
ግራፊ	-11.3794
▁ተኸላኻላይ	-11.3795
▁ወታሃደራት	-11.3795
▁ዝተመላለስኩም	-11.3795
▁ፍቕረይ	-11.3795
▁ንብዓታ	-11.3795
▁ውሽጦም	-11.3795
▁ምጥቃስ	-11.3796
▁ኣገዳሲት	-11.3796
▁ምስተን	-11.3797
▁ንምምላእ	-11.3797
▁መብራት	-11.3798
▁ደበኽ	-11.3799
▁ጂጂ	-11.38
▁ቅርጻ	-11.3802
▁ምሳኻትኩም	-11.3802
▁ብኢ	-11.3803
▁ዝሓየለ	-11.3803
▁ፍቅረይ	-11.3804
▁እመን	-11.3805
▁ትደልዩ	-11.3809
ዕዋ	-11.3809
▁ክፈል	-11.381
▁ክልተኦም	-11.3812
▁ንሕናስ	-11.3814
መልክ	-11.3815
▁ከጥፍእ	-11.3816
ደዱ	-11.3817
▁ኣሌክስ	-11.3818
▁ንኩሉኩም	-11.382
▁ይሰምዓ	-11.382
ተፍ	-11.3821
ድረፍ	-11.3822
▁ገላጺት	-11.3824
ዛርብ	-11.3824
ረዝ	-11.3824
▁ብምዝኽኻር	-11.3826
▁ሰራዊቱ	-11.3827
▁ንታሪኽ	-11.3827
▁ወራ	-11.3827
▁ንበረለይ	-11.3827
▁ቀልዓለም	-11.3827
▁ዝተወደበ	-11.3827
▁ብድምጺ	-11.3827
▁ሞራላዊ	-11.3827
▁ቅል	-11.3827
▁ብፍርሒ	-11.3828
▁መዋእለ	-11.3828
▁ኣስተምህሮታት	-11.3829
▁ኢም	-11.383
ሃፍ	-11.383
መልሳ	-11.3832
ውላድ	-11.3832
መሓላለፍ	-11.3833
▁በልዎም	-11.3833
▁ንህና	-11.3836
▁ዐለት	-11.3836
▁ዝሳ	-11.3837
ዳደ	-11.3837
▁ኔው	-11.3837
▁ከመይሲ	-11.3839
▁ለህለ	-11.3839
▁ረኺበያ	-11.3842
▁ጎንኩም	-11.3846
▁ዘገድስ	-11.3846
በልኪ	-11.3846
▁ኣሕሕሕ	-11.3847
▁ከይኣ	-11.3852
▁ምክትታልን	-11.3852
ቕዎ	-11.3853
▁መልክዓ	-11.3854
▁ክረጋገጽ	-11.3854
▁ኣቕረበ	-11.3856
ወቱ	-11.3856
▁ንምድንፋዕ	-11.3858
▁ኢንስቲትዩት	-11.3858
▁ሕምብርቲ	-11.3858
▁ስለዝጠፍኣኒ	-11.3858
▁ኣትሒዘ	-11.3858
▁ስነስርዓት	-11.3858
▁ድሉዋት	-11.3858
▁ንክልተ	-11.3858
▁ተዓዊተ	-11.3858
▁ንዂሉ	-11.3859
▁ሂግደፍ	-11.3859
▁ምሳታቶም	-11.386
▁ኣእካል	-11.386
▁ኣፍረይቲ	-11.386
▁ስሪ	-11.3861
ሓሎም	-11.3861
▁ሃረር	-11.3862
እዝዝ	-11.3862
▁ሒዛቶ	-11.3862
▁ኮሊ	-11.3863
▁ዝረኽቡ	-11.3864
ከአ	-11.3864
ምለሳ	-11.3865
ኣታት	-11.3865
▁ዝወደቐ	-11.3865
▁የጠቓልል	-11.3866
▁ዝኸበረ	-11.3866
▁ኣቦታቱ	-11.3866
ግሰ	-11.3866
▁ኣሉላ	-11.3866
▁ሓደሽቲ	-11.3867
▁ኣንፈቱ	-11.3867
▁ክጎ	-11.3868
▁ኣዳላዊ	-11.387
▁ዝተሰለፈ	-11.387
ቢርካ	-11.387
ረክባ	-11.3872
▁ደሊኩም	-11.3873
▁ክመሃር	-11.3874
ገላገል	-11.3874
ሸጥ	-11.3875
ፈለጥኩ	-11.3875
▁ዘበሉ	-11.3876
▁ምኑ	-11.3877
▁መጠነ	-11.3877
▁ይሀ	-11.3878
ገነ	-11.388
ቕጽል	-11.3882
▁ረሲእ	-11.3882
▁ራእ	-11.3882
▁መንግ	-11.3884
ርቁ	-11.3884
▁ባሃሊ	-11.3885
ጸሮ	-11.3885
ፍለጠ	-11.3887
ርከ	-11.3888
▁ምምዝጋብ	-11.3888
▁ንጥፈታቱ	-11.3889
▁ዝካየደሉ	-11.389
▁ስንባደ	-11.389
▁ሳንቲም	-11.389
▁ኣንዳ	-11.389
▁ጥንታውያን	-11.389
▁ንቃለስ	-11.3892
▁ምምጋብ	-11.3892
▁ዓሚቝ	-11.3893
▁ናእዳ	-11.3893
▁ህር	-11.3893
▁ሃሲ	-11.3894
▁ክፋሉ	-11.3894
▁ሞሲባ	-11.3894
ገድፉ	-11.3895
▁ተቐቢሎም	-11.3897
▁ክምልስ	-11.3899
▁ወላድ	-11.3899
▁ዝጻ	-11.39
ረኸብና	-11.39
▁ትብልዮ	-11.3902
▁ክዋ	-11.3906
ጸልኣ	-11.3907
ዘው	-11.391
▁ናዓኻ	-11.3912
▁ድገ	-11.3912
▁ርግበ	-11.3913
▁ምኽርን	-11.3914
ብደል	-11.3915
▁ምልኣት	-11.3919
▁ዝጠፍኡ	-11.3919
ስትያ	-11.392
▁ደቂኣንስትዮ	-11.3921
▁ብሸነኽ	-11.3921
▁ሓጸርቲ	-11.3921
▁ሰደቓ	-11.3921
▁ኦዚል	-11.3921
▁ዝኸበርኩም	-11.3921
▁ኣውዲቕካ	-11.3921
▁አውራጃ	-11.3922
▁ክትመጸና	-11.3922
ማሪ	-11.3922
▁መሓውር	-11.3923
▁ኮሜንት	-11.3923
▁ውር	-11.3923
▁ኽፉእ	-11.3923
▁ጵ	-11.3925
▁ቀጽልዋ	-11.3925
▁ከምዝነበሮ	-11.3927
▁ትደልዮ	-11.3928
▁ናፊቐ	-11.3929
ዙይ	-11.393
▁ሳሓ	-11.3932
▁ዕረፍ	-11.3932
▁ወፈራ	-11.3933
▁ክባሃል	-11.3936
▁ተኸቲ	-11.3938
ጋሕ	-11.3939
▁ዝብሎም	-11.3942
ተክ	-11.3944
▁ኣጅካ	-11.3944
ብኪ	-11.3945
ርዱ	-11.3946
▁ቅድሚኦም	-11.3948
▁ከሰላ	-11.395
▁ዘይትብሉ	-11.3953
▁ሃንደበታዊ	-11.3953
▁ብምንባሮም	-11.3953
▁ጐርዞ	-11.3953
▁ንዅሎም	-11.3953
▁ኩባያ	-11.3953
▁ጣንጡ	-11.3953
▁ተጋጊ	-11.3953
▁ንኣርባዕተ	-11.3954
▁ብሃገር	-11.3954
▁ምሕላ	-11.3955
▁ስዊ	-11.3955
▁ንኣኻትኩም	-11.3956
ዩዎ	-11.3956
▁ነፈር	-11.3957
ጠማ	-11.3958
ኩት	-11.396
▁ሂወታ	-11.396
▁ዝሃብ	-11.396
▁ስሒቡ	-11.3965
▁ተመልሱ	-11.3967
▁ዘማች	-11.3967
▁ኣይትደ	-11.3967
▁ከፈ	-11.3968
▁መፀ	-11.3971
▁ባለ	-11.3971
ብጽሖ	-11.3974
▁ፈቲኑ	-11.3975
▁ዝተቀ	-11.3975
▁ፐር	-11.3975
▁ዝሓለፍ	-11.3976
▁ኣንስት	-11.3978
▁ሓይልና	-11.3979
▁ንግድ	-11.398
ጥቀሙ	-11.3983
ኸር	-11.3985
ፅእ	-11.3985
▁ብእንግሊዝ	-11.3985
▁ኣመዝጊባ	-11.3985
▁ንስውኣትና	-11.3985
▁ሞሮኮ	-11.3985
▁ሰደድ	-11.3985
ጨር	-11.3988
ግሬ	-11.3988
ዓዝ	-11.3988
ዛወር	-11.3989
▁ህጻናትን	-11.3989
▁ቢንቶ	-11.3989
▁አለኪ	-11.3991
▁ኣዜብ	-11.3992
ድነቕ	-11.3992
ታታት	-11.3994
▁ወጻእ	-11.3995
▁ንድፊ	-11.3997
▁ትኾኑ	-11.3998
ህዝብ	-11.3999
▁መፍቶ	-11.4
▁ኣምላኽኩም	-11.4001
ጸርፉ	-11.4003
▁ኮንተ	-11.4003
▁ኣይሃ	-11.4003
እሰይ	-11.4007
▁ምስትንፋስ	-11.4008
በዓል	-11.4008
▁ክጠ	-11.4009
▁ኣይትግበር	-11.4011
▁ተደሊ	-11.4011
በልዓ	-11.4013
▁ጸገ	-11.4014
▁ግፍ	-11.4015
▁እንጣጢዕ	-11.4017
▁መምህረይ	-11.4017
▁ኣቤ	-11.4017
▁ሓምሻይ	-11.4017
ሰባት	-11.4017
▁ኣዛብእ	-11.4018
▁ባህገይ	-11.4018
▁አጆኹም	-11.402
▁በሃቂ	-11.402
▁ቁዋም	-11.4022
ኮንኩ	-11.4023
▁ቆሎ	-11.4024
ነግ	-11.4025
▁ክፍላይ	-11.4026
▁ባህርይ	-11.4028
ረልካ	-11.4031
ኲስ	-11.4031
▁ዲማ	-11.4032
▁ቃሌ	-11.4033
ሕዞ	-11.4035
▁ደማሙ	-11.4035
▁ንጥፈታትን	-11.4036
ኣኽለ	-11.4037
▁ኣሕዋትካ	-11.4037
▁ብርእሰ	-11.4038
▁ብስሙ	-11.4039
ዕዘብ	-11.404
▁ዝዓብ	-11.4047
▁ክጥቀም	-11.4047
ራድ	-11.4048
▁እንተዘይቀሪቦም	-11.4049
▁ዀይኖም	-11.4049
▁ውዳቤ	-11.4049
▁ዘልኣለም	-11.4049
▁ክፍታሕ	-11.405
▁ኣልባ	-11.4054
▁ከፋ	-11.4055
▁ገብር	-11.4059
▁ኸምኡ	-11.4059
▁መጺእካ	-11.406
▁ኣዝማድ	-11.406
▁ፍጻሜታት	-11.4061
▁ኣምጽኡ	-11.4063
ፋላለ	-11.4065
▁ከበደ	-11.4065
ቡሩ	-11.4066
▁ሃላ	-11.4066
በቡ	-11.4067
▁ሰዓቱ	-11.4068
ሃበካ	-11.4068
▁56	-11.4069
▁ቤትና	-11.4069
▁ይፍጠር	-11.407
▁የኢትዮጵያ	-11.407
ነድ	-11.4071
▁ቀተል	-11.4072
▁ስድራኡ	-11.4073
ምጺ	-11.4073
▁ምውዓል	-11.4073
▁1996	-11.4081
▁ናይባሓቂ	-11.4081
ሒዝ	-11.4081
▁ኣይተራእየን	-11.4082
▁ይግብኣ	-11.4082
▁ፀገም	-11.4083
▁ክፍኣት	-11.4085
▁መድሓኒናን	-11.4085
▁ነዲ	-11.4086
▁ግዚኣ	-11.4087
ነግራ	-11.4087
ፈለጦ	-11.4088
ረቕ	-11.4091
▁ኪዀኑ	-11.4091
ለኸ	-11.4092
▁ራዛ	-11.4093
ኳስ	-11.4095
▁ይመስሉ	-11.4096
▁ኩነ	-11.4097
▁ደዋሊ	-11.4098
▁ዝሓለወ	-11.4098
▁ፈትየያ	-11.4098
ብጻሕ	-11.4099
▁ዝመለ	-11.4102
▁እርጋን	-11.4103
ወቅዕ	-11.4103
▁አክል	-11.4105
ቅት	-11.4106
ወስዱ	-11.4107
ኑር	-11.4107
ጽብቕ	-11.4108
▁ከምዝርከብ	-11.4108
▁ሽዱ	-11.4109
▁ዛሬ	-11.411
▁ዝርከብዎም	-11.411
▁ሰልዲ	-11.4111
▁ማርያ	-11.4112
▁ኣይትዛረብ	-11.4113
▁ውሻጠ	-11.4113
▁ብምፍጣር	-11.4113
▁ዌስት	-11.4114
ተማህረ	-11.4114
▁ቪቫ	-11.4115
ቶር	-11.4116
ረጉ	-11.4116
▁በዳሂ	-11.4116
ኻኒ	-11.4117
▁ሊትሮ	-11.4117
▁ብመዓልቲ	-11.4119
▁ሕልምታት	-11.4119
▁ሓተተት	-11.4119
▁ዝፍትን	-11.412
ጸንዕ	-11.4122
መርሖ	-11.4124
▁ሓበ	-11.4124
▁ትቪ	-11.4124
ተዛረበ	-11.4125
▁ትረ	-11.4125
ሂል	-11.4126
▁ቅብ	-11.4126
▁ባዕ	-11.4126
▁ኣይበል	-11.4127
ሓዮ	-11.4128
▁ስለዘላ	-11.4128
▁ናጽነትን	-11.4129
▁ብድሕሪት	-11.4129
▁ንሰርሕ	-11.413
▁ከምዝኸ	-11.4132
ርከባ	-11.4133
ረሐ	-11.4133
▁ይደልዩ	-11.4134
▁ፍቱው	-11.4135
▁ንከም	-11.4135
ጣሪ	-11.4138
ድሉ	-11.414
▁ወይለይ	-11.4142
ነፈ	-11.4142
▁ዘይሓልፍ	-11.4144
▁ደንጉ	-11.4145
▁ሃይለስላሰ	-11.4145
▁ተበጊሳ	-11.4145
▁ታሽዓይ	-11.4145
▁ጠፋ	-11.4146
▁ሰባኣይ	-11.4148
▁ሃጠው	-11.4149
▁ምጻ	-11.4149
▁ማቴ	-11.4151
▁ሃሃሃ	-11.4155
ቲት	-11.4155
44	-11.4157
▁ነክ	-11.4157
▁ሃዲሙ	-11.4157
▁ዚመጽእ	-11.4158
ጽለ	-11.4159
ሲሩ	-11.4159
ንደር	-11.4162
▁ጠፍ	-11.4162
▁በለትኒ	-11.4163
▁ሓቆም	-11.4163
▁ዝቑጸር	-11.4164
▁ደሃብ	-11.4165
▁ዝሰማማዕ	-11.4166
▁ትትንክፍ	-11.4166
ሽና	-11.4166
ዘሎ	-11.4166
ሰኣን	-11.4167
▁ኣስሒ	-11.4167
▁እሽ	-11.4167
▁ፈታ	-11.4168
ረጋግጸ	-11.4169
ዳሎ	-11.417
▁ሇ	-11.4172
ርጊ	-11.4174
ኢላ	-11.4175
▁ወሐ	-11.4177
▁ሳንቸዝ	-11.4178
▁ጕጅለ	-11.4178
▁ሕመረት	-11.4178
▁ኣከባብን	-11.4178
▁ኣይንደልን	-11.4178
▁ንምውጋድ	-11.4178
▁ሓለውቲ	-11.4179
▁ስታምሩ	-11.4179
▁ተፈታዊ	-11.4179
▁ዓቕመይ	-11.4179
▁ማዳ	-11.4181
ዘናጋዕ	-11.4181
▁ባዕልኺ	-11.4183
ጽገብ	-11.4185
▁አይነት	-11.4185
▁ከፊልና	-11.4186
ርዎም	-11.4187
▁ልብል	-11.4194
▁ክቕየር	-11.4195
ነጸ	-11.4195
ጥቀመሉ	-11.4196
▁ብልብ	-11.4199
ሰርቲ	-11.4199
▁ኣበርክቶኦም	-11.4199
▁ሰዓል	-11.4199
▁ደጊምካ	-11.42
▁ስላ	-11.42
▁ዝተዛረብ	-11.4201
▁ኣውጽ	-11.4201
▁ረኪበ	-11.4201
▁ደሪፍካ	-11.4201
▁ጀምር	-11.4202
▁ሰጊ	-11.4203
▁ቶን	-11.4203
▁መከ	-11.4205
▁መጅ	-11.4207
▁ኤም	-11.4208
▁ኣሃ	-11.4209
▁ይገበር	-11.421
▁ብመስዋእቲ	-11.421
▁ዶርትመንድ	-11.421
▁ንዓሰርተ	-11.4211
▁ቢትወደድ	-11.4211
▁ነጋዳይ	-11.4211
▁የገልግል	-11.4211
▁ኣይነበርኩን	-11.4212
▁የቡሉን	-11.4212
▁ጉዳም	-11.4213
▁ጸርፍን	-11.4214
ቐስ	-11.4215
▁ንምርዳእ	-11.4215
▁ሓስ	-11.4215
▁ዓድን	-11.4215
▁ምሕርየ	-11.4217
ቅራ	-11.4218
▁ዝካየዱ	-11.4218
▁በካ	-11.422
▁ዝጸናሕኩ	-11.4221
▁አጆኪ	-11.4222
▁ተጻወትታ	-11.4223
▁ዝፈጸሞ	-11.4223
ባበሩ	-11.4224
ዛሕ	-11.4225
▁ዝድነቅ	-11.4225
▁و	-11.4226
▁ድየን	-11.4226
እታ	-11.4227
ጸዋዕ	-11.4228
ቃለስ	-11.4228
▁እምነታት	-11.423
ቀኒ	-11.4231
▁ነፍሱ	-11.4231
▁ምንታይሲ	-11.4231
▁ሓሲቡ	-11.4233
▁ይኸዉን	-11.4233
ሜራ	-11.4233
ኢለ	-11.4235
ናፍቅ	-11.4235
ዉሕ	-11.4236
ጸሓ	-11.4236
▁ምኻንካ	-11.4239
ሰኪ	-11.4239
▁ምስጋናን	-11.424
ዉል	-11.4241
▁ዝመሳሰል	-11.4241
▁ንብር	-11.4242
▁ኣዘኻኺሮም	-11.4243
▁ኣበርቲዖም	-11.4243
▁ማዕድናት	-11.4243
▁ኣካዳድና	-11.4243
▁ብፍላጥ	-11.4243
▁ንምጥቃስ	-11.4243
▁ንሓሙሽተ	-11.4243
▁መናእሰይ	-11.4244
▁ስዋንሲ	-11.4244
▁ምቑ	-11.4244
▁ዝነጥፍ	-11.4245
▁መቕሰን	-11.4245
▁ማሮች	-11.4246
መልሱ	-11.4248
ምጹ	-11.4248
▁ገዝኦም	-11.4249
▁ዝኸፍ	-11.425
ሓጎ	-11.4251
▁መደባትን	-11.4251
▁ነዓኻ	-11.4253
▁ወግሐ	-11.4253
▁ምሉእብርሃን	-11.4253
▁ዉጹዕ	-11.4254
▁ዘይፈ	-11.4254
▁ወሪድዎ	-11.4256
▁ኢምበር	-11.4256
ኣኻ	-11.4257
▁ሰተ	-11.4259
▁ብምእ	-11.4259
▁ኣሚንካ	-11.4259
▁በያን	-11.4261
▁ጠለ	-11.4262
▁ዘይሰ	-11.4262
ሙኡ	-11.4264
በርግ	-11.4265
▁ለቢ	-11.4266
▁ሰረገላ	-11.4267
▁ሓገዝቲ	-11.4267
▁ብዕድ	-11.4268
▁ዝሃበቶ	-11.4268
▁ክህባ	-11.4271
▁ዝጠፍአ	-11.4271
▁የትግራይ	-11.4271
ኢትዮጵያ	-11.4271
ሃመል	-11.4272
▁ክትገልጽ	-11.4272
መኪ	-11.4272
▁ዘይቀ	-11.4274
▁መቅሰነይ	-11.4276
▁ቴክኒክ	-11.4276
▁ንግደፎ	-11.4276
ስራሓ	-11.4277
▁ዝድነቕ	-11.4277
▁ይተሓ	-11.4277
▁ዝሓዙ	-11.4278
▁ስዕ	-11.4279
▁ኣዴኻ	-11.4282
ካሪ	-11.4282
እመን	-11.4283
ሰከ	-11.4283
▁ልባዊ	-11.4284
▁ደቂሱ	-11.4284
▁ኣፍራስ	-11.4284
ረኸብኩ	-11.4287
ብዝሑ	-11.4287
ሰማምዓ	-11.4289
ጻረፉ	-11.429
▁ብቓል	-11.4291
▁ይገርመኒ	-11.4291
▁ዛዕባታት	-11.4291
ቢሉ	-11.4295
ባኽን	-11.4296
▁ሸጥ	-11.4298
▁ፓርቲ	-11.4298
መስገንኩ	-11.4299
ረዱ	-11.43
▁ዝፍጽም	-11.4302
ኩዋን	-11.4302
▁ስባት	-11.4303
ረቢ	-11.4306
▁ስራሓትካ	-11.4306
▁መበሊ	-11.4307
▁ዘይኮንካ	-11.4307
▁ተደፊ	-11.4307
▁ንዘለአለም	-11.4309
▁ዘይተኣደነ	-11.4309
▁ንምእታው	-11.4309
▁ንነብሶም	-11.4309
▁ኦሮማይ	-11.4309
▁ብጽብጽ	-11.4309
▁ቐጽልዎ	-11.4309
ሃደራ	-11.4312
▁ብጭ	-11.4313
ራኣዩ	-11.4313
ድንቕ	-11.4315
▁ለውጥታት	-11.4316
ዝርጋሕ	-11.4317
ከየ	-11.4317
ግረም	-11.4319
ሌካ	-11.4319
▁ከዲ	-11.4321
ሰሓ	-11.4321
▁ከበ	-11.4322
ጉሂ	-11.4323
▁ዘባ	-11.4323
ቁጸር	-11.4323
▁ኢኮን	-11.4324
ሎስ	-11.4324
ቅረብ	-11.4324
▁ቀያሕ	-11.4325
▁ክንክእል	-11.4326
▁ምሕደራን	-11.4326
▁ሃጽ	-11.4327
▁ንሃገራዊ	-11.4328
ረተ	-11.4328
▁እስይ	-11.4328
▁መዘ	-11.4329
▁ዝተሸ	-11.433
ዲግ	-11.4331
▁ትግሪ	-11.4331
▁ኸረን	-11.4334
ረላ	-11.4334
ዮሞ	-11.4334
▁ብመደብ	-11.4335
▁ሓዳርን	-11.4335
▁ክውስኽ	-11.4337
▁ሓሰማ	-11.4337
▁ንጓ	-11.4339
▁መጸካ	-11.4339
▁ኣይስ	-11.4339
ትንክፍ	-11.434
▁ነፍሰይ	-11.4341
ምኒ	-11.4341
ሪአ	-11.4342
▁ብውሑዱ	-11.4342
▁ካሎኦት	-11.4342
▁ሃትሪክ	-11.4342
▁ኣቕሪበ	-11.4342
▁ንትኹል	-11.4342
▁ጻዕራም	-11.4342
ሚሩ	-11.4342
ኻና	-11.4342
▁ፋሲካ	-11.4342
▁መረዋሕ	-11.4343
▁ቀዳምነታት	-11.4343
ኞች	-11.4343
▁እናቐ	-11.4343
ኔል	-11.4343
▁በርቱ	-11.4346
▁ተኽል	-11.4347
ማታ	-11.4348
ጸግብ	-11.4348
እቶ	-11.4348
▁ቸክ	-11.435
▁ተወሊደ	-11.435
▁ጠፊኡኒ	-11.4351
▁ክትክእል	-11.4353
ፈልጠካ	-11.4354
ኣቶ	-11.4355
▁ትሰምዕ	-11.4356
▁ቀረጽ	-11.4357
▁ተሪፍ	-11.4357
▁ዘይተገብረ	-11.4357
ራጃ	-11.4358
ሪና	-11.4358
ኽበር	-11.436
ልዓሉ	-11.4361
▁ሰሪሓ	-11.4361
▁በዚኣ	-11.4362
▁ሰረቐ	-11.4363
ጽንዑ	-11.4364
ዘዙ	-11.4364
▁እንግሊዝኛ	-11.4366
ኢን	-11.437
▁ወረጃ	-11.4371
▁ምዓ	-11.4372
▁ጭዋዳታት	-11.4373
▁ገበረት	-11.4373
▁ምቊጽጻር	-11.4375
▁ብተዛማዲ	-11.4375
▁እንቋቝሖ	-11.4375
▁መክሲኮ	-11.4375
▁ሕግ	-11.4375
▁ሽኮርር	-11.4375
▁ጽናሕ	-11.4375
ዘየ	-11.4376
▁ጽላታት	-11.4376
▁ንተመሃሮ	-11.4376
▁ሓጹር	-11.4377
ፈጥ	-11.4377
▁ድምጾም	-11.4377
የስ	-11.4377
ሃብካ	-11.4377
▁ድረፍ	-11.4378
ኣውን	-11.438
ውጽአ	-11.438
ናትና	-11.4381
▁ዝኾንካ	-11.4381
ረገጽ	-11.4382
▁ስዉኣትና	-11.4382
መጻእ	-11.4384
▁ኤላ	-11.4384
▁ጽሓይ	-11.4384
▁ናህ	-11.4385
▁ንፋዕ	-11.4386
ልካዮ	-11.4388
▁ኣሰይይይ	-11.4389
ቀካ	-11.4391
▁ቆልዑት	-11.4392
ስተብህል	-11.4393
▁ዝተሃ	-11.4397
▁እንክት	-11.4397
ኩብ	-11.4398
▁ይጥቀሙ	-11.44
ደሚ	-11.4403
▁ኢይ	-11.4403
መደብ	-11.4405
▁ምክር	-11.4407
▁ዝቃለስ	-11.4407
▁ሽድሽተ	-11.4408
▁ብተወፋይነት	-11.4408
▁ፓራዲዞ	-11.4408
▁ብታአሚ	-11.4408
▁ንጥፈታቶም	-11.4408
▁ሱሑል	-11.4408
▁ስደዱልና	-11.4408
ተባህሉ	-11.4408
▁ቘልዓ	-11.4409
▁ብጋንታ	-11.4409
▁ክዓዝዝ	-11.4409
▁ትኩእ	-11.4409
▁በላሕቲ	-11.4411
እሉ	-11.4411
▁ሓርገጽ	-11.4411
▁ንዘረባ	-11.4412
▁ኣይትሕመቕ	-11.4414
▁0021	-11.4414
▁ሰኣነ	-11.4415
ሞሞ	-11.4417
▁ተሎ	-11.4417
▁ንሱውን	-11.4417
▁ኤሬትራ	-11.4418
መርሕ	-11.4418
▁ጀላዕ	-11.4419
▁ዘይበለ	-11.442
▁ጭዋ	-11.4422
▁ሞኣብ	-11.4423
▁ኣኼባታት	-11.4424
▁ሃንቀውታ	-11.4427
▁ቊጠባ	-11.4429
▁ጋን	-11.443
ካኣ	-11.4431
▁ኸማን	-11.4431
ለልና	-11.4433
▁ብሞ	-11.4434
▁እናበልኩም	-11.4435
▁ንጠ	-11.4436
▁ደወል	-11.4437
▁ብምቅ	-11.4437
ሕጉ	-11.444
▁ንሞ	-11.4441
▁ኣትሒዞም	-11.4442
▁ፓኖራማ	-11.4442
▁መጥፋእቲ	-11.4442
▁ቖልዓ	-11.4442
▁ሕዝብ	-11.4442
▁ኣይፈቱን	-11.4443
▁ክህበሉ	-11.4444
ፍሎ	-11.4444
▁ኣወዳድባ	-11.4445
▁ሖ	-11.4446
▁ህድሞ	-11.4448
▁ምጥማት	-11.4448
▁ይሃል	-11.4451
▁ሓሰር	-11.4452
▁ዘይበል	-11.4452
ባህል	-11.4453
▁ሓዯ	-11.4454
ውጋእ	-11.4454
ጋና	-11.4457
ደወለ	-11.4457
▁ቋ	-11.4458
▁ዕባይ	-11.4458
▁ንእስ	-11.4459
ወደአ	-11.446
▁ደምና	-11.446
ስምዖም	-11.4461
ትገብር	-11.4463
እያ	-11.4464
▁ተሰሚ	-11.4465
ከመ	-11.4466
ጉሙ	-11.4467
ቕለ	-11.4468
▁ዝቖመ	-11.4471
▁ዘአ	-11.4471
ፍቅረካ	-11.4472
ይትን	-11.4472
▁ጌርክ	-11.4473
ነበርኩ	-11.4473
▁ትኣቱ	-11.4474
በዝ	-11.4474
ዝይ	-11.4475
▁ሻውዓይ	-11.4475
▁ደቪድ	-11.4475
▁ብኣዝዩ	-11.4475
▁ኣርካናት	-11.4475
▁ዝነውሐ	-11.4475
▁ከስዐ	-11.4476
▁ዘካይድ	-11.4476
▁ኤሮፓ	-11.4477
▁ኣይረኣ	-11.4478
መሳሰል	-11.4478
▁ጎሮ	-11.448
▁ማታ	-11.448
▁ዳም	-11.4481
ጛ	-11.4482
▁ብህግደፍ	-11.4485
▁ዘይሕለል	-11.4485
▁ዘካይዱ	-11.4486
▁ነብስኺ	-11.4488
በገሰ	-11.4489
ደልይዎ	-11.449
▁ገበይ	-11.449
ደጉ	-11.449
▁ኪናት	-11.4492
ስጣ	-11.4492
▁ዓረብን	-11.4493
ኣዮም	-11.4494
▁ጀርመናዊ	-11.4494
▁ከርኢ	-11.4495
▁አደይ	-11.4497
▁ንዘለዎም	-11.4498
▁የህ	-11.4499
▁ዝመልአ	-11.45
▁ዝተሳ	-11.4501
▁ይሁን	-11.4501
▁የእቲ	-11.4501
▁ቀደመ	-11.4505
▁ዘለውዎ	-11.4506
ከፍል	-11.4506
▁ሓተት	-11.4507
▁ሕስብ	-11.4508
ትሕዞ	-11.4508
▁ሸራሙጥ	-11.4509
▁ቫይታሚን	-11.4509
▁ኣተዓባብያ	-11.4509
▁ዘተኣማምን	-11.4509
▁ዝሓፍተይ	-11.4509
▁ብክልተ	-11.4509
ገብሪ	-11.4509
ተሓጋገዝ	-11.4509
▁ምቕጻል	-11.451
▁ንብረቱ	-11.451
▁መኽዘን	-11.451
ጭጭ	-11.451
▁ጆርጅ	-11.451
ባውያን	-11.4511
▁ምዓረይ	-11.4511
ትከ	-11.4511
▁ዝኽርን	-11.4514
▁ዝመረጽ	-11.4514
▁ብናተይ	-11.4515
▁አለኹ	-11.4515
ብዮ	-11.4515
▁ከምዞም	-11.4516
▁ጎፍ	-11.4518
▁ጋዕ	-11.4519
▁ዕረፍቱ	-11.4519
▁ጸር	-11.452
ኽፈል	-11.4522
▁ክክክክክክክክክክክክክክ	-11.4522
መሊ	-11.4524
ራሃ	-11.4525
▁ሕል	-11.4532
▁በዳሊ	-11.4533
▁ኣጻብዕቲ	-11.4533
▁ስለዝኾነት	-11.4538
▁ሓንት	-11.4538
▁ምዉታት	-11.4538
ብዳ	-11.4539
▁ተሰዊ	-11.4541
ገፉ	-11.4541
▁ሽቅል	-11.4542
▁ዝመርሖ	-11.4542
▁ክልቲኤን	-11.4542
▁ብጽሑፍ	-11.4542
▁ሑሴን	-11.4542
▁ታሪኾም	-11.4542
▁ኣኽሊል	-11.4543
▁ኣሳእል	-11.4544
▁ወላሓንቲ	-11.4544
▁መዘንግዕ	-11.4545
▁ረኣ	-11.4547
▁ባዕልኹም	-11.4547
▁ጻጸ	-11.4548
▁ጠፊእካ	-11.4549
▁ፍረታት	-11.4549
▁ተሳኢ	-11.4549
▁ትካልና	-11.455
▁ሰለፍ	-11.455
▁ዕጣን	-11.4551
ቸር	-11.4552
ውያንን	-11.4552
ዳሚ	-11.4552
▁ዝበቕዐ	-11.4553
▁ገዲፈዮ	-11.4553
▁ክትፈልጦ	-11.4555
ድልይ	-11.4555
ምለሶ	-11.4556
▁ዂ	-11.4556
▁እንገብሮ	-11.4557
▁ጐይታና	-11.4558
▁ዝምርኮስ	-11.456
▁ክጻወቱ	-11.456
▁250	-11.4561
ቀብ	-11.4561
ግሱ	-11.4562
▁ንዝርከብ	-11.4563
▁ምምጽኡ	-11.4564
▁ክራ	-11.4564
▁ሰገ	-11.4566
ድፈር	-11.4566
ፈቀዶ	-11.4566
▁ሓዘል	-11.4566
▁ጸጥታን	-11.4567
▁ቀለታ	-11.4569
የል	-11.4569
▁ክበልዕ	-11.4574
ቅጽል	-11.4575
▁ጀነራላት	-11.4576
▁ገብረኪዳን	-11.4576
▁ተምሳጥ	-11.4576
▁ዝነቐለ	-11.4576
▁ጎዳጉዲ	-11.4576
▁መውዓሊ	-11.4576
▁መርዛም	-11.4577
▁ከምእትኽእል	-11.4577
▁ቀጽሊ	-11.4578
ዛሪ	-11.4578
▁እግዚ	-11.458
▁ዘውደ	-11.4581
መሰሉ	-11.4581
ሕታ	-11.4581
▁ምብራ	-11.4582
▁ዓክ	-11.4582
▁ወጺና	-11.4585
ድቅሱ	-11.4585
▁ኣበት	-11.4585
▁ዝኸፍእ	-11.4586
▁ወለድን	-11.4586
▁የድልየካ	-11.4588
▁ድሃ	-11.4589
▁ቤለ	-11.4589
▁ኮል	-11.459
▁ጥም	-11.459
▁ዓቢይ	-11.459
▁ሞጎስ	-11.4592
ዲዱ	-11.4592
▁ዝሓይሽ	-11.4593
ንጃ	-11.4595
▁ንኤርትራዊ	-11.4595
▁ዘዕበ	-11.4596
▁ሰለዝሞተ	-11.4597
▁ሶሊ	-11.4598
ርተ	-11.4598
▁ዝዉ	-11.46
ዋረድ	-11.4601
▁ማሌት	-11.4603
መጽኡ	-11.4603
ራአ	-11.4605
▁ገብሪሂወት	-11.461
▁ኣመጻጽኣ	-11.461
▁ተኣኪቦም	-11.461
▁ክረምታዊ	-11.461
▁ዓፍየት	-11.461
▁ዝስመዓኒ	-11.461
▁ሑሱር	-11.461
▁ማዓንጣ	-11.461
ቡብ	-11.461
ቀተለ	-11.4611
▁እልኩም	-11.4612
▁መንነቶም	-11.4613
▁ኣተኣ	-11.4614
▁የፍቅር	-11.4614
▁ከሰ	-11.4616
▁ብሂ	-11.4617
ጀል	-11.4622
▁ስቶክ	-11.4622
▁ብዝተገብረ	-11.4622
▁ቀጠው	-11.4623
▁ንዶ	-11.4623
ዓበየ	-11.4623
▁ንሪኦ	-11.4623
▁ምኳን	-11.4624
ወድቅ	-11.4624
▁እትደልዩ	-11.4627
ዳማ	-11.4629
▁ሓሰበ	-11.4629
ደግሙ	-11.463
▁ጸገምና	-11.4631
▁ቂር	-11.4633
▁እምብኣር	-11.4634
▁ጀሚር	-11.4634
ሓላል	-11.4635
ሰመ	-11.4635
ሓው	-11.4639
▁ጃክ	-11.464
▁ኤርት	-11.4642
▁ተዘርጊሑ	-11.4644
▁ኒውዮርክ	-11.4644
▁ኣውዳኣመት	-11.4644
▁ዲሲፕሊን	-11.4644
▁ሰሚናራት	-11.4644
▁ጣኦት	-11.4644
▁ምትካኽ	-11.4644
▁ምቅላስ	-11.4645
ረኸቡ	-11.4645
▁ዘይንፈልጦ	-11.4646
▁ኸተ	-11.4647
▁ርሒቓ	-11.4648
ድውል	-11.4648
▁ቅጥዒ	-11.4648
▁ጭርሖ	-11.4649
▁ተቐባሊ	-11.4651
ራኸባ	-11.4651
ክሙ	-11.4653
▁ሱሳ	-11.4653
▁ምውሳእ	-11.4654
▁ዝዓበየት	-11.4654
▁ነርና	-11.4655
▁ምውላድ	-11.4655
▁መዝነት	-11.4657
▁ንሕጊ	-11.4659
▁ኣትን	-11.466
ምሃሮ	-11.466
▁ትኩን	-11.4663
▁ወያ	-11.4663
▁ፈጺምካ	-11.4663
▁ጸላእኩ	-11.4664
▁ወዶም	-11.4665
▁ፕሪ	-11.4666
▁ብሓፈሻኡ	-11.4668
▁ሀበ	-11.4674
ጠፈአ	-11.4674
ፅበ	-11.4676
▁ዘይኮንኩ	-11.4676
▁ዝጻረፉ	-11.4677
▁ስቡሓት	-11.4678
▁ኩርናዓት	-11.4678
▁ንድሕነት	-11.4679
ጽንዖ	-11.4679
▁ካርቦን	-11.4679
▁ዝረኣዮ	-11.4679
▁ሲና	-11.4681
ቀነ	-11.4683
▁ይስዕ	-11.4683
▁ትዕድልቲ	-11.4685
▁ትፍትን	-11.4687
▁ተመራ	-11.4687
ርዒ	-11.4687
ሰንበደ	-11.4687
▁ወረቀት	-11.4687
▁ዘድልየካ	-11.4688
▁ሓሳብን	-11.4688
ጅል	-11.4692
▁እፍ	-11.4692
▁ናቹ	-11.4692
▁ምልከት	-11.4693
▁ኣይትታሃመል	-11.4694
▁ግድነት	-11.4694
▁ዝተገብረሉ	-11.4695
ንኪኤል	-11.4696
▁ተሰምዐ	-11.4697
▁ዘገዳምን	-11.4697
▁ኢንዲ	-11.4698
▁ከልብ	-11.47
▁ንህዝብን	-11.47
▁ሓዙ	-11.4701
ያውን	-11.4701
▁ኸመይ	-11.4702
ወጽኣ	-11.4703
▁ንምታይ	-11.4704
ቅሩ	-11.4705
▁ዝኣምኑ	-11.4705
▁ክንህብ	-11.4705
▁ዕላማን	-11.4706
ቐላ	-11.4707
ተርፎ	-11.4707
▁ዝቕመጡ	-11.4707
▁ኢስከ	-11.4708
▁ክፉ	-11.4709
▁ተፈጸመ	-11.471
▁ዝስማዕ	-11.4711
▁ዝተኻየዱ	-11.4712
▁ስቱድዮ	-11.4712
▁ኣፍቃሪኣ	-11.4712
▁ምስትምሃርን	-11.4712
▁ኣልጀርያ	-11.4712
ላዊት	-11.4713
▁ዘርእዝጊ	-11.4713
▁ትንበር	-11.4713
▁ምቕሉል	-11.4714
ሰብኩ	-11.4715
▁ዕድጊ	-11.4716
▁ኣቑ	-11.4716
▁ጋለይ	-11.4717
▁ዳኑ	-11.4718
▁ዝሓሰብ	-11.472
▁ኣብረሃም	-11.4722
▁ዝቕመጥ	-11.4722
60	-11.4724
▁ድራማታት	-11.4725
ዘኒ	-11.4725
▁ኣድናቂ	-11.4728
ስሕት	-11.4728
▁የማነይቲ	-11.4729
▁ሕብርታት	-11.4729
▁ተወሲ	-11.4731
▁ኣውዲ	-11.4732
ነግረካ	-11.4733
▁ከይኣክል	-11.4733
ዝያን	-11.4733
▁ትፈልጥዎ	-11.4734
▁ኩልኹም	-11.4734
ሰሎ	-11.4734
▁ደርፍን	-11.4735
ዕራ	-11.4736
▁ማክ	-11.4739
ገጸ	-11.4739
▁ለብ	-11.4741
ኩምልና	-11.4742
▁ቍጽሪታት	-11.4745
▁ክመጹ	-11.4746
▁ኣይነበሮምን	-11.4747
▁ሱልጣን	-11.4747
ሓዞ	-11.4747
▁ብምጥቃም	-11.4747
▁መሲሎም	-11.475
ቱብ	-11.4751
ፕያ	-11.4751
▁ንዝጸንሐ	-11.4753
▁ንዓጹ	-11.4754
▁ዘመስግነካ	-11.4755
▁ተጐ	-11.4756
▁ተጠቒሙ	-11.4756
▁ክብለኒ	-11.4756
▁ደቕ	-11.4759
▁ዘይተጸበ	-11.4764
▁ብሃይማኖት	-11.4764
▁ኾን	-11.4764
▁መሊስ	-11.4766
▁ክብለ	-11.4766
ታሊ	-11.4766
ሎሚ	-11.477
▁ምና	-11.477
▁ዘይህብ	-11.4772
አም	-11.4775
▁ራስታ	-11.4775
▁በሃኪ	-11.4775
ልያን	-11.4779
▁ፍትሓ	-11.478
▁ምቅር	-11.478
ጉዕ	-11.4781
▁ምናልባሽ	-11.4781
▁ቈላሕታ	-11.4781
▁ዱሁል	-11.4781
▁ወድሓንኩም	-11.4781
▁ስኢኖም	-11.4781
ቐቐ	-11.4782
▁ኪም	-11.4782
▁ዝፈትወኪ	-11.4782
▁ጸሮና	-11.4782
▁የህዋት	-11.4782
▁ንምሕላው	-11.4782
ግበረሎም	-11.4784
▁ሱሩ	-11.4787
▁ዜጋታታ	-11.4788
ገድሶ	-11.4789
▁ፍጣሪ	-11.4791
▁ተበራ	-11.4792
▁ከምዝኽእሉ	-11.4792
ቀየረ	-11.4793
ዛዝም	-11.4793
▁ዕልብ	-11.4793
▁መዓልቱ	-11.4794
▁ነገራትን	-11.4794
ቖር	-11.4794
▁ተባዓት	-11.4794
▁እስት	-11.4797
ደናገር	-11.4798
ቃቕ	-11.4799
▁ፈጠራዊ	-11.4799
ስትሮ	-11.48
▁ደቂቕ	-11.4801
▁ናፊቅና	-11.4802
▁ጸግ	-11.4804
▁ወጸት	-11.4807
▁ነጊር	-11.4807
ዕብዮ	-11.481
▁ቮ	-11.4811
▁ዝሕሰብ	-11.4814
ጉኡ	-11.4815
▁ረፈረንደም	-11.4816
▁ዓንቀጻት	-11.4816
▁የራኽበና	-11.4816
▁ጎስጓሳት	-11.4816
▁ፖርቱጋላዊ	-11.4816
▁ኣይትጥፍኣና	-11.4816
▁ፍጥረታት	-11.4816
▁ሰሪሕና	-11.4817
▁ተካእቲ	-11.4817
▁ከነመሓላልፎ	-11.4817
▁ንኢትዮጵያ	-11.4818
▁ኣዕጽምቲ	-11.4819
▁ፍሪ	-11.4819
ቱኡ	-11.482
▁ንምድሪ	-11.482
▁ክሰርሓሉ	-11.4821
▁ብሂል	-11.4822
አያ	-11.4822
▁ዝደልያ	-11.4822
▁ኣኸ	-11.4823
▁ዝፈላለ	-11.4824
000	-11.4825
▁ሃዋርያት	-11.4826
ሻሽ	-11.4826
▁ፖለቲከኛ	-11.4827
ነይቲ	-11.4828
▁ብቓ	-11.4829
ገባኝ	-11.4831
ጋዊ	-11.4835
▁ሻቡ	-11.4836
▁ትርር	-11.4837
▁መሳለጥያታት	-11.4837
▁ፈራሕ	-11.4837
ቀጠ	-11.4837
ማዕበለ	-11.4839
ሓሊ	-11.484
▁ግዝኣታ	-11.4843
ቢላ	-11.4843
▁ክቕበል	-11.4845
▁ሂዝ	-11.4847
▁ኣቃሊ	-11.4848
ዚዝ	-11.485
▁ብውህደት	-11.485
▁ህቡባት	-11.485
▁ብምንጽጻር	-11.4851
▁ነኣሽቱ	-11.4851
▁ኣፍኩም	-11.4851
▁ዝፈል	-11.4852
▁ሑርማ	-11.4852
▁እነፍቅሮ	-11.4852
▁መርፍእ	-11.4852
መሰል	-11.4853
ርቦ	-11.4853
▁በዚሖም	-11.4853
▁ደሚቑ	-11.4854
▁ጀላቡ	-11.4854
ግምግም	-11.4854
▁በለለይ	-11.4856
▁ምኽባር	-11.4857
▁ዘረባኻ	-11.4857
ናፍቕ	-11.4857
▁ዲክታተር	-11.4858
▁ከምዝጸንሐ	-11.4859
▁ብድሕር	-11.4859
ቕረበ	-11.486
ጓዕ	-11.486
▁ኢጣልያውያን	-11.4861
▁ዝሓዘለ	-11.4863
▁ዝብለኩም	-11.4864
▁ማለ	-11.4866
ተመልሰ	-11.4868
ረመ	-11.4869
ዘርግ	-11.4871
▁ክገብረሉ	-11.4871
▁ተራእያ	-11.4874
▁ባዕላቶም	-11.4874
ኽእላ	-11.4874
▁ዝሓለ	-11.4875
▁ዝፍለጡ	-11.4879
▁ታባ	-11.4879
▁ሓቲተ	-11.4881
▁ምውሳን	-11.4883
▁ዝረኸቡ	-11.4883
▁ርእያ	-11.4884
▁ኣተኣላልያ	-11.4885
▁ዝተመርኮሰ	-11.4885
▁ድፍኢት	-11.4885
▁ኣዳለውቲ	-11.4885
▁ብሩኻት	-11.4885
▁ገንዘቡ	-11.4886
▁ውዒለ	-11.4886
▁ኣይርሳዕን	-11.4886
▁ሸውሃት	-11.4886
ዳለው	-11.4886
▁1995	-11.4886
▁ሰሚዔ	-11.4886
▁ተራኺቦም	-11.4887
▁ኣኻሊ	-11.4887
▁ይታ	-11.4889
▁ክትሰምዖ	-11.489
ፈጸሙ	-11.4891
▁ኣንብ	-11.4894
ሰማምዑ	-11.4894
ቕኩም	-11.4894
▁ተሪ	-11.4896
ነግረኒ	-11.4897
▁ነብ	-11.4897
▁ሆነ	-11.4897
▁ይሕሸካ	-11.4897
▁2020	-11.4898
ቑን	-11.4898
▁ድምጽኪ	-11.49
ግባር	-11.4901
▁ስቅያት	-11.4901
ርስዓ	-11.4901
▁መጺእ	-11.4903
▁መነባብሮኦም	-11.4903
መፅእ	-11.4905
ሁም	-11.4906
▁ተረኛ	-11.4907
▁ሓብቲ	-11.4907
እሊ	-11.4909
▁ሕማ	-11.491
ንጸባረቐ	-11.491
▁ትመስሉ	-11.4912
▁ተምሪ	-11.4914
ራከብ	-11.4914
ለኛ	-11.4915
▁ዝገበርካዮ	-11.4917
▁ብጣዕም	-11.4918
▁ቆማላት	-11.492
▁እንተወሓደ	-11.492
▁ንሓያሎ	-11.492
▁ዓርክኻ	-11.492
▁ዘንጻላ	-11.492
▁ፍርቱና	-11.4921
▁ምኻኖም	-11.4921
▁ተባረኺ	-11.4921
▁ግጥሙ	-11.4921
▁ንሓያለ	-11.4922
▁ርስሓት	-11.4922
▁ፍራንክ	-11.4922
ደቀ	-11.4925
▁በልኪ	-11.4926
▁ኣሕዋቶም	-11.4929
▁ኣዱየ	-11.4929
▁ሰላምካ	-11.493
▁ወኪላ	-11.4933
ዘንቲ	-11.4933
▁ዚነብር	-11.4935
ርቡዕ	-11.4935
▁መንገዱ	-11.4938
▁ይሓግዝኩም	-11.4939
▁ይበለና	-11.4939
▁ይወስድ	-11.4939
ነብረላ	-11.494
▁የብለ	-11.4941
▁ነዓካ	-11.4941
▁ዓሲ	-11.4941
▁ኣጂ	-11.4942
▁ራህ	-11.4942
▁ከይድካ	-11.4943
▁ረኪብካ	-11.4944
▁ዊል	-11.4945
በታ	-11.4946
ጣሚ	-11.4946
▁መጻካና	-11.4946
▁ሳር	-11.4947
▁ዘወ	-11.4948
▁ሕማማትን	-11.4948
▁ዋዋዋ	-11.4949
ሪሒ	-11.495
▁ቈልዑን	-11.4951
ብጻሓ	-11.4951
▁ቀጽልሉ	-11.4954
▁ዕብ	-11.4955
ዳዳ	-11.4955
▁ሆስፒታላት	-11.4955
▁ሊዮነል	-11.4955
▁ዕምቆት	-11.4956
▁ቅልቅል	-11.4956
▁ፌቨን	-11.4956
ዑን	-11.4956
▁ንስድራቤት	-11.4957
▁ከየመስገንኩ	-11.4957
▁ኣይርከብን	-11.4958
▁ምዚ	-11.4958
▁መናብር	-11.496
ሓመድ	-11.496
▁ብሕልና	-11.496
▁ከምዘለና	-11.4962
ድህስስ	-11.4962
▁ትብሎም	-11.4963
ጽሮም	-11.4964
▁ዂሎም	-11.4964
▁ክገልጸካ	-11.4967
▁ምፍላይ	-11.4967
▁መንከ	-11.4968
መስረተ	-11.497
ጊዕ	-11.497
▁ስነጥበበኛ	-11.497
▁ፋይዳ	-11.4971
▁እሕ	-11.4971
▁ዲክ	-11.4974
ግራም	-11.4975
▁ባት	-11.4977
ከብር	-11.4978
ኮንኪ	-11.4978
▁ዝጻወቱ	-11.498
ኩኹም	-11.498
▁ንፍት	-11.498
በዝሐ	-11.4981
▁ከባቢኡን	-11.4981
▁ጂኦ	-11.4982
▁ኣይነበረንን	-11.4983
ፈቲ	-11.4983
▁ርስ	-11.4984
ስምዐ	-11.4985
▁መጺኩም	-11.499
▁ብተኸታታሊ	-11.4991
▁ብጉጅለ	-11.4991
▁ሓጎሰና	-11.4991
▁ዓማ	-11.4991
▁ኣቦሓጎ	-11.4994
▁መሳልል	-11.4994
▁ንኸምዚ	-11.4995
▁ተረዲኡኒ	-11.4995
▁ብመጠን	-11.4996
ንጪ	-11.4997
▁ማሕደር	-11.4997
▁ኣታሓሳስባ	-11.4997
▁ፖው	-11.4998
▁ስቲ	-11.4998
ሽያ	-11.4999
▁ነዳ	-11.4999
▁ሃገረሰብ	-11.5
▁ያከ	-11.5
▁ደረጃኡ	-11.5002
▁መሊኣ	-11.5002
▁ዝተዘርግሐ	-11.5003
▁95	-11.5004
▁ወዲኡ	-11.5005
▁ሸተት	-11.5005
▁ይግመት	-11.5008
▁መርየት	-11.5009
▁ንጽበዮ	-11.5009
ጉዓዝ	-11.501
▁ጎር	-11.501
ቃላ	-11.501
▁ንኩን	-11.5011
▁ስእ	-11.5011
▁ገዲፍ	-11.5013
▁ክንሳ	-11.5013
▁ዚገብር	-11.5014
ነበሮ	-11.5015
ኽኒ	-11.5016
▁ጥሕ	-11.5017
▁ዝመሰ	-11.502
▁ንጉ	-11.5022
▁ክርድኦ	-11.5022
ጽቲ	-11.5024
ርሳዕ	-11.5024
ስርዓ	-11.5025
▁ዓጀውጀው	-11.5026
▁ሩታ	-11.5026
▁ክንደየናይ	-11.5026
▁ዕጉብ	-11.5026
▁ተሾመ	-11.5026
▁ዘየለውሉ	-11.5026
▁ፈላጣት	-11.5026
▁ትመስሊ	-11.5026
▁ዘይምዃኑ	-11.5026
▁ምፍዋስ	-11.5027
▁ክትኮኒ	-11.5027
▁ብቓላት	-11.5028
▁ትርጉሙን	-11.5028
▁መስጊድ	-11.5028
▁ፈኲስ	-11.5029
▁ውስጥ	-11.503
▁ሙድ	-11.5031
ጎደለ	-11.5032
▁አብርሃ	-11.5032
▁መጽሓፉ	-11.5033
▁ኣስፊ	-11.5033
▁ሰምበልን	-11.5034
▁ዝጸናሕና	-11.5034
ጻወቶ	-11.5036
▁ኣዚኻ	-11.5037
▁ቀጽሊዮ	-11.5037
▁ሻርክ	-11.504
▁ቡሩ	-11.504
ዓሩ	-11.5041
▁ትነብሩ	-11.5041
▁ዝወሰዶ	-11.5044
▁ኣጸዋውታ	-11.5044
ዓቲ	-11.5045
መዓ	-11.5045
ተወስደ	-11.505
▁ሸፊ	-11.5051
▁ርኤኹ	-11.5052
እኻ	-11.5052
▁ኣይፈለ	-11.5053
▁ብጀ	-11.5053
▁መጺኪ	-11.5053
▁ዝከታተል	-11.5054
▁ወዲቓ	-11.5055
ስረት	-11.5056
ለቕ	-11.5057
ጸሎ	-11.5058
ሃራ	-11.5058
ሕዋት	-11.5058
ቅርቡ	-11.506
ኮይኑ	-11.5061
ረልና	-11.5061
▁ዝወጸት	-11.5061
▁ገብረስላሰ	-11.5061
▁ተበጊስና	-11.5061
▁ጸጒሪ	-11.5061
▁ድፋዓት	-11.5061
▁በቒዓ	-11.5061
▁ሉዊስ	-11.5062
▁ድዑል	-11.5062
▁ሎኢስ	-11.5062
▁ህውከት	-11.5062
▁ከበር	-11.5062
▁ሓሚመ	-11.5063
▁ኣርእ	-11.5063
▁ትኣ	-11.5064
▁ህሌት	-11.5065
▁ትግሪና	-11.5066
▁ዝጽበያ	-11.5067
▁ንኸይድ	-11.5068
▁ዝጥቀሙ	-11.5069
▁ዓጢ	-11.5069
▁ምካና	-11.5072
▁ዝቃ	-11.5072
ዱስ	-11.5072
▁ጽላለ	-11.5073
▁ጆኒ	-11.5074
▁ጽሕፈ	-11.5074
ተቱ	-11.5075
ሓለፍ	-11.5075
ህይወ	-11.5077
▁መበ	-11.508
ቅዱስ	-11.508
▁ኩራ	-11.5083
▁ይርኣዩ	-11.5083
መስከረ	-11.5084
▁ኣልካ	-11.5084
▁ንፊት	-11.5084
▁ዘይረኸበ	-11.5084
▁ሕስ	-11.5087
ሕማቅ	-11.5087
▁ስሩ	-11.5087
ጽንዓ	-11.5088
▁ተፈልዩ	-11.5088
▁እምበል	-11.5089
▁ክትጽ	-11.5092
ነበራ	-11.5093
▁መሳርሒት	-11.5096
▁ሮይተርስ	-11.5097
▁ኮርፖረሽን	-11.5097
▁ጒዕዞ	-11.5097
▁ኣእዳዎም	-11.5097
▁ዕሱብ	-11.5097
▁ተሸላሚ	-11.5097
▁ድሩዕ	-11.5097
▁ሐሶት	-11.5097
▁ሳምንቲ	-11.5099
▁ክፍለማርያም	-11.51
▁ኣጣል	-11.5101
ጵያ	-11.5101
▁ግጥማ	-11.5103
▁ጸወታኡ	-11.5104
▁ባሮት	-11.5106
ሓለወ	-11.5109
ሽር	-11.5111
ለጠ	-11.5113
▁ወቅት	-11.5113
▁ፈራ	-11.5115
▁ደለዋ	-11.5115
ሮፓ	-11.5116
ረቦ	-11.5119
▁ትጻወት	-11.512
ጅምሮ	-11.5121
ዋሃብ	-11.5122
▁ተንስእ	-11.5123
▁ንሃብ	-11.5124
ጽይ	-11.5126
ፈጥሮ	-11.5127
ኾር	-11.5127
▁ብዘላ	-11.5128
ራክ	-11.513
ድምጽ	-11.5131
▁ሱራፌል	-11.5133
▁ዕንጨይቲ	-11.5133
▁ምዕቡላት	-11.5133
▁ሕያዋይ	-11.5133
▁ውረድ	-11.5133
▁ብልጽግናን	-11.5133
▁ኣሕዋታ	-11.5134
▁ዘየብል	-11.5134
▁ማእገር	-11.5135
▁ባአ	-11.5135
▁ስድራቤቱ	-11.5136
▁ዝርኣዩ	-11.5136
ምህሮ	-11.5136
▁ንቦታ	-11.5137
ሂር	-11.5137
▁ዝበሎም	-11.5137
ማሪያም	-11.5137
▁ማርቲን	-11.5138
▁ምሻጥ	-11.5138
ብረካ	-11.5138
▁ሎጎ	-11.514
▁ጽምኢ	-11.514
▁ተዛረቦም	-11.514
ድልዮ	-11.5141
▁ብዳ	-11.5142
▁ገበርኩ	-11.5142
▁ዘፋ	-11.5143
▁ቀፅልዎ	-11.5144
▁ጨናዊ	-11.5144
▁ከብሎ	-11.5145
▁ኤፋር	-11.5147
▁ዝገበረቶ	-11.5148
▁ዘፈኑ	-11.5148
▁ክትብ	-11.5148
▁ንባዕላ	-11.5149
▁ክገልጸ	-11.5151
▁ንገጽ	-11.5152
▁እንዳበልና	-11.5152
ክየ	-11.5153
ትሕዝ	-11.5153
ህለል	-11.5153
ዝማ	-11.5154
ቐየረ	-11.5156
▁እትበሃል	-11.5157
ፍኖ	-11.516
▁ርግ	-11.5162
ጻጸ	-11.5163
ጊር	-11.5163
▁ተወጊ	-11.5166
▁ብሩርን	-11.5168
▁ሰይጣናዊ	-11.5168
▁ስፖርታውያን	-11.5168
▁ሻምፕዮና	-11.5168
▁ወልደገብርኤል	-11.5169
▁ሱዚ	-11.5169
▁ሳንቡእ	-11.5169
▁ሓሙሽተን	-11.5169
▁ፍትዋት	-11.517
▁ንጸላእ	-11.5171
▁ነቦና	-11.5172
ግስግስ	-11.5172
▁አሪትራውያን	-11.5172
▁ርእዮም	-11.5173
▁ሰዲዱ	-11.5173
ይቱ	-11.5173
ተንፍስ	-11.5174
ፈትው	-11.5176
መጾ	-11.5177
▁ሕብ	-11.5179
መዱ	-11.5181
▁ዝጸበ	-11.5181
▁ዘይኰኑ	-11.5181
▁ተማሃሪት	-11.5182
▁ዜናዊ	-11.5182
▁ዘዐ	-11.5183
ዀኖ	-11.5184
ጠሪ	-11.5184
▁ሲሶ	-11.5185
▁ድኩም	-11.5186
▁እንዲኺ	-11.5187
▁ቆይ	-11.5187
70	-11.5188
▁ኦክ	-11.5188
ቋረጸ	-11.5189
▁ዝፈትዎም	-11.519
▁ክትህሉ	-11.5193
ደኪ	-11.5193
ጠቡ	-11.5193
▁57	-11.5195
▁ዘውረ	-11.5198
▁ኢረ	-11.5199
ዓዱ	-11.5201
▁ኣይምተ	-11.5201
ሒቱ	-11.5202
▁ተፈቲ	-11.5203
▁ጥቃ	-11.5203
▁መንዩ	-11.5204
▁ብንቕሓት	-11.5204
▁ኣረፋይነ	-11.5204
▁ብጉ	-11.5205
ችል	-11.5206
መኩም	-11.5207
▁ክስለፍ	-11.5208
▁ሃጸይ	-11.5208
▁ከድካ	-11.521
▁ምናተ	-11.5211
▁ንኣቶ	-11.5211
▁ሕሉ	-11.5214
▁ሃለው	-11.5214
▁ዝኸበደ	-11.5215
▁ምምላእ	-11.5215
ጥዒ	-11.5218
▁መምዘኒ	-11.5221
▁ትዛረቢ	-11.5222
▁እናንተ	-11.5223
▁ቀተልቲ	-11.5223
ራዊት	-11.5225
▁ተዓዚ	-11.5226
ከው	-11.5227
▁ኢልኒ	-11.5229
▁ከድኩ	-11.523
ቐብ	-11.523
ዓራ	-11.5231
▁ዚኽእል	-11.5232
▁ክቅጽል	-11.5232
ጣራ	-11.5233
ሚል	-11.5233
▁ተካይድ	-11.5233
ደሪ	-11.5233
ዩብ	-11.5236
▁ኣድሕን	-11.5239
▁ዝፈጸም	-11.5239
▁ትህቡ	-11.524
▁ሂምቦል	-11.5241
▁ኣህጉራውያን	-11.5241
▁ሰቪያ	-11.5241
▁ባንደራ	-11.5241
▁ብጥዕሚ	-11.5241
▁ምቅሊት	-11.5242
▁ጳ	-11.5242
▁ኣህባይ	-11.5243
▁ማእከለ	-11.5243
▁መስሓቕ	-11.5244
▁ቐጠር	-11.5244
▁ተኣሲሮም	-11.5244
▁ይግበረሉ	-11.5247
▁ፈልጥ	-11.5249
▁ይሕሸኒ	-11.5249
▁ሮበርት	-11.525
▁ክትጽበ	-11.525
▁ገጢም	-11.525
ፍላይ	-11.5251
▁ቴሌ	-11.5251
▁ንመዓልቲ	-11.5252
▁ንምሓዝ	-11.5252
▁ሓፊ	-11.5253
▁ሕልሙ	-11.5253
▁ዝቐረቡ	-11.5253
▁ዝደል	-11.5254
▁ፋሽን	-11.5255
▁ጎንኹም	-11.5257
ተኤ	-11.5257
ቱም	-11.5257
▁ወዲኣ	-11.5259
▁እትለ	-11.5261
ሕዋትና	-11.5262
ተሎም	-11.5264
▁ደረፍ	-11.5264
▁ክሱስ	-11.5266
ክነ	-11.5267
▁ምትሕ	-11.527
ድክ	-11.5271
▁ውህደትን	-11.5274
▁ዝጎደለ	-11.5274
መስገና	-11.5276
▁ንሰናይ	-11.5276
▁ቁጠባውን	-11.5276
▁መጨረሽታ	-11.5277
▁ዘይምፍላጥ	-11.5277
▁ኣድማዕነት	-11.5277
▁ዓጣሪት	-11.5277
▁ዝንገረላ	-11.5277
▁ድሒራ	-11.5277
▁ስድርኡ	-11.5277
▁ዝዓብለሎ	-11.5277
▁ደንደስ	-11.5277
▁ጠንጢ	-11.5278
▁ትቕረብ	-11.5279
▁ብምልኣት	-11.5279
▁ሞናኮ	-11.5279
▁ኣይደ	-11.528
▁ገለጸ	-11.5282
▁ሰንተር	-11.5282
▁ስልማት	-11.5284
▁ክፈት	-11.5284
▁ሌጠ	-11.5286
▁እንተዘየለ	-11.5286
▁ኤረትራውያን	-11.5286
▁ገይር	-11.5287
▁ስድራኣ	-11.5287
▁ኣምሊ	-11.5288
▁ከምዝቐ	-11.5288
ዓዕ	-11.5289
▁ክሕግዝ	-11.5289
▁እትደልዮ	-11.5291
▁ዓንኬላት	-11.5292
▁ኣሲ	-11.5292
▁ከምዝገበረ	-11.5292
ናቱ	-11.5294
▁ኣርጀንቲናዊ	-11.5297
▁እንተሃለወ	-11.5301
▁ተቐበል	-11.5302
▁ፋል	-11.5302
▁ዱባይ	-11.5303
▁ኣሰይይይይ	-11.5305
ነብሮ	-11.5306
ውድእ	-11.5307
ገሉ	-11.5308
▁አብቲ	-11.5311
▁ዘቕረበ	-11.5311
ዓባ	-11.5312
ሮምን	-11.5313
▁ብህድኣት	-11.5313
▁ውግኣት	-11.5313
▁ዝርጋሐ	-11.5313
▁ዝነኣሰ	-11.5314
▁ዝጠልብ	-11.5315
▁ዘድልዩ	-11.5315
▁ቦታታትን	-11.5316
▁ንክኸውን	-11.5317
▁ነደ	-11.5317
▁ሰሃራ	-11.5317
▁ጸጉ	-11.5318
▁ዝሓል	-11.5319
▁ሓቲትካ	-11.532
ሃሎ	-11.532
ሰዓ	-11.5322
ዳና	-11.5322
▁ዝሓድር	-11.5322
ጠፋእ	-11.5325
መስላ	-11.5326
▁ክንኣቱ	-11.5326
▁ክንዕወት	-11.5329
ሰመዓ	-11.5329
▁መሊኦም	-11.5332
በለይ	-11.5332
▁ኢማ	-11.5333
▁ዝተመርጸ	-11.5333
▁ክትሓልፍ	-11.5333
ብለል	-11.5335
▁ሕልናዊ	-11.5336
▁ዝበጽሓ	-11.5337
ሓለል	-11.5337
▁ጣፍ	-11.5338
▁ግብሩ	-11.5339
▁ናራ	-11.5341
▁ጸኒሕ	-11.5342
▁ዝዛረቦ	-11.5345
▁ንኣታቶም	-11.5347
ወሲ	-11.5348
▁በብግዜኡ	-11.535
▁ንምቁጽጻር	-11.535
▁ኣስፋሃ	-11.535
▁ሲኢኑ	-11.535
▁ሕትመት	-11.535
▁ጓኖት	-11.535
▁ምንቅ	-11.5351
▁ዕዋላ	-11.5351
▁ኣይተረኽበን	-11.5351
▁ነፍስሄር	-11.5351
▁ላሕ	-11.5351
ድሜ	-11.5351
ፋሽ	-11.5351
▁ሸይ	-11.5351
▁ተጻዊት	-11.5353
▁ኖሪት	-11.5354
ዓስ	-11.5354
ባአ	-11.5356
ረከቡ	-11.5356
ቦች	-11.5358
ረቡ	-11.5358
▁ዝድርኽ	-11.5358
▁ተሰዊኦም	-11.5359
▁ዕላላት	-11.536
▁ሕቶይ	-11.5362
▁ፖል	-11.5363
ጸአ	-11.5364
▁ድርዒ	-11.5364
▁ሙስ	-11.5365
▁እናኸደ	-11.5365
ላትና	-11.5366
ንቀሳቐሱ	-11.5366
▁እዚኣተን	-11.5366
▁ረይ	-11.5366
▁ኣምጽ	-11.5367
ውኡ	-11.5368
ያቶ	-11.537
ዝገበ	-11.5371
▁መጺና	-11.5371
▁ክትቀ	-11.5372
▁በሊዑ	-11.5372
▁ሓውኹም	-11.5372
ምነገር	-11.5373
▁ከይትብል	-11.5373
▁ኔርዋ	-11.5373
ዕሚ	-11.5375
ቀፍ	-11.5375
▁ይኽእላ	-11.5375
ሕብ	-11.5376
ሰምዖም	-11.5377
▁ክትዝ	-11.5378
ባባዕ	-11.5378
▁ማይክል	-11.5378
ራቢ	-11.5379
ቕተል	-11.538
ገርግስ	-11.5382
ሽተይ	-11.5386
▁መጠይቕ	-11.5386
▁ተመራማሪ	-11.5386
▁ያሬዶ	-11.5386
▁ንወላዲ	-11.5387
▁ኣኽበረት	-11.5387
▁ጨፍ	-11.5387
▁ምግባሩ	-11.5387
▁ጽፍ	-11.5388
▁ኩነታቱ	-11.5389
▁ዝኣተወት	-11.539
ኣኽሎ	-11.5392
▁ጭን	-11.5392
ዛት	-11.5393
▁ዘይተፈልጠ	-11.5394
▁ኤፐ	-11.5394
▁ሸነ	-11.5395
▁በፍቅር	-11.5397
▁መጽሓፈይ	-11.5398
▁ሃብኒ	-11.5399
▁ንፈጣሪ	-11.5399
▁ውጹ	-11.54
▁ወዲአ	-11.5403
▁ዘይኮና	-11.5404
▁ዕንበባ	-11.5406
▁ዘበት	-11.5406
▁ስታፍ	-11.5408
▁ኪብል	-11.5408
99	-11.5408
ጣዓ	-11.5409
▁ምፍላ	-11.541
▁ምጽናዕ	-11.5412
▁ትህሉ	-11.5415
▁ስልጠናን	-11.5416
▁ሰዓብቱን	-11.5418
▁ኣለዉና	-11.5418
▁ንጹ	-11.5418
▁ድሌታ	-11.5419
ኩሪ	-11.5421
▁ኣእምሮኣ	-11.5421
▁ኣይፈለጥ	-11.5423
▁መወዳእትኡ	-11.5423
▁ቫለንስያ	-11.5423
▁ዮርሳሌም	-11.5423
▁ኣቕሪባ	-11.5423
▁ሽርክነት	-11.5423
▁ልኢኹ	-11.5423
▁የነጽር	-11.5423
▁ራዕዲ	-11.5423
▁ተራኺብና	-11.5424
▁ዶናልድ	-11.5424
እትዋ	-11.5424
▁ብመንጽሩ	-11.5424
በዝሓ	-11.5424
▁ዝተመደበ	-11.5424
▁ንኹለን	-11.5426
▁መምርሒታት	-11.5426
▁ኢሪትራ	-11.5426
▁ቅድሜና	-11.5427
▁ወለደት	-11.5427
▁ተሰንዩ	-11.5427
▁ክወስደ	-11.5428
▁እዚኤን	-11.543
▁ሓይሎም	-11.5432
▁ዝሳተፉ	-11.5432
▁ሞሊ	-11.5433
ግሮም	-11.5433
ጋጥሞ	-11.5435
▁ሰሊና	-11.5436
ህልወና	-11.5436
▁ደለካ	-11.5436
በለኒ	-11.5436
▁ዝተማ	-11.5441
ፋቱ	-11.5446
▁ሽበራዊ	-11.5449
▁ብዲ	-11.545
ኣወጀ	-11.5452
▁ኣይነበር	-11.5453
▁ልኡላዊ	-11.5454
▁እሳተ	-11.5454
ሊፉ	-11.5455
ርፎ	-11.5457
ማልእ	-11.5458
ገጥ	-11.5458
በሻ	-11.5458
በረልና	-11.5459
▁እንቋቑሖ	-11.546
▁ዘይኰይኑ	-11.546
▁ጺሒፈ	-11.546
▁ቁኑዕ	-11.546
▁አቅሊም	-11.546
▁እሙናት	-11.546
▁ንተማሃሮ	-11.546
▁ንተጋሩ	-11.5462
▁ብርኩ	-11.5463
▁ህዋሳት	-11.5463
እይ	-11.5464
▁ክበጽሖ	-11.5464
ብሃሉ	-11.5464
ትስእ	-11.5465
ቕመጡ	-11.5465
▁የሕዝን	-11.5466
ወሊ	-11.5467
▁ሰፈሩ	-11.5467
ባቱ	-11.5468
▁ኣሎኹም	-11.5469
▁ምላ	-11.5469
ጥቅዕ	-11.5472
ክልና	-11.5472
▁ባህላዊት	-11.5473
▁ንውዕል	-11.5473
▁ዛግራ	-11.5475
▁እናጠመተ	-11.5476
ጐል	-11.548
▁ኣምርሐ	-11.548
ታለል	-11.5481
ውና	-11.5485
▁ክንም	-11.5486
ቢሄር	-11.5487
▁ሕደር	-11.5487
▁ዕላማና	-11.5488
ሩሑ	-11.5489
ሌክ	-11.549
ቱር	-11.5491
እድ	-11.5491
ቡቕ	-11.5492
▁ዝመስላ	-11.5493
▁ተማህ	-11.5494
ሚና	-11.5494
ረኣዮ	-11.5495
ቀየር	-11.5495
▁ቅናት	-11.5495
▁ገዳ	-11.5496
▁መጻወድያ	-11.5497
▁ግፍዕታት	-11.5497
▁ጣኒቆ	-11.5497
▁እስላማዊ	-11.5497
▁ንባዕልኻ	-11.5497
▁ገብረእየሱስ	-11.5497
▁ጋንትኡ	-11.5498
▁ንጸወታ	-11.5498
▁ማዓኮር	-11.5498
▁መብረ	-11.5499
▁ኣግማል	-11.5499
▁እምበ	-11.5499
▁ግደፈ	-11.55
▁ኬድኩም	-11.55
▁እልፊ	-11.55
▁እግርኻ	-11.5501
▁ይኣኽ	-11.5502
▁ተወሊዳ	-11.5503
▁ንኣምን	-11.5504
ማኣ	-11.5505
▁ኣሲድ	-11.5509
▁ትምለስ	-11.551
▁ዛላ	-11.551
▁ብይን	-11.5511
ኸዉን	-11.5512
▁ምርምርን	-11.5514
ነዝ	-11.5515
▁ዝወሰድ	-11.5517
ሰላሰ	-11.5519
▁እትውንን	-11.5522
▁ዘረባታት	-11.5522
▁ዕበ	-11.5523
▁ገጀረትን	-11.5524
▁ይፍተ	-11.5524
▁ዓሚል	-11.5524
ሃለዉ	-11.5525
▁ብደርፊ	-11.5527
ሊዑ	-11.5527
▁ዝንቀሳቐሱ	-11.5529
ብሓ	-11.5529
▁ከሳ	-11.553
▁ኢሉካ	-11.553
▁ከዐ	-11.5531
▁ጓልና	-11.5532
▁ብሸ	-11.5532
▁ብተሌፎን	-11.5534
▁መሳፍንቲ	-11.5534
▁ተማሂሩ	-11.5534
▁ኣበርቲዑ	-11.5534
▁ቀዳድም	-11.5534
▁ኣየድልየናን	-11.5534
▁ጻሕ	-11.5534
▁ምቅርራብ	-11.5535
▁ንቑሕ	-11.5535
▁መደበራት	-11.5536
▁ዓጊበ	-11.5536
▁ንኣእምሮ	-11.5536
▁እግዛቢሄር	-11.5536
ቆርጽ	-11.5536
▁ዝበልክ	-11.5536
▁ኣሲር	-11.5536
▁ስለዘለኹ	-11.5537
▁ባይክ	-11.5539
▁ህው	-11.5541
▁በዘን	-11.5542
▁ስዉር	-11.5542
▁ደርፍታቱ	-11.5543
ጥቅዑ	-11.5543
▁መራሕትና	-11.5544
▁ምንዋሕ	-11.5544
ጸንሖ	-11.5544
▁ምትሕግጋዝን	-11.5545
▁ካብዚኣ	-11.5545
▁ዕርድታት	-11.5545
▁ኣይትጸበ	-11.5545
ቹሁ	-11.5546
▁ዓሌታዊ	-11.5546
ጥቃ	-11.5547
ቕርባ	-11.5548
▁ዘስምዕ	-11.5548
▁ሀደ	-11.5549
በልዎ	-11.5551
▁ዝበቅዕ	-11.5552
▁ክድገም	-11.5554
45	-11.5556
ሓፍሩ	-11.5557
▁ክነግረኩም	-11.5557
ኢልኩም	-11.5557
ቀኛ	-11.5558
▁ዝተታሕዘ	-11.5559
ጥያ	-11.5561
▁ኣመን	-11.5563
ፉእ	-11.5563
ከሎ	-11.5564
▁ሓብቱ	-11.5565
▁ንሄ	-11.5567
ተፈ	-11.5567
▁ግደፍዮ	-11.5567
▁ክለዓል	-11.5568
▁ሰክ	-11.5569
▁ብጣዕ	-11.5569
▁ክሳተፉ	-11.5571
▁ነጊረ	-11.5571
▁ብዕምቈት	-11.5571
▁ጉሒላ	-11.5572
▁ብቐዳማይ	-11.5572
▁ኴንኪ	-11.5572
▁ንምስፋሕ	-11.5573
ጽንበር	-11.5573
▁መዕረፊ	-11.5574
▁ዝበልካያ	-11.5575
▁ለኢ	-11.5575
▁ኢሮፓ	-11.5575
▁ወርሕን	-11.5575
▁ሓቲ	-11.5575
▁ምቑራጽ	-11.5575
▁ዘዕበየ	-11.5577
▁ነይርዎም	-11.5578
▁ማርታ	-11.5578
▁ቋሕ	-11.558
▁ተኮ	-11.5581
▁ክብርና	-11.5581
▁ይዘ	-11.5582
ምርሽ	-11.5583
▁ያለው	-11.5584
▁ገዝኣ	-11.5588
▁ዝጐ	-11.5592
▁ሓራስ	-11.5592
ነቅጽ	-11.5594
▁ይበሉ	-11.5594
▁ሞገስ	-11.5594
▁ደዊል	-11.5595
ሑስ	-11.5596
ንንንን	-11.5597
ቅጡ	-11.5598
ሚካኤል	-11.5598
ሓሪ	-11.5598
▁ሰብዓ	-11.5599
▁ዝሓሰበ	-11.56
ዚያ	-11.5601
▁ወጅ	-11.5603
▁ክገ	-11.5603
▁ምዉት	-11.5604
▁ብጃ	-11.5605
▁ንመሰል	-11.5606
▁ተሞ	-11.5606
▁ድሁላት	-11.5609
▁ጐስጓስ	-11.5609
▁ሕዱር	-11.5609
▁ትርጉማ	-11.5609
▁ብሕቡእ	-11.5609
▁ፋልማይ	-11.561
▁ዝንባለ	-11.5611
▁ሳሃራ	-11.5611
▁ስለዘለዉ	-11.5611
በቶም	-11.5611
▁ንግደት	-11.5612
ኣምነሉ	-11.5613
ቀውም	-11.5613
ልዮን	-11.5614
▁ነመስግነኩም	-11.5614
▁ትሓል	-11.5615
▁ሰሙ	-11.5615
▁ሕሩይ	-11.5618
▁ሰራውር	-11.5618
▁ማሳ	-11.5618
አቲ	-11.562
ሳለ	-11.562
ዑኒ	-11.562
▁ኣድኒቀኩም	-11.5621
▁ጠቅ	-11.5621
▁ሰኪ	-11.5622
▁ተበሊ	-11.5624
▁ክብገስ	-11.5625
▁ኣይትበሊ	-11.5626
ጽሕፉ	-11.5626
▁ኣደታትና	-11.5626
▁ዝመጽ	-11.5631
▁ዝደረፈ	-11.5631
ውዳ	-11.5631
ጻይ	-11.5632
ማሙ	-11.5632
ህዋ	-11.5632
▁ከቕርቡ	-11.5632
ተዛረብኩ	-11.5632
▁ሳሪ	-11.5633
ቅሮ	-11.5633
▁ይህቡ	-11.5635
▁ዝወሃቦ	-11.5637
▁ኣየድልን	-11.5637
ተንከፈ	-11.5637
ትታት	-11.5639
▁መሃያ	-11.5641
▁ትጋገ	-11.5642
▁አቦታት	-11.5644
ዝሓ	-11.5646
▁ፓፓጋሎ	-11.5647
▁ሓጎሰኩም	-11.5647
▁ትሸዓተ	-11.5647
▁ተደሚሩ	-11.5648
▁ደቅኺ	-11.5652
▁ሓሊፍ	-11.5652
▁ፌስ	-11.5652
መዉት	-11.5653
▁ኣገልገልቲ	-11.5653
ፍሑ	-11.5654
ለዐ	-11.5656
▁ገርኪ	-11.5659
▁መይቱ	-11.566
▁ጉንዲ	-11.5661
ናታት	-11.5662
▁ዓመጻ	-11.5662
ገዛእ	-11.5663
ቦሞ	-11.5666
▁ደቆምን	-11.5666
ዉድ	-11.5666
ሙላ	-11.5668
▁ትሰርሖ	-11.567
ጥሩ	-11.5672
▁ኣሰራት	-11.5674
▁ክንፈልጦ	-11.5675
ኰን	-11.5676
▁ኣምራት	-11.5677
▁ድብ	-11.5677
▁ኣካይድ	-11.5679
ለባ	-11.568
▁ብቐዳም	-11.568
ተረደኣ	-11.5681
▁ዘለካዮ	-11.5681
▁ጠል	-11.5682
▁ዘመደ	-11.5683
▁ሙቁራተይ	-11.5684
▁ጦብላሕታ	-11.5684
▁መውስቦ	-11.5684
▁ስምምዓት	-11.5684
▁ቀትርን	-11.5685
▁ኣሶር	-11.5685
▁ዘሰክፍ	-11.5685
▁ኣፍኪ	-11.5685
ውርድ	-11.5687
▁ገንዘባዊ	-11.5687
▁አሕዋተይ	-11.5688
▁ኣንበ	-11.5689
▁ተደና	-11.5689
▁ዝነበረቶ	-11.5689
▁ዝረኸብኩ	-11.5691
በነ	-11.5693
▁ባሃልቲ	-11.5693
▁ቀውዒ	-11.5694
▁59	-11.5695
▁እምብኣርሲ	-11.5696
▁ናባኹም	-11.5696
ቅተል	-11.5696
▁ጠፊኦም	-11.5696
▁ኣዕሪ	-11.5696
▁ዘጋጠማ	-11.5697
▁ስርዓትን	-11.5697
▁ደሞም	-11.57
▁አስይ	-11.57
ርጎ	-11.5702
▁ክፋእ	-11.5704
▁ኣለክን	-11.5705
ደቕ	-11.5707
▁ሩባታት	-11.571
▁ኣይኹን	-11.5711
▁ኣሕሊፈ	-11.5711
ቋርጾ	-11.5712
ኸነ	-11.5712
▁ኣንደ	-11.5713
▁ትሕዝ	-11.5714
▁ንሓው	-11.5716
ጀው	-11.5718
▁ስምና	-11.5719
▁ሰዓብ	-11.5719
▁ነጊሩ	-11.572
▁ተወሊ	-11.5721
▁የርኢ	-11.5721
▁ርኽበት	-11.5722
▁ተረኪቡ	-11.5722
▁ጠያይት	-11.5722
▁ኣቑጺሩ	-11.5722
▁ህርፋን	-11.5723
▁ብምሕሳብ	-11.5723
▁ምብጋስ	-11.5723
▁ዝርኣየ	-11.5725
እተወ	-11.5727
ብሀል	-11.5729
▁ኣምሊኽ	-11.573
▁ክንጥቀመሉ	-11.5731
▁ጥበብካ	-11.5733
ጽጋዕ	-11.5733
▁ሓይ	-11.5733
▁በሉና	-11.5734
▁ይስምዓ	-11.5734
ከኣለ	-11.5734
▁ዝተነ	-11.5735
▁ደርፈ	-11.5736
▁ብምክ	-11.5737
ጽዋዕ	-11.5737
ስሙ	-11.5737
ሓለፉ	-11.5738
▁ከወ	-11.5738
▁ብጾቱን	-11.5738
▁ንሃገራዊት	-11.5738
ጸውዑ	-11.574
▁ፎኦ	-11.574
▁ክገልጹ	-11.5743
▁ሓሊፈ	-11.5743
▁ኤሪና	-11.5745
▁ኣይሰማዕ	-11.5746
▁ትጠፍእ	-11.5747
ለቱ	-11.5747
▁ሓዲግ	-11.5748
▁ሳንጣ	-11.575
▁ሓሊፍና	-11.5754
ጥፍአ	-11.5755
ውረድ	-11.5756
ጊዜ	-11.5756
ሸነ	-11.5756
▁ከበርክት	-11.5756
ዮት	-11.5758
ዄ	-11.576
ፈቀ	-11.5761
▁ተጸሚ	-11.5762
▁ንጹርን	-11.5762
▁ረሲኣን	-11.5762
▁ንነፍስ	-11.5762
▁ኣምጽኦ	-11.5762
▁ጤለ	-11.5762
ቦታ	-11.5765
▁ከበሳታት	-11.5765
ከቡ	-11.5765
ግዙ	-11.5766
▁ደባስ	-11.5767
ልውጥ	-11.5768
ትኸውን	-11.5769
▁ኣሃይይ	-11.577
▁ትጉ	-11.577
▁ዝብለኪ	-11.5771
▁ማዓል	-11.5771
▁ተኮነ	-11.5771
▁ሓምሊ	-11.5772
▁ማለቱ	-11.5773
▁ሒዝናዮ	-11.5774
▁ምብዛሕ	-11.5774
▁ንዝኽእል	-11.5775
▁ባና	-11.5776
▁መሳርሕትኻ	-11.5777
ደጋገም	-11.5778
▁ክፍተ	-11.5778
▁ኣውጽእ	-11.5778
▁በልዮ	-11.5778
ከማ	-11.5779
▁ኣበርክቶን	-11.5779
▁ቀሪብካ	-11.5781
ሽጥ	-11.5782
▁ፈሪቅ	-11.5783
ዓወ	-11.5783
ኰነ	-11.5785
ጽላእ	-11.5785
▁ምግብ	-11.5787
▁ኣዚየ	-11.5787
ጊስካ	-11.5788
ሃሊ	-11.5788
▁ዝበልና	-11.5788
ሊለ	-11.5789
ፈትወኩም	-11.5789
ደርስ	-11.579
▁ርእየዮ	-11.5791
▁ኣዮ	-11.5793
▁ይሕዝ	-11.5796
▁ገሊጽካ	-11.5796
▁እንብሎ	-11.5797
▁ሃቂ	-11.5798
▁ኣድራሽኡ	-11.5798
▁ወለንታውያን	-11.5798
▁ሸለልትነት	-11.5798
▁ጠስሚ	-11.5799
ሩፍ	-11.5799
▁መለኸት	-11.5799
▁ቀቅድሚ	-11.58
▁ንከተማ	-11.58
▁ምጽጋብ	-11.58
መጺ	-11.58
▁መሰልጠኒ	-11.58
▁ዘመተ	-11.5801
▁ንገረና	-11.5801
ወደው	-11.5801
▁ዘምጽኡ	-11.5802
ከታተለ	-11.5803
▁ዕላማኻ	-11.5803
▁ቅቅቅቅቅቅቅ	-11.5803
▁ቡሽ	-11.5805
አክል	-11.5805
ንገብር	-11.5805
ስዐ	-11.5805
▁ስስዐ	-11.5806
▁ዘይፍለጥ	-11.5807
ዓትን	-11.5807
ጻሩ	-11.5808
▁ንኽብሪ	-11.5809
▁ክትብላ	-11.5811
▁ክንዳኡ	-11.5813
▁ኡፍፍፍፍፍ	-11.5815
▁ኣኽቢ	-11.5815
ውርዶ	-11.5815
ሰምዕዎ	-11.5816
▁ሙዚቀኛታት	-11.5818
▁ምካንካ	-11.5818
▁ክሰር	-11.5818
ርብሽ	-11.5819
▁ዓረብያ	-11.582
▁ዓሰርተታት	-11.582
▁ማት	-11.5821
▁ብእን	-11.5821
▁ሰላሙ	-11.5822
▁ሰዓረ	-11.5824
▁ብጾትካ	-11.5824
ስሕብ	-11.5825
▁ይውሰድ	-11.5829
ህረም	-11.583
ሓቁፍ	-11.5833
▁ፈተውት	-11.5833
ዝራእ	-11.5833
▁ሞዛይክ	-11.5837
▁አይደለም	-11.5837
▁ኣገራሚ	-11.5837
ትርፍ	-11.5837
▁ርጉእ	-11.5837
▁ዶንቆሮ	-11.5837
▁ዝራብዕ	-11.5837
ዶር	-11.5838
▁ንውልቀ	-11.5838
▁ኣዶ	-11.5838
▁ዘይከይድ	-11.5838
▁ፖግባ	-11.5839
▁ሰማንያ	-11.5839
▁ደራስን	-11.5839
▁ተወከስ	-11.584
▁መሊሶም	-11.584
▁ውድድድድድ	-11.5841
▁ኣወለይ	-11.5842
▁ተኾይኑ	-11.5843
▁ፈጢር	-11.5843
▁ሓቲታ	-11.5844
መልካ	-11.5846
▁ኮሚ	-11.5846
▁ነገ	-11.5848
▁ዑና	-11.5849
▁ምምራቕ	-11.5849
▁በጽሐት	-11.5852
▁ክሊማዊ	-11.5852
▁ፓርክ	-11.5854
▁ግበረሉ	-11.5856
▁ምድህ	-11.5857
▁ጥረታት	-11.5858
ምስርት	-11.5858
▁ዘይትገብር	-11.5858
▁ዝጽሕፍ	-11.5859
▁ንበርለይ	-11.5862
▁ተጽ	-11.5864
▁ኣዘዘ	-11.5864
▁ዘምጻእ	-11.5865
ፈላለዩ	-11.5865
ብርትዕ	-11.5866
▁ዘይጽ	-11.5866
▁ትግራይን	-11.5867
ጽንሓ	-11.5867
▁ሰምዔ	-11.5871
ኣመነ	-11.5871
▁ጀል	-11.5875
▁ዝቐርቡ	-11.5875
▁ቃን	-11.5875
▁ህዝቅያስ	-11.5875
▁መጋበርያ	-11.5875
▁ኣክላባት	-11.5875
▁ዕላምኡ	-11.5875
▁ጥጡሕ	-11.5875
▁ተመዲቡ	-11.5875
▁ኣናብባ	-11.5875
▁ክስርሓሉ	-11.5875
▁ተካኢ	-11.5875
▁ናሕሲ	-11.5875
▁ብጽንዓት	-11.5876
▁1977	-11.5876
▁ምኽኒት	-11.5877
▁መትከላት	-11.5877
▁ዕድሚኦም	-11.5878
▁ክምርዖ	-11.5879
ገብርዎ	-11.588
▁ነናይ	-11.5881
ጕድ	-11.5881
▁ክብርታትና	-11.5883
ጠነ	-11.5883
▁ዓቅም	-11.5884
▁ግረ	-11.5885
▁ንፍር	-11.5887
ሩዎ	-11.589
ተሩ	-11.5891
▁ይከይድ	-11.5891
▁ዘይርሳዕ	-11.5895
▁ዝተሳተፈ	-11.5895
ቹህ	-11.5897
▁ፍቅራ	-11.5898
▁ጸሓፍ	-11.5899
▁ከይበ	-11.5899
▁እዝኑ	-11.59
ጸነ	-11.5901
▁ግበርዎ	-11.5902
▁ደመይ	-11.5903
ዐር	-11.5904
▁ምግቢ	-11.5904
▁የቕርቡ	-11.5905
▁ኣሕሕ	-11.5906
ግዑ	-11.5908
▁ከለኺ	-11.5908
ዋፈሩ	-11.5914
▁መታለሊ	-11.5914
▁ኣኽኢሉ	-11.5914
▁ቀቲሉ	-11.5915
ድሕድ	-11.5916
መለሱ	-11.5919
▁ሳዳም	-11.5919
▁ቀጺልና	-11.592
ፈርስ	-11.592
▁ዝወሓደ	-11.592
▁ትሕቲኡ	-11.5921
▁ብትን	-11.5921
▁ንዝካየድ	-11.5921
ኹላ	-11.5927
ፈርሁ	-11.5928
▁ቀቲልካ	-11.5929
▁ብምውዳ	-11.593
▁ተራኢ	-11.5931
▁የዋር	-11.5933
ሳው	-11.5934
▁ከለኩም	-11.5935
▁ኣንበር	-11.5936
▁ከባብን	-11.5936
▁ፈሽ	-11.5938
▁ክኣምን	-11.5939
ረፊ	-11.5939
ግዐ	-11.594
▁ኣንቃዕ	-11.5941
▁እንስሳታትን	-11.5942
ጠዓሞ	-11.5942
▁ወሰኸ	-11.5942
▁ገላዉ	-11.5943
ኹዋ	-11.5944
ዓያ	-11.5946
▁ኢልካስ	-11.5948
▁ዓመታ	-11.5951
▁አበር	-11.5951
▁ገዓት	-11.5951
▁ካሜሩን	-11.5952
▁ኮዓሳሱ	-11.5952
▁ልስሉስ	-11.5952
▁ሾሞንተ	-11.5952
▁ኡሱራት	-11.5952
▁ይሕደጎ	-11.5953
▁ኣጥቃዕቲ	-11.5953
▁ጥርናፈ	-11.5953
▁መለኮት	-11.5953
▁ኣሕዋቱን	-11.5954
▁ብቑ	-11.5954
ኣከበ	-11.5954
▁ምውናን	-11.5955
ጻእ	-11.5955
▁ኣርኪብ	-11.5956
▁ግበራ	-11.5956
▁የጋጥም	-11.5957
▁ሃገሮምን	-11.5957
ቒሉ	-11.5958
▁ዋናጩ	-11.5958
▁ንህዝበይ	-11.5958
▁ክታሙ	-11.5959
[...]
